  t
  a
h e
i n
r e
 t he
o n
e r
  s
  w
a t
  o
e n
  c
i t
i s
a n
o r
  b
e s
e d
  f
in g
  p
o u
 a n
a l
 t o
a r
  m
  in
 o f
  h
  d
a s
â 
i c
 an d
 t h
l e
o m
i on
l l
en t
  n
  l
  re
s t
v e
  e
l y
 b e
  g
r o
i d
a c
u t
o t
  T
  I
 th at
  on
a y
  S
  is
a m
i m
e t
a d
o w
i g
s e
 f or
â 
  A
v er
l d
u r
c t
  C
  u
 s t
  y
  it
  he
i r
at ion
it h
 w h
  M
c e
t er
o l
 w e
i l
 w ith
 a s
  B
c h
i ll
n d
 w as
er s
  P
 y ou
k e
  â
 c on
 d e
  r
i f
he r
at e
 a t
a g
  W
 h a
 s e
  H
o re
u l
 p ro
p p
m ent
  1
  D
 a re
r i
es t
u s
is t
  R
 c om
an d
a in
o p
  2
 T he
ig h
  (
t h
r om
o d
 n e
  F
u m
u n
 e x
â 
a b
re s
  N
 n ot
  v
es s
 ha ve
ou ld
it y
e m
 o r
or t
 b y
o s
an t
  G
 f rom
i ve
 a l
' s
 s u
e l
ar t
o c
  L
 s h
 th is
n t
q u
igh t
u st
0 0
p e
  le
i es
en d
 c h
 s a
ou t
  E
T he
 a b
i e
ac k
al l
 â 
re d
  J
 h as
 p l
al ly
 g o
ar d
a p
e ar
 h is
i v
om e
g h
o st
as t
ou r
  O
 t r
  j
a k
 w or
u d
 the y
 d o
 b ut
 sa id
g e
 c an
 w ill
r ou
 w he
  U
  k
o k
ic h
 a ll
 wh o
id e
  "
am e
 in t
t her
an s
 o ut
 the ir
f f
i al
e ct
on g
p l
ic e
u re
p t
 m ore
ag e
ion s
ou s
i ke
on e
ac t
 m e
 u p
in e
 a d
 ab out
r a
im e
at ed
 we re
 on e
b er
o g
 u s
 s o
e p
 h ad
u b
a re
i a
c c
u e
 2 0
  K
 c l
 w ould
  im
in d
i z
 a g
 wh ich
a ke
ver y
 t e
 con t
 u n
 of f
 be en
 com p
 S t
s o
a u
 y ear
p er
 T h
  en
ig n
e w
i p
ar y
ac e
 l ike
o ok
e re
v en
ay s
 m an
 in c
r y
 p e
o se
ab le
it e
 p er
 re s
or d
as s
 s p
m er
 o ther
 I n
 s ome
i le
i re
 20 1
i b
op le
en ce
ic al
 ne w
 the re
 o ver
ation s
k s
ul t
 d is
res s
 al so
ow n
 th an
 a r
ou gh
 be c
in t
 the m
an ce
a il
p ort
 whe n
 a pp
on d
ou nt
r u
 you r
re e
 p art
 pe ople
 wh at
  qu
f ter
or m
 s c
 C h
a v
  Y
 j ust
as e
 an y
 k n
  3
 it s
 t ime
ac h
 he r
 I t
  V
re at
  if
 m y
en s
 re c
ic k
 g et
ve l
. â
 int o
ou nd
ir st
 t w
 n o
i an
 wor k
ct ion
d u
  -
ing s
or y
l ic
 pl ay
 o ur
it ion
id ent
or s
 p re
o b
an g
o ve
in k
ad e
is h
au se
w n
it t
ar k
at es
am p
 s he
  ro
, â
 c o
ver s
 p ol
 f irst
 a fter
 h ow
 c ould
i ous
nd er
n e
 a cc
 H e
i ld
' t
 1 9
 h im
 p o
a w
on s
 at t
he d
 f e
 on ly
 p r
ic t
 tw o
h ing
w e
â 
o v
 s er
 s pe
f orm
 com m
. "
 b l
 be t
 a ct
n ing
 de c
 b ack
f t
t e
c es
 m ost
o y
o od
  4
 a m
 d id
c k
 ag ain
if f
rou gh
rou nd
at er
 u nder
 w ant
d ay
u al
 â 
is e
 â 
r it
 year s
se l
u ll
. .
ent s
 d es
 bec ause
 n ow
, "
ter n
 e ven
 con s
l ud
 kn ow
ub lic
is s
 in v
 ne ed
e c
m an
o ld
 se c
 se e
 ad d
 in d
 W e
ment s
 e very
c ed
  $
f ore
u ch
  5
ur n
 m ake
 su pp
 U n
 e m
pe ct
 the se
o ll
j ect
oc k
 whe re
00 0
 l ook
ation al
um p
I n
as on
 b u
ie w
ver n
 d on
 w ay
x t
 r ight
 A nd
i ly
 be ing
T h
n g
 e v
l es
 m ay
at ing
os s
 T r
 d iff
 man y
 re l
 re m
 the n
ro w
le ct
 de f
as ed
 c all
at h
 th ink
i ed
 B ut
mer ic
ak ing
  [
it ed
 l ast
 inc lud
on t
 im p
 s ay
 th rough
 sh ould
 th ose
ow er
if ic
ot her
) .
ur ing
 re g
 f l
  very
e ll
 p res
ri b
 s y
 m uch
ar g
it ies
 b r
 sh ow
 st ate
t ing
s s
he n
 Th is
 be l
v ed
 p h
t y
 we ll
at ive
ic s
an ge
 W h
  end
 do es
u nd
 o wn
 d own
 as s
al s
c om
ter s
ar ly
ot h
 c ount
 m on
 A meric
 u se
in ce
w ard
om et
 be fore
 l ong
 te am
u p
 st art
g r
 N ew
u es
 go vern
 re port
  ke
ib le
ol og
en er
if e
t s
 m ade
re n
b le
 f in
- -
ou n
 2 00
i x
 s m
 wor ld
 su ch
 g ame
ers on
 go ing
) ,
 su b
 go od
f ul
 he l
I t
is m
e k
 a c
 again st
  6
il ity
or k
u ally
 g u
er t
in i
 po int
 s ur
 st ud
 e ff
y s
g an
  ent
it s
ist s
i er
 st ill
 s et
ar s
a x
we en
 le ad
 hel p
 g r
im es
rou p
 s ays
v ing
 c ol
e f
st em
 o b
â 
 wh ile
i o
al k
m s
ill ion
 pro du
sel f
an k
 s im
 th ough
 bet ween
c y
 t ake
 s ame
c ess
 m in
a h
 diff ere
oll ow
 n um
 st r
u res
am es
 con f
 h igh
 in ter
ar ch
e ver
 c r
 o p
a ir
 in st
us s
 s ign
 R e
 off ic
at ch
o ol
l ed
 l aw
h ip
 dis c
c ent
g g
n er
 pro v
w ay
 in s
 re t
re ad
he s
an y
vel op
 govern ment
 s omet
  ed
l and
ut ion
 m ed
W e
 th ree
 re f
e e
 t er
 tr ans
 f ound
ou se
 r un
 a round
 he re
 1 0
 re al
 A l
 us ed
o ot
 m em
at her
 Y ou
a ve
iv es
a z
al e
c on
 ex p
 sy stem
al th
et s
 s l
 g roup
c i
ce pt
 A r
  7
n in
 re ally
v es
 supp ort
 c our
en se
 Tr ump
 h and
 g reat
in s
p h
 w om
 m od
 p ublic
 f am
y ing
 spe c
 ex t
 c ap
 c ur
 c ar
 re ad
er n
 The y
 f act
p r
is ion
 C l
t on
 f ind
 d ay
o h
 ex per
 f r
 ha pp
ul ar
a j
 b oth
 mon th
ire ct
 d uring
 C om
 d et
in es
 re p
ic es
 I s
 S h
 to ld
 de velop
ut h
 b ig
e red
 f ollow
t he
 A s
 is s
 c re
e x
 p erson
i vers
 s ince
 c ent
m in
ord ing
 w ar
ak es
  0
 we ek
a red
r ic
ag es
  8
 f ew
ic ally
 pol it
 bel ie
m ed
. [
 L e
 le g
 g ener
as h
an c
 ex pl
 l ot
b ers
 cont in
ent ion
n ess
 pro t
g et
i et
 to o
d er
 p ut
re nt
 s oc
or n
 I f
W h
 re qu
 o pp
 an other
  9
 res p
 somet hing
iz ed
 differe nt
ch ool
at t
 c le
 in f
 p ass
 l oc
at a
 sec ond
 l ife
 pl an
v iew
 m et
 D e
 inv est
od y
 f ar
 f il
ro ss
 he ad
 ch ild
 ch ar
th ing
in ess
i ence
 c he
 comm un
ere st
 re le
 p ower
i k
 ne ver
 th ings
 b us
ar l
 p oss
iz e
 c amp
 b o
ie ld
u c
 de p
ut e
re t
ant s
 m ight
 ad v
i ent
 as k
 g ot
 e ach
 qu est
 â 
 v ot
Th is
 ar t
 b est
 ne xt
 F or
 m ark
c l
 F r
 de m
 all ow
.. .
 c or
 com e
2 0
  '
 Th at
 S e
 se em
itt le
 fe el
n ce
 per cent
 A n
 w r
it al
s on
t en
 inc re
 p ost
r at
p le
 h ome
u g
  .
 a v
 d ist
 op en
er v
 c are
gr am
i red
 U S
 cont ro
l ess
 p ri
 h ard
ch n
 R ep
os ed
 res ult
 P ro
 se ason
r al
 d irect
_ _
 B l
ate ly
 h um
 pl ace
g y
 num ber
 bu ild
 with out
am a
 f our
 in form
 includ ing
 to p
 m illion
c o
con om
 im port
 comp le
  ide
ri end
 rec ent
a im
l ine
ab ly
 pro ble
 t ri
 le t
 count ry
w ays
is hed
B ut
 st and
 e l
 bet ter
ar n
ain ed
 g l
e ad
 int erest
t t
r ation
 l ess
one y
r act
 m ov
l ing
 I nd
 part ic
 att ack
 l ittle
 b ro
a pp
 app ro
 be h
 m il
 call ed
 did n
 t urn
 re st
 d r
 c ase
is ed
ain s
od e
 p op
 m ove
re m
 eff ect
 p ay
aj or
  Z
 f ull
in a
 ke ep
 le ft
 pre v
 an n
 ser v
 new s
en cy
 con c
1 0
 pro gram
u ro
 The re
an n
er ing
at ure
 - -
 1 2
 t est
in al
 m ain
le g
 us ing
olog y
 w in
 for m
H e
 p os
 v al
 Americ an
 le vel
 f un
b e
ot t
 s chool
 e conom
ert ain
iv ing
 S o
 pol ice
ar ge
 wom en
in ed
pl oy
i ver
  =
' re
 l ist
 b ook
 sm all
 e as
u ck
read y
 d ata
 Un ited
 P h
r ap
oh n
us ed
 h ist
  Q
 re ce
 cur rent
 he alth
id ed
ir d
or th
 pro cess
/ /
 b re
 ch ange
 comp any
 pres ident
 1 8
 te chn
g er
re en
ru ct
 bus iness
r on
 al ways
 wh y
 s ol
 m at
 th ing
 p ast
 H ow
 al ready
ain ing
 ab le
 p rom
ard s
st and
w it
 l ater
 pro ject
 re se
 or gan
 ch ang
a ign
 pro f
 u nt
 st ory
as es
 d ri
 j ob
a ff
 ex pect
 O b
 B e
 cl ass
 m ajor
ou th
 a way
 cl aim
ur s
 S he
 offic ial
 m oney
amp le
ur al
 f ree
 t y
 v is
 t alk
u red
 inform ation
iv en
ur y
 c ost
he re
 p at
 e le
 des ign
ivers ity
s ide
 o ld
pt ion
 v iew
ac y
 k ill
 c ity
t o
 st re
le y
 does n
 import ant
 le ast
end ing
 m ar
s c
 a ff
 c ame
 happ en
 m en
  est
5 0
r ist
 camp aign
 A d
el s
 d ays
i ans
uth or
 o per
 m ust
id es
al f
ur ity
cc ess
res ident
 g row
 s k
ne y
 fam ily
 h op
 f riend
er al
 t ax
t ed
 rec ord
 m aking
 te ll
 en ough
iss ion
S t
 M ar
i or
 k ind
 v ar
 S p
 con st
id er
 e lect
is ing
 v ide
 s it
al ity
 G o
 l arge
pp ed
o ad
are nt
b s
us h
 pol ic
 to ok
 n ame
r or
 de al
if ied
u ed
 J ohn
au gh
 polit ical
 Rep ublic
  es
o x
 a ir
iv ed
1 9
 ed it
w ork
 unt il
 de l
A s
an e
en n
b y
  ve
oc rat
 g ames
ion al
 work ing
I f
 l ine
â ¦
i ol
 bec ome
 C an
 acc ording
 de b
ri es
-- -
d ed
 me an
E R
is ter
 for mer
 e ver
on y
 S c
em ber
 D em
ap s
 act ually
 ret urn
at or
 of ten
 b as
 w on
is on
y ear
 in tern
 hum an
 P l
 t imes
iz ation
i qu
 M c
 f und
 g ive
m ost
w are
 f ore
 play ers
en g
ar ing
 A ll
 s ing
ic le
 se ver
w h
ro p
it her
s h
 Com m
 or der
 R uss
 med ia
ag ue
 se en
b all
 wor d
 do ing
ut ure
f or
 char ac
 M ay
 b it
- --
 A t
The re
ra ft
 l a
 de v
 soc ial
 app ear
 mark et
 n ight
 you ng
o int
i um
 child ren
 c rit
  ,
 contro l
 ha ving
 r a
 P resident
 e arly
 f ac
c hed
 su re
 w ent
 per form
id d
 f ive
or ies
 sever al
 to day
i am
ak en
 Y ork
 be g
 O r
i ber
ious ly
b r
 S y
 C on
 p ress
 ev ent
en e
and s
 ar g
 1 5
le t
 E uro
 av ail
 St ates
 p ot
 o cc
1 1
 su ccess
 pro p
ver t
 whe ther
un e
 ex ample
 19 9
art ment
id ence
 al ong
 quest ion
at s
 N o
 like ly
u ff
 mil it
in c
 e qu
 inv ol
 month s
 w ater
 mem bers
m ber
st er
ot s
 se x
 sh ort
 f ight
 with in
  vers
 f ail
 d one
 c ertain
 am ong
A nd
 h our
 me et
em pt
 on ce
iv id
i ally
 B r
b ack
ub l
 an t
 under stand
 C ol
ort un
 though t
 s ide
 des c
it ing
ur ch
 me ans
n ect
l f
 pri v
 f uture
 ac ross
 en g
 v iol
 loc al
ent ial
 cour se
gg est
 produ ct
 1 1
re w
  #
 invest ig
on es
 h old
ul ation
l er
ver age
end ed
 ch o
 Ob ama
 kn own
 M r
 re ason
g ress
our n
im ate
 w rit
  &
 O n
m y
 act iv
b ook
 poss ible
 prot ect
 St ate
 su ggest
it ive
 avail able
 proble m
ã 
oc i
 W hen
 n on
ag ed
 commun ity
 y et
 ask ed
 l ight
 H ouse
 vide o
 201 6
 or ig
 m akes
 a uthor
ar m
ed e
 c reat
 get ting
 c ut
ens ive
 belie ve
 con d
n ot
ed eral
 g iven
 pro b
 Euro pe
 3 0
 b en
 report ed
ur ther
al d
 other s
o ber
g ing
it ions
iet y
 Ch rist
 n et
 l and
 c a
 C ent
or ld
Y ou
 C o
as hing
 F l
 m us
  i
u ly
p or
 ann oun
 T e
 str ong
  ]
 de ath
an ces
 l im
 n ational
ir on
 Dem ocrat
1 2
 start ed
 201 4
 ag o
  X
  ident
 s ent
as ter
ore d
re st
 h alf
 A m
' ve
 em ploy
 201 5
 iss ue
 p ar
 m om
 h ig
 cl ose
 tr ying
3 0
 acc ess
 follow ing
her s
 Un iversity
 l ove
 hist ory
 part y
A T
ort s
il ar
 b ased
 sa f
 com es
 S en
 Americ a
. ,
 s our
F or
in ation
sel ves
 al most
 f oc
an a
â 
 ser ies
 ind ust
 l ow
res ent
ivid ual
u ment
 to get
 toget her
 ide a
u se
ab ility
ition al
 look ing
 1 6
  Â
 acc ount
og rap
 s ix
 O ne
ut es
o f
th ough
re am
 add ed
 exper ience
al es
r ict
 is n
 imp ro
 any thing
ere nce
ail s
ie f
ot e
 say ing
r ing
 M in
ust om
 cle ar
i en
ap er
wit ter
I N
  er
e b
 tr ad
 m or
re ed
un ch
 A f
p ro
ir c
c er
 f av
e v
 P r
g ed
s y
 an al
a id
 are a
 r ul
 pr act
min ist
1 5
 comple te
  /
 1 4
ro wn
 m iss
 ph ot
 Wh at
 f ace
' m
 l ive
 pres ent
r is
 ne ar
 cour t
 E x
pl ay
ra w
 E ng
 ind ividual
 comp et
 v ict
 fil m
 b ill
 c ult
ow s
 Can ad
 sing le
ward s
 r is
 t aken
os p
ru g
 th reat
 bl ack
 H ar
 m ind
g o
 b ad
 tr y
 r ather
 ent ire
 m ult
 P ol
 a ut
 C ity
 col le
ci ally
 pro per
 W ar
a i
 beh ind
  z
 1 7
 milit ary
 want ed
er man
u ge
 B rit
 p ubl
O n
 conc ern
Wh at
id s
 stud y
 I m
 qu ick
 N orth
int on
at ors
 to t
 s um
 C al
p ar
 re du
 disc uss
at ic
n es
o ff
 sec urity
a f
 f all
 D on
O N
 G r
ra el
 play er
 m ess
 spec ial
 polic y
 f oot
A n
 S ec
 point s
 pre t
 br ing
el t
ar ter
 rese arch
W hen
 1 3
 prob ably
 att empt
 T o
 com b
ashing ton
p ly
ll ing
 p ick
 D ep
 comp an
 h ouse
c hes
ro te
 some one
l ish
 t aking
 ke y
 c ou
ic ult
 f ield
ir l
R E
1 6
 w a
 ben ef
rem e
o ver
 im m
A N
 A ust
 b ody
tt p
if y
 t arg
 con nect
 con v
 not hing
 sim ilar
 c oun
 fr ont
 com ing
 right s
c ing
v iron
 me as
 f ood
 j o
 sign ific
m ing
. )
S o
 f urther
 el se
 desc rib
 W orld
 sp ace
 s w
 N ational
 l ab
 e y
I S
 e ither
 ex ist
 serv ice
 le arn
ri ed
y n
ã 
 dec ision
 w rote
am ed
A d
 how ever
ar th
__ _
w w
ac es
 beg in
a ult
ull y
 w atch
as ing
itt ed
 re pl
 cre ate
Th at
he ad
 201 3
 th ird
 W ith
 who le
 iss ues
ive ly
  |
 en er
: //
 W ashington
 rel ations
 s us
  +
 M an
 h it
1 4
ol ution
 en c
 ch all
un g
 rele ased
 fe at
 lead ers
o on
 m ass
 com pl
 st ep
 ro om
pp ing
ro du
 tr a
 compan ies
 G u
 d oc
 seem s
 st op
 Cl inton
 2 5
 D av
ent ly
p ite
 d ue
 o pt
 d am
a ul
a pe
 E d
l am
  :
 c ustom
 c and
 f ederal
 f ire
 f ig
 su per
 Is rael
 every thing
 out side
 be gan
 J an
 d ou
 In st
 fin al
 How ever
 charac ter
r an
n ow
am er
 bre ak
 develop ment
 in it
 se lf
um b
re g
 am ount
e al
arl ier
 mat ter
s w
 B ar
ad es
 P art
m b
 it self
 pos ition
 t re
 gener al
 st ri
 g un
ib ility
 S outh
 G e
le ment
 t reat
 contin ue
pe cially
an ks
iv il
 st ates
end er
_ __
 ex ec
l u
A R
 M ed
u ation
 s ound
 state ment
id ay
 201 2
 bec ame
ograp h
 him self
il i
l im
 ro le
att le
 ne g
 In tern
 st at
 stud ents
se c
er y
 S u
 official s
 201 7
 was n
viron ment
 them selves
 off ice
 b all
il t
 in j
l ike
â 
ace book
 prov ide
 wom an
 ag ree
 a ction
C h
 re d
og n
 l arg
 signific ant
 run ning
ob al
B C
 diff icult
 spec ific
 prof ess
 hour s
 play ed
 de ep
 cap t
 ph ys
 build ing
 ad minist
1 8
ac ed
 g round
 l at
 tr ue
ir t
 sim ply
 inter view
 play ing
 c op
 ch arg
 1 00
 rep resent
 d om
1 3
 J ust
 sa w
 ab ove
 comm on
ourn al
b ody
r ight
 bel ow
 A pp
 a p
 m ag
 count ries
' ll
o id
idd le
 R es
 ener gy
 ev idence
as k
at ur
ang u
e ks
 d rug
 s ense
 show s
 group s
 resp ons
 friend s
i od
 wh ite
 pret ty
 need s
t ime
 l ost
 ex c
 every one
Ã ©
 A b
 5 0
 tr ack
 A ss
 t em
iqu e
 d est
 vers ion
i j
 ty p
 Ch ina
 add ress
 H is
 b ar
 M us
if t
s er
  )
 val ue
ac hed
1 7
 recent ly
 need ed
 p ain
 r ad
y le
 for ward
 C ar
 19 8
 W est
 chang es
 cand id
 mus ic
 h om
 d i
 rele ase
og le
 e p
 includ e
cc ording
om m
 g en
 al leg
rib ut
o ke
 qu ite
 l ate
is c
 t it
 indust ry
 ele ction
ist ic
 c irc
n ed
 m ot
e g
 on line
 Wh ite
 inst ead
 A fter
d en
e le
 G erman
 s ite
or ing
 we eks
ar c
S T
ep end
 det er
 an im
 mom ent
os ing
 ac cept
ent al
 h ost
 j ud
 leg al
ight s
 sh oot
 opp ortun
 vot e
 T witter
itt ing
e ed
i ents
 ab s
 p le
A l
 es pecially
w here
 wr ong
 rel ig
 p arent
 go al
H ow
 p ie
 su ff
 dec l
b o
iv al
 we bs
 M y
 N ot
 so on
ap t
 2 4
 ob ject
 p red
 C ong
 econom ic
 long er
 Republic an
 hig her
med i
 hop e
 bl ock
ul arly
e es
ag er
 ed uc
 W ill
 he ld
h am
ir m
 w alk
 per iod
* *
 A ug
 D r
 b illion
 foc us
op h
The y
 techn ology
 cons um
 New s
as ons
 re view
l t
 c ode
 law s
ri pt
 Se pt
o e
 wor ks
 st ay
 sh are
c ial
 Dep artment
 O ct
on se
 targ et
r ay
 M ich
 che ck
id ing
 The se
 cons ider
 l o
 M arch
du ct
h od
 st ru
 l ed
 person al
c le
 h y
ove red
o le
 re ve
 result s
 any one
 v ol
 Aust ral
 a ge
 de ad
ud e
 word s
 min utes
 so ld
 d en
 pot ential
c il
 St e
 e arlier
 cont ract
 w ind
ke y
her n
re l
 S m
 fav or
 b ase
ate g
 J uly
 tot al
 serv ices
 r ate
 app lic
pr il
ã 
 pr im
 ris k
  Ð
 ne cess
al t
ag ing
act ion
 J une
he l
 for ce
 pop ular
il ities
 imp act
 F acebook
 sc ient
u ary
is l
 art icle
 E n
h aps
 spe ak
 re v
 M ond
A S
ang er
our t
 w ays
 cre ated
it er
end s
  <
u el
 a ud
ic ro
 sur pr
 proble ms
f ect
 G od
 R ed
a ut
 201 1
 can not
E N
 ant i
f er
 up d
 res pect
 expect ed
 co ll
 sh ot
 an sw
it ution
 quest ions
2 5
ip le
 cl ub
P h
 priv ate
ap an
 exp ress
 incre ase
 invol ved
 Cong ress
v al
 c red
pl es
itt en
 rece ived
it iz
re et
 fun ction
 eas y
ot o
 Sy ri
anc ial
 en vironment
 com ment
c ast
ct or
 cont ent
 sub ject
 comp ut
 m ater
av ing
 l angu
am s
 P e
 H ill
 p ort
 Mond ay
O R
 pr ice
 announ ced
 p ack
 t ou
 relations hip
 us ers
c he
 ex act
 bro ad
 he art
at ives
 p ur
 st aff
 D o
 c ivil
p ut
 s en
 S an
 ne arly
itt ee
 resp onse
 orig inal
 Cal if
 exec ut
u le
 report s
at ural
ll ed
 l iving
 c ases
 C ount
 Fr iday
le x
i res
 A pril
 ar rest
it es
 m other
ip s
ues day
 c al
op s
h ood
 col lect
on st
 ins ide
 o il
ok es
 ter ms
 work ed
est s
 W ed
 st ore
 T V
 bec om
 n ation
 P al
 ty pe
 d iv
  {
 s qu
m on
a el
m p
A t
rough t
 resp ond
et er
 f ans
ell ig
 g irl
6 0
 r ound
ough t
 a verage
 N ow
 19 7
  ur
 im medi
 so ft
 team s
or g
 l ack
om b
 S und
 Russ ia
 publ ished
j oy
 intern ational
 kill ed
 t akes
" .
o or
b it
 wor th
e ch
e xt
 Americ ans
iz ing
 T uesday
 4 0
 est ab
ist an
ct ions
 201 0
T o
 net work
 Is lam
 ter ror
 Af ric
 work ers
 ab ility
 ch ance
nes day
 g ave
 def in
 c y
 ass oci
 ar ri
vert ise
 Wh ile
 ad m
 Brit ish
 A ng
 Go ogle
 direct or
 care er
 c ell
 who se
 m id
 dec ided
es e
 le ave
r ain
is es
 num bers
orn ia
ic ated
ov ed
 we ap
 f em
 happen ed
olog ical
cl us
 e mer
 bu y
n ers
b ased
 cap ital
 J apan
 aff ect
k y
 mod el
 sour ce
a ily
 e t
 b ur
  @
 go es
 ro ad
 N ove
un t
 S ome
 l ives
 A ct
O ne
 l og
 O ff
 inf lu
 turn ed
 P er
 t al
 pl ans
 m atch
a ur
b l
 current ly
 rec ogn
 gl obal
urs day
 appro ach
 Wed nesday
 ph one
 mater ial
 st e
 requ ire
 2 2
os ition
 fore ign
 B y
 Dav id
 Sept ember
 E l
 off er
 sit uation
 administ ration
 th ous
 ev ents
ord er
 m is
 C or
b or
 S ch
f ully
 reg ard
ill s
 int rodu
 Jan uary
 A g
he m
 B ro
 cou ple
 h on
 G l
 l ower
 tr ade
in o
o o
 P aul
 Aug ust
 l oss
 C ourt
 f elt
 p ict
um e
s et
 b oy
 impro ve
 mem ber
  ill
 2 1
le v
ou d
 met hod
 b ank
 h uge
 re pe
 p ull
 webs ite
 r ace
 to ol
A C
 f ather
 Sund ay
 M e
 Calif ornia
 sec ret
 st ruct
 f re
 p age
l oad
re ct
 quick ly
 leg isl
 w ide
 sim ple
 meet ing
 he ard
 perform ance
et y
 kn ew
 Th ursday
or ters
es tern
 F eb
 fin ancial
 d ig
 move ment
 tra vel
ru ction
 are as
 tri ed
 v ia
 te xt
 Nove mber
 co ver
â .
 p ers
en ed
4 0
 n orm
sy ch
en ing
 re ach
us es
 to wn
 beh av
 or d
at ory
 econom y
ak er
 reve al
 po ll
 Cent er
 en joy
g est
 produ ction
 bu ilt
S h
 allow ed
 hand s
 partic ip
 includ ed
ific ation
ch ie
 f ear
. ..
 se par
) ;
 bo ard
 want s
' d
 vict im
d own
l in
ur d
 fe ll
ict ion
 partic ular
 2 3
 em ail
 vis it
 b rought
for ce
 h ttp
 prev ious
 Bl ack
f ace
 P ost
 are n
 c ause
 mor ning
u k
ce ed
A fter
 s ize
 att ention
ra z
 h ot
ide red
 st ar
W ith
 sp ent
 ve h
 Sen ate
 lat est
 en s
av y
 p aper
 m ention
 Oct ober
? â
 per fect
 for ces
E S
9 9
ess ion
 S w
 Canad a
 Q u
i ant
 ne igh
 eng ine
 tr aining
u f
Ð ¾
I T
ib ly
und red
Wh ile
 dem and
ond on
 T ex
en ces
 200 8
 pop ulation
ar ily
st on
il le
age ment
 l ink
all ed
" ,
 look s
 lead er
i ers
 J ew
0 00
f l
led ge
 P ar
ce mber
atur day
 level s
 Russ ian
 r ac
se qu
 b i
 w ond
y ond
h old
he t
 P ark
 pro gress
ic les
et t
 c itiz
 ind epend
 ex am
 Europe an
 get s
 f air
 var ious
 grow th
p s
 f ast
 bo x
 T imes
 co ach
 Ind ia
m a
A L
 cont act
 talk ing
 v o
 C ont
 Part y
2 00
ec ause
ar ies
r im
 H er
 b ud
 cons idered
  }
 se arch
ident s
 s ort
 stru gg
 do ll
 Le ague
 Count y
 med ical
 u nd
 im age
op e
in ks
 h or
 investig ation
 add ition
u it
E D
g round
 parent s
 langu age
 set t
 I S
 s ens
 rul es
T r
ic o
v ent
p ir
 pr ison
b ed
an i
 r ange
at form
w o
 spe ed
  ess
 I ran
 re b
f ield
 St reet
ys is
 con duct
n y
u ments
ellig ence
om p
 K ore
 crit ic
ra q
c ome
ig r
un k
e ared
ap h
 feat ures
 s on
z z
et h
 wr itten
I C
 ser ious
id ge
 P at
 sl ow
 incre asing
 b ott
 M ark
ve y
 l iber
 S aturday
am ing
 De cember
 st uff
 sex ual
 a chie
ic ation
 Mus lim
in ing
 soc iety
 2 8
z e
 ext reme
 attack s
 pre p
 se ven
l ight
 mod ern
c ies
 s ong
 job s
 up on
 e ight
 doc ument
 prev ent
im ately
is ions
 m iddle
 sp okes
Ð µ
 L ondon
 he ar
 M ore
 gu y
 j ournal
vertise ment
id a
 see k
 system s
 U K
ab or
 partic ularly
 st ories
F L
I m
 dou b
 c ard
ren ch
 h ous
 d raw
 ter m
ur t
 des pite
 opportun ity
 ext ra
 in n
er c
 mess age
om an
 I raq
 d ro
an ced
 s n
 requ ired
ru ary
 ob v
O P
ent ially
 m ach
 def ense
 big gest
 sum mer
 res our
ro om
 bl ood
Â ­
 pri or
e ff
 reg ul
 2 6
f ort
 major ity
 cost s
 c ross
at ter
ic ks
 eff ort
 viol ence
 Don ald
 complete ly
 product s
am ent
g es
 p en
 qu arter
it ch
 t able
 car ry
ill ed
 Mc C
 im ag
 h undred
 n atural
 a w
 sur v
 cult ure
 d ied
 E m
ag o
ak ers
av es
 E ast
n ces
 rem ain
r ast
 occ ur
 interest ing
as c
le ar
ish ing
 read ing
S he
 u lt
 hist or
 look ed
 g as
  ...
 N et
 m ob
 certain ly
ly ing
reed om
 con vers
 show ed
 describ ed
 r out
 offic ers
 M or
 lead ing
 answ er
 2 7
 on es
 exact ly
 reg ion
 claim s
 p aid
f ord
 l ay
augh t
in ally
 incre ased
 ex cept
al y
 fin ally
 I nt
 qu ality
 J ack
 somet imes
u ing
 cons erv
 chang ed
2 2
 cl imate
 foot ball
 contin ued
os es
 c amer
ut ions
 Republic ans
ens ion
 start ing
 pract ice
 sc ience
 S pe
 educ ation
 cr im
 Tex as
 C oun
 exper ien
ous ly
t r
 n amed
 S and
 writ ing
 com ments
or ge
osp ital
 wr ite
ib r
en ge
 grow ing
 g iving
 K e
 would n
 Ind ian
 stand ard
 ass ist
 t ro
ar a
 rem ains
 po or
 S oc
 200 9
H E
 us er
 sc reen
 fail ed
 Â £
ar i
ines e
 C ons
y l
 prov ided
  *
ar r
 part s
port s
 p ath
 d anger
ou l
us ing
 p urch
 think ing
 mult iple
 requ est
N o
 B ill
 mov ie
im ent
 J ames
 ch ief
t ain
 dem onst
 un f
A M
 pl atform
 effect s
 â ¦
in ary
 gu ys
 E ven
 le ague
] [
ab les
 Democrat ic
 Eng lish
 pur p
 Feb ruary
op er
is i
co in
 k ids
 dam age
 ro b
 al one
 cent er
m it
 ( @
 c ele
 br ain
 could n
 real ity
 through out
ener al
 det ails
 b an
 K ing
 al though
ur ning
2 3
 thous ands
 M on
ur ance
 rese arc
 direct ly
 p an
 vot ers
 f ile
 includ es
 cons ist
am b
 Mich ael
 book s
 to wards
 tou ch
 D es
 saf e
O T
2 4
 add itional
 sub st
r s
 read y
 f ix
 be yond
pp er
it ness
 us ually
 a head
 S erv
it ute
 pass ed
 per haps
B I
â  
 d ate
amp ions
 imp lement
 immedi ately
 eff orts
 s we
b an
 ep is
 av oid
 m ill
 d ark
h ib
ad em
n a
 coun ter
 con cept
 rem ember
 it em
 rec omm
 deb ate
 call s
  il
 to ward
 e arn
 tit le
 sc ore
ast ic
ing in
an ch
 se lect
he st
C l
 pie ce
w ise
 let ter
 s at
 se ll
 saf ety
 g one
 Democrat s
 cle an
 cho ice
  ver
 s le
 mean ing
ci ent
 o ption
ra ight
 begin ning
 sc ene
 rel ative
N ow
O S
ic ations
e gr
 c ast
 re asons
ru pt
 cond itions
ress ion
 appear s
 op in
Ð °
ri ef
h a
 help ed
A ll
 la unch
 ag ency
 Min ister
 p sych
 dis app
ac hes
 Ch inese
in ated
 design ed
 T ur
 do g
 differe nce
ate ver
 w ife
  x
 rece ive
 t en
 S er
 G reen
ro y
 cent ury
 th row
= =
A D
 offic er
 col or
 colle ge
 mov ed
 6 0
o es
 R ober
 Ass oci
 proper ty
 dis e
 chall eng
 fig ure
 Will iam
ir th
 de g
m en
ri age
 spe ech
 phys ical
om en
  ign
e an
il ies
 F irst
uc lear
 N e
 press ure
 cl os
 B o
 D ay
 a im
  ut
 comp ared
 may be
 sus pect
 s il
 cop y
ub e
 cor por
im um
ber g
iv ity
s p
u x
B y
 comple x
 s al
 O f
 R ich
 The n
 2 9
 M ex
ic ient
ar ian
 soft ware
 inc ome
 stud ent
n ew
A P
 n ature
 C he
augh ter
 ey es
air s
 my self
il es
 enc our
ven ue
 sm art
? "
 c row
I s
 alleg ed
it or
 ar ch
 dev ice
 ro ck
 f an
8 0
 necess ary
i able
 happ y
uf act
U S
 p ark
ol ute
 charac ters
 organ ization
  â
 co ol
 mov ing
 larg est
 Pl ay
 follow ed
 est im
 polit ics
 act ions
M y
ock ed
 power ful
j ust
 pre m
ag on
 me ant
 V al
w ood
 treat ment
R e
 sp ending
 a ware
 we b
res h
 w all
 bl og
 anal ysis
er o
 M art
 t our
 fe ed
ir ing
ar ning
 pos itive
 n om
 citiz ens
 sh own
 dis play
 es c
 candid ate
 your self
 tw e
ent y
y an
 lim ited
 st age
ot a
 I I
 bud get
os h
er ve
 s ales
Ad vertisement
ur g
in n
 y es
m ore
 pre c
 school s
 b and
 char ge
 comput er
ut y
it ation
 F rench
 cont ribut
or ks
ad d
 d raft
 m ix
 ref er
 Ang el
 for ced
 conf erence
or ney
or ter
 meas ure
ig ration
 dri ve
 b al
 S im
 eas ily
 event ually
 president ial
 cor rect
p re
 T or
 over all
 st raight
k en
 relig ious
in y
 Su per
 app eared
 tr uth
 not e
 W ind
 J er
 H ere
A ccording
ch ange
 c at
 p us
 aut om
 conf ir
 allow s
 fam ilies
 execut ive
 Austral ia
N ew
 r ap
 an g
 exp and
 custom ers
 un ique
 v irt
 individual s
 dis p
 stre ng
 cr ime
 fe ature
 Sm ith
 cr is
 il leg
 det ail
 b attle
ress ed
 B en
 A ir
) :
b um
 dec ades
 fre qu
 d rop
 f irm
 em b
 develop ed
 comm and
 L a
 att ract
 seem ed
 adv ant
 chall enge
 contin ues
 sign ed
 bro ther
 pred ict
v ille
r ated
 Syri a
4 5
 l if
 r ates
 gr ad
 know s
 l ines
c raft
 App le
 Coun cil
 Intern ational
ol ic
 benef its
ain t
I A
 r are
U n
 success ful
 ke pt
 Pol ice
2 7
 n ice
 cent ral
 know ledge
le ase
 Com p
 st o
 h ar
 app arent
 re ached
 go als
 re form
 19 6
2 6
a res
 prom ot
S ome
 Intern et
 man ager
ch an
 l ic
 E arth
 anal y
 sp ot
 g ives
eng th
 us es
 m ist
b and
D on
 prev iously
 ind ic
E T
 tr ust
 min or
3 5
 not ed
 Christ ian
ter m
n own
 v ac
ite ly
 high ly
wh ile
 man ufact
 fe et
 ide as
 c ities
k i
  00
 stud ies
ad o
 full y
 sus p
 do or
n et
 U p
 St ar
ant ly
 shoot ing
 ref lect
 B el
 be aut
ic ago
ot i
 F rom
 project s
 Fl or
 organ iz
 em ot
i ance
iver se
 sen ior
 inc ident
p art
 C up
 Go vern
B e
 call ing
 program s
w ide
 M ac
 ra ised
se y
 weap ons
B A
 al tern
 great er
 larg er
 sa ve
bo ard
 pe ace
 favor ite
 T om
 go ld
m ar
A r
on ents
 n uclear
 rel ated
 Fr anc
 ca used
on ent
 S chool
ound s
 pl aces
a ith
 own ers
c ul
 int elligence
 tr aff
ro ll
 e th
 R ec
 fight ing
 researc hers
2 8
2 9
 prim ary
 vo ice
 Ge orge
 stat us
 pat ients
 employ ees
 A nt
 reg ular
 crim inal
ol es
 G eneral
i pp
ro l
 f ine
 ey e
 B rown
ic ed
 s end
it ude
 g reen
 r ule
 cle arly
 r ise
C C
 pr ices
 E very
 l iter
N ot
 200 7
se e
ic it
 D ef
 R ob
 H igh
 p ush
 ar m
 resour ces
en cies
b ox
 sp read
s is
 fem ale
sec ut
b on
ic a
ing ly
u ana
ow ers
 Un ion
od ay
a ud
us ion
 cris is
y a
 wa it
 per m
 B ay
 sour ces
 creat ing
 ha ven
 D is
 supp osed
 activ ity
le ction
id ers
 M et
I D
 sh ut
O M
oc ks
 dist rict
ate gy
 claim ed
ign ed
il ed
 fund ing
 crow d
qu e
 charg es
2 1
 st yle
 conf lic
 sp ir
 L ou
ve re
 p un
 polic ies
if ying
 part ies
. '
 S un
 te lev
 la un
 Re g
 sp end
 int egr
 n ames
 G old
 l ik
E O
 sl ight
s pect
ij uana
 see ing
 norm al
E C
 agree ment
 trad itional
 h ospital
 bas ic
 al bum
on a
 belie ved
 end ed
 wond er
d d
 off ered
 gr and
 happ ens
 ob ser
ear ch
 Flor ida
5 00
 im pl
ect ion
 ac qu
 opt ions
i pped
 min ister
S c
 b irth
9 0
 wh om
 be at
 mar riage
 ad op
 Ch icago
 j ump
d om
 prop os
 pr int
ak ed
 sc en
 German y
 add ing
m ark
 Sc ott
S A
 stre et
 B re
 qu al
IN G
 ins urance
ing er
 tr ou
 A P
 Ar ab
 ass ault
ag s
 reveal ed
 B er
 le aving
 M ost
 r ank
 ens ure
 will ing
ww w
7 0
 un s
 A ccording
 200 6
 arrest ed
 Hill ary
ro id
 se ction
1 00
  ir
 b rief
 cred it
 app l
. â
 un c
 deter min
 record s
 most ly
u pp
um an
 Tr ans
 en force
 w at
 f reedom
 O h
 st ation
 author ities
 behav ior
â ,
 c ry
O U
 m ount
 He alth
 A lex
 mass ive
 tem per
 mil es
ab y
E L
 abs olute
 produ ce
ist ry
 P ort
 act ual
 pat tern
 concern s
 en em
 t end
 w ild
p ri
  >
 val ues
 Eng land
 M o
 b orn
 f at
 dr ink
ac ing
 applic ation
al se
P ro
 com mer
 pl ant
p en
 C r
H ere
 post ed
 John son
 off ers
 adv oc
 cele br
or ial
r ont
 wh atever
 L et
ci ence
 me chan
c her
 Sec ret
rib ution
 m ale
 run s
 week end
 feel ing
 pict ure
 produ ced
 cho ose
 k ick
 independ ent
 tr ain
 M ag
ri an
 We ll
so ft
 learn ed
 the ory
 comm it
 belie f
 show ing
 d ire
g en
ri ption
 Wh y
Im age
 ad ult
 we ight
 m er
u ild
 crit ical
 co verage
 law y
B l
out hern
 im ages
 doll ars
 te ac
 deb t
 ent er
Ð ¸
 neg oti
 c ars
 P ress
ur ies
 legisl ation
3 3
arl iam
 init ial
 m ur
 S am
 res idents
 W estern
 H am
 str ategy
 occ as
 jud ge
 E U
ra v
 prop osed
 no vel
est ic
 l ose
 m ission
 N FL
 d ream
 benef it
 L aw
 cond ition
 W all
r am
 f it
 dig ital
ent ed
 Fr ance
ort hern
ad a
 influ ence
ic ial
 advant age
 et c
ir g
 d aily
 estab lish
ber t
 rest rict
 dev ices
m ine
 prot est
ord s
 O ur
 br and
ce ll
 G et
 confir med
 oper ations
 Ph il
arliam ent
 respons ible
ill ing
 repl ace
u gg
 camer a
 c ru
gh an
 sol ution
 che m
 v ill
B S
 Comm ittee
 le arning
 prov ides
 charg ed
 St ud
h ttp
 effect ive
 ask ing
a e
ic ians
 m ap
 Pe ople
om s
 open ing
How ever
 expl ained
 M ike
 hig hest
 ch air
E x
ri al
The se
 gener ally
 = >
 bas is
 tri al
 hundred s
um n
 3 1
p oint
 ag reed
 opin ion
 inst all
 typ es
ear s
oc r
Ñ 
 announ ce
az ing
ill er
 L ab
 wor se
 interest ed
z a
 def end
 M il
 he avy
 G reat
 M ad
n o
 commun ities
 elect ric
 M al
 3 5
r ate
 part ners
 eas ier
il ing
 neg ative
 re ject
 on to
 g e
 dise ase
 vict ory
 R o
 associ ated
 Franc is
e y
i pe
 b order
r ig
 T er
t ies
 bott om
 Just ice
 put ting
 telev ision
ortun ately
 F ound
 understand ing
 dou ble
 hous ing
 he ro
 mar ijuana
om as
com ing
 e arth
 lim it
ad ing
4 4
 r at
 becom es
 f resh
 acc used
c ont
 B ush
 Kore a
 Off ice
 epis ode
 sle ep
 c ore
ograph y
C on
G et
i os
 intern et
 mem ory
 D iv
ic ip
wit ch
 becom ing
 contro vers
 g ay
 fr ame
 P C
 J im
 opp osition
 sol id
 scient ists
 mill ions
I L
 stri k
le vel
st e
 B ecause
 O ther
 def e
 we alth
 invest ment
 redu ce
 L os
 loc ation
 compet ition
 extreme ly
 L iber
 th us
w in
 n ine
ili ar
 win ning
 lab or
 sur round
 Islam ic
 Canad ian
 B it
 open ed
 t ick
 ser ved
and om
sc rib
 9 0
 inc red
 Q ue
 mob ile
our s
 ass um
ak istan
o ly
 M any
 b ed
 jo in
v est
if ul
ol f
 dest roy
m iss
 aud ience
i h
ic i
 mach ine
G B
 n orth
 act ive
icro soft
 m ax
 supp orters
l ant
 separ ate
3 6
 iss ued
 achie ve
3 2
 rest aur
 Ar t
i ation
v ention
re y
 d ed
we ll
 sh ared
 drug s
k nown
 res ist
 Inst itute
â ¢
 dec ade
 expl ain
F C
 h arm
 illeg al
 purp ose
 f aith
 watch ing
 sit es
 sp oke
 U N
 7 0
 M od
 s outh
 J ones
 H all
 view s
 dep artment
l ished
 com fort
ist ics
irg in
 8 0
 ch urch
 D el
y m
ak s
igr ants
 sh ip
 r an
 Comm ission
ed y
 man agement
ou ston
 Wind ows
ac ity
 S ince
w orks
im b
â 
ar io
 exist ing
 Sec urity
 profess ional
 fl oor
 U k
 as pect
 trans port
 Rober t
ad y
 M iss
 doub t
i us
ul f
 p urs
 Pal est
 ser ve
 F BI
 back ground
 find ing
 return ed
 A tt
 neigh bor
 s pl
 c ash
 Ch ris
at ically
N N
as y
in ate
az on
 gener ation
 he aring
 tre nd
 k id
res p
s pe
 leaders hip
 Angel es
A meric
 un like
go ing
 pl ays
 trans fer
 c ateg
h ouse
 concern ed
 sur face
 defin itely
 dri ving
 w itness
 Af ghan
 struct ure
 doc uments
 arg ument
ct ors
 inj ury
land s
ann el
Ñ 
 gu ard
 laun ched
 sp orts
 Y our
 l oad
r ick
 L ike
 b omb
 Afric an
 danger ous
P S
 c ards
od es
 far m
 te ach
M r
 v s
D A
 aff ord
 S up
 f uel
g l
 B ig
ampions hip
 dec isions
 Sand ers
z en
 disc overed
a it
 co al
e ah
 veh icle
wh ich
 c aught
ul ated
  ;
3 8
 R om
 D ist
 m icro
 Comm un
 app eal
 item s
 comm ittee
el ine
 dire ction
ic y
 bl ue
 ref ere
! !
 phot o
 s un
 tell ing
 qu e
 mur der
 test ing
 Ch urch
m et
ant ed
 Afric a
 n or
 hold ing
O L
f erence
in ct
r d
 s an
 large ly
ibr ary
 support ed
 traff ic
or row
 re act
 we l
 R ock
 not ice
 am b
 cl osed
 W il
and on
 candid ates
oy al
 repe ated
 d aughter
 B ank
 suggest ed
 rad io
ar ant
b ut
r ad
 meas ures
 Mex ico
4 9
 wor st
 Jew ish
 M at
s erv
 belie ves
 cont ext
 d ie
 sc ale
 conserv ative
 In c
7 5
 Lou is
 commer cial
 tool s
ag n
 Car ol
 girl s
 not es
 allow ing
 T re
 plan et
 S l
 small er
 C ap
 I r
 old er
 T HE
 P re
l or
and er
m ail
 entire ly
 victim s
 streng th
 anim als
ens es
 A c
o very
 wa iting
ph one
e qu
 P akistan
 gr aph
 ex erc
 J ud
 interest s
 del iver
 comp ar
 requ ires
Ñ 
 gu ess
ï ¼
 sur vey
 A re
 ra ise
 d er
 O ver
 un it
h ow
te red
 activ ities
iz es
it able
O ur
 e at
 Associ ation
 four th
 G ame
se ason
 mention ed
 19 5
P A
 business es
 12 7
 h ack
 f alse
ig an
 c ook
 l ength
ow l
i est
! â
is f
 t ask
 con sequ
 can cer
 St ep
 tr uly
 inst ance
 tri p
 jo ined
 D irect
 Uk rain
 spec ies
 att end
d o
 F ore
 st ated
n el
 E v
 ha ir
4 8
 K h
 man aged
 pl aced
n ight
cept ion
in ter
 Inst ead
hen s
 ple ase
** *
 enforce ment
ang ing
 ann ual
 H ouston
 mod els
 ex change
 J eff
 Sup reme
k ins
 foc used
 V er
 dri ver
 r ough
g ers
 str ateg
ot ed
 J ose
 p et
 rem oved
 Ar my
 J es
g ency
 sto pped
 acc ur
 Japan ese
 P ri
  //
 g ain
 T y
 plan ning
ck now
 m ental
ul ate
r ange
 M er
 ass ess
igh ter
oss ible
 init i
 h us
 S il
 ph il
 det ect
se mb
 st ock
ic on
  ice
le ge
 G OP
 spokes man
E M
ont o
ocr acy
ruct ure
 estab lished
 fail ure
 convers ation
 be er
 b ul
 has n
 c atch
 F in
 cont ain
 200 5
 set ting
 miss ing
â 
are n
u ct
 comm itted
and a
C H
M ore
 def ensive
 recomm end
 R ub
 C EO
 arri ved
 f ant
out s
 off ensive
az ine
3 7
 P et
 appro pri
it z
 Ad d
 prov iding
 down load
an cy
 conc lud
an o
u ke
 pres ence
 s ch
 tell s
 Al though
 introdu ced
 201 8
 tax es
ron ic
l ig
 t ough
h i
Tr ump
 se qu
N A
ur b
R ead
 fam iliar
 const ruction
 h ate
 fin ished
 news p
 kill ing
pl ace
u zz
 Brit ain
 use ful
w ing
 part ner
 un ivers
is ation
 obv ious
 protect ion
c ks
rib ute
a wn
st ream
 Y es
ut ers
 circ um
t ained
 ex clus
re al
 su st
 keep ing
 g ender
Ð¾ Ð
 wind ow
 upd ate
 G roup
 ag gress
 just ice
 ident ity
R A
 ve ter
 discuss ion
 st ick
 t im
 relative ly
 su d
 suggest s
oll y
 second s
hed ul
itution al
 other wise
, '
 F ox
 T im
 a cknow
od ies
our ce
 Th omas
 cut s
wh at
 Israel i
form ation
 sk ills
app ed
 ab use
 trans l
 M icrosoft
 Serv ice
 am azing
 cl ick
 Le g
 hom es
v ant
ol a
 than ks
 spe aking
m e
 there fore
 V irgin
v is
ann ed
ad ed
 connect ion
 organiz ations
 supp ly
 pre fer
H L
 un ion
 health y
 ident ified
 dep end
 Rich ard
 un its
Ã ¡
 Ph oto
 R yan
 dec ide
 Pro f
 w ish
 4 5
el ess
oc al
 Ch ar
 ser ver
k a
 poss ibly
ony m
 big ger
re es
 develop ers
 s ides
 ele ments
pro f
up s
 phot os
w ith
A A
 a ward
 y ards
 oper ation
 p air
ag ues
 occ up
4 7
 M ont
ist ed
 Con st
 N or
 sol ar
 Res earch
 J oe
b re
 Cent ral
 fil es
 slight ly
ans ion
 feel s
 S ub
anc ing
yn am
 2 000
olog ies
 M ars
 relig ion
 n one
 pay ing
 rem ind
 fig ures
 sud den
Ph oto
 dro pped
os ure
 step s
 own er
 cell s
 Te am
Wh y
ar ks
 twe et
 S ur
 start s
S P
L ast
ic ide
 wor ry
 M os
 J on
m akers
uck y
 pro spect
 Med ic
 3 2
 Im ages
 conflic t
ol it
 dom estic
 ac adem
 sp ort
 colle ction
ver se
 Fr ank
rel ated
os en
 mult i
 ref uge
 T wo
ul a
 er ror
 Secret ary
ost on
im al
 help ing
 pr inc
 var iety
] .
 chang ing
 scient ific
 S al
 deg ree
 Govern ment
3 9
a ven
 stri ke
P l
 Pr ime
av a
 app oint
m as
 fell ow
 imm igration
 p il
 car ried
 me re
gy pt
g ar
 The ir
 G ree
id ering
 spir it
p m
 f if
 plan ned
G o
 comm ission
 hus band
 D en
 A ri
4 6
 at h
 L ee
 We b
 And roid
0 1
 account s
 M ur
 he at
 equ ip
 bal ance
 app re
 happen ing
 R iver
 D et
i pping
 O ut
 fil ed
 profess or
k in
er ous
 M ary
 apparent ly
 regard ing
ack s
 L ast
 we ak
 hon est
 Tor onto
 spe ct
ren cy
 Austral ian
 In ter
 b anks
 P ac
ul ner
 applic ations
 At lant
 Div ision
 increasing ly
 T ime
 m ut
s en
 tal ks
 fund s
k et
 sc hedul
 veh icles
 test s
 te en
it ect
 ro ll
D es
u ate
 cor ner
 ar my
as hed
h t
ud d
al a
c oh
 de ploy
 Al so
 C amp
 mark ets
b our
L e
 Am azon
rou d
c ious
 phil os
 S T
 l ived
 3 6
oc ol
 f le
h and
 r ich
 G ood
 t ast
 Mart in
 hy p
 Found ation
 tw ice
 sk in
ict ed
 B ur
i as
 C ath
end ment
3 1
ill a
g n
 tro ops
 t ack
is her
 app ly
 U s
 v ast
 P ower
 sold iers
 occur red
 reg ist
rast ructure
 environment al
all s
 stand ing
 t ight
 sound s
 D ec
 fl ight
 help s
 develop ing
 sc r
 s itting
  â 
 f ol
ap ers
 stre ets
 l osing
ay er
A b
 sh all
 cl in
 inn ov
 v ision
 writ er
ust er
 b atter
 turn s
 r andom
ad er
u nder
 imag ine
 F ire
 imp ossible
 exper ts
ore s
I V
 neighbor hood
 ult imately
I ON
 pot entially
 inter act
U T
  Ã
  ì
 author ity
 conv ention
 att orney
 M P
il s
 great est
anc he
 Th ose
 U nder
" :
 hum ans
 c e
ov ing
 beaut iful
 absolute ly
 stand ards
 seek ing
 Francis co
5 5
 present ed
 d at
 pie ces
 gu arant
r un
 for ms
 f aster
 N BA
 exp ensive
ru it
 P ut
F rom
 st ars
 ter rit
 ref used
o om
 co ld
is er
 sign s
 â
â â
 p it
 oper ating
 cap acity
st ate
 altern ative
 200 4
 r id
 you th
 c overed
g u
ress ive
 equip ment
at ures
 ap art
 b row
v an
 cre w
 N ov
ot hes
 vot ed
 J o
 o dd
 co ast
 poss ibility
o ch
 bro ken
 se a
 sc ript
O f
ad ium
 Carol ina
! "
 deter mine
ash ion
 L A
ab b
et ic
 ret ail
 ad just
 pers pect
E ven
 elect ions
 un less
 respons ibility
 fam ous
ro s
 n ar
I P
 ar ms
igh ters
 se asons
 corpor ate
iss ions
 h urt
 rev olution
f e
idd en
 clos er
J ust
en ced
 Jack son
 st ress
 propos al
 I N
 intern al
 tr ail
 express ed
le ts
I M
rib le
 se at
 d in
 S ol
 estim ated
 surpr ise
 P ublic
 H y
 Col lege
 anim al
ter day
ce an
 B oston
 point ed
 ind eed
O W
ic ate
S S
( )
 percent age
 Syri an
 William s
 car bon
 Gu ard
 rul ing
 sc hem
 h un
p erson
3 4
at o
 re nt
 con clus
ot ic
 g ar
as tern
 v ulner
 appear ance
 weap on
 Bit coin
 se ctor
ly mp
 O nce
 t on
 E gypt
 govern ments
 B ern
 J ournal
ste in
ph as
 mot iv
 fact ors
 S ant
 specific ally
 tr ig
d ate
 rap id
 exper t
 bring ing
 Dist rict
T A
 dist ance
 Cons erv
 pro ve
 D aily
ure au
 ag encies
 5 00
ed ia
 b aby
 vide os
 ins p
 he av
 her self
 s ale
 loc ated
p ret
 B ook
 se lling
0 3
E very
 inst it
 pl enty
coh ol
 cult ural
 int ended
n oon
 g rew
S p
 inf rastructure
 A M
 exper iment
 ag ent
 M el
ll er
ro ad
l ook
 m arg
ce l
 re action
L et
 re venue
U p
 sub s
I I
 st ret
 el im
 arg ued
 j ail
 d im
 Virgin ia
 hand le
 main tain
 determin ed
ri er
 R oad
 b ought
 method s
 T ra
 off ering
 significant ly
 copy right
 f ired
 dr am
ar p
 vis ual
 Ste ve
 rem ained
 fl ow
 vot es
 equ al
 elect ed
C L
ed er
 un iversity
 er a
ur ation
S ince
 b reat
 M iddle
I G
 F ederal
m osp
 sat isf
 sec ure
 fin ish
 a st
 Afghan istan
 w ood
l ines
ang ers
an ish
 cons ult
 reg ime
ess ions
 were n
es ters
 we aring
 coun cil
 bo ost
 chem ical
 US A
 critic ism
or age
 pro secut
 col umn
 up gr
 b ound
 comple ted
 experien ced
 pos itions
stand ing
 obv iously
i at
 rem ove
 M ass
 B et
T V
 fil ms
 bro ke
 conduct ed
 O lymp
 B ob
 con cent
l ife
 appre ci
 Is land
 adv ance
 surpr ising
 affect ed
ut s
 comb at
 c as
F irst
ock ing
ob e
 Ch ief
 t urning
 P lease
m m
6 5
 qu ant
 Soc ial
 invol ve
f ree
in ating
 sy mb
 capt ion
 Oh io
l a
 D uring
 differe nces
ul ations
 t act
 te le
 bas ically
 An y
 W ood
cl ass
 priv acy
 pr ime
 R on
 s witch
ell ow
 pull ed
 record ed
 Sp ace
it a
 ser iously
 pass ing
ly n
 gl ass
re ens
 sh ape
 ad vert
 f ly
 can n
Ð ½
 F ree
 acc ident
 Par is
 tre ated
on om
D P
 rem aining
D o
 bel ong
 S ing
 end s
 fac ing
 r ain
 redu ced
 air craft
 exc ited
 sp ring
 B oth
 expl o
 attempt s
 mar ried
em ploy
 than k
ol ved
 Med ia
 wide ly
 prep ared
 H aw
 pl us
 orig inally
 L at
EN T
 sur ve
 A N
 after noon
 talk ed
g ment
 opportun ities
 b odies
 coll abor
ive red
 supp l
use um
 opp osed
P e
 dis miss
0 5
y r
 st orm
ra wn
 hop es
 z one
ap ed
 ele ment
 Col or
ens ions
 p ages
 cons idering
 support ing
av or
ok ing
I nd
 m al
ain e
 min ute
 ref erence
 ident ify
 F er
 R em
 m aster
 b att
H is
por ary
 R od
W ell
ã 
An other
 cont rast
 R el
 dis s
 Wh o
 pro ceed
tern al
th at
 broad cast
 fr ust
ani el
 even ing
 purch ase
 liber al
 g iant
n am
 Ph ot
 Bl ue
 v ir
 G al
 H uman
 Lab our
 s ke
art s
 opt im
 expl os
 M att
er ved
os ite
ang ed
 consum ers
our ney
 lot s
 St an
ro g
 199 0
 lead s
 trans ition
 list en
 polit icians
 rep orters
 cl oud
 sh ift
 challeng es
 em p
w ar
 For ce
 Pro ject
 den ied
 Sh ow
ort ion
 S cience
 P eter
 m ent
ab ilities
T ube
4 2
 vot ing
 cr imes
om pl
 l it
 pick ed
 s ad
us iness
h ost
amp ion
 c raft
 C apt
 S ee
 strugg le
 se m
r as
 se vere
or al
ri e
 Muslim s
al ed
 comb ined
L S
p ass
 cre ation
 un able
 P M
 ag ents
 fac es
 S her
ur rent
m l
re land
 writ es
 p roud
 play off
v in
m ates
 gun s
 decl ared
 Jes us
 decl ined
ru ption
ow nt
 pack age
 D ou
 min imum
 N AS
m ond
 mor al
 C ru
 f ra
 fact or
he red
raz y
] ,
O h
 pan el
 should n
h y
 mod e
 Pro t
resp ond
 Mich igan
al ing
 do ctor
 emer gency
  id
ner gy
 viol ent
 th r
 mat ters
 f ish
ound ed
 O k
 suff ered
 S C
 qu iet
uc ks
 cl ient
 adm itted
ol t
 appro ved
 4 8
pl om
 S pr
 And rew
 l oved
 perspect ive
 disapp oint
 R ad
 pro ced
 inj ured
 cr ack
as ure
 co ff
 const ruct
z er
 h ol
 M em
 arg ue
 ord ered
 Tur key
ribut ed
 inj uries
 circum st
P D
 on going
am in
6 4
 pl ants
 T oday
 3 7
c ons
 3 8
 del ivered
 quarter back
 C NN
 S qu
c are
ne ll
l o
 subst ant
 fr anch
 a id
 techn ical
 L ake
 trou ble
 O pen
 respond ed
ain ts
R ep
 m ort
 app s
p et
 walk ing
A m
 miss ed
 Sc ot
c an
 J ul
ev in
 appropri ate
 num erous
D e
 b urn
 activ ists
 typ ically
 m ir
 l ob
 cal cul
 read ers
 stand s
 re new
 t ourn
ac r
 del ay
 em phas
 su it
ent ure
 Y et
 disc rim
 cap able
 upd ates
is ters
 tal ent
 though ts
 S aud
 conf idence
 R E
O ver
 off ense
 arch itect
 T al
og ue
 for g
ell y
id el
 newsp aper
 trad ition
 enem y
all as
am m
c ol
ot y
 instit utions
 Ch arl
 material s
 sub sequ
, â
 find ings
 A T
 dep art
 g ra
 ex cell
Ã ³
 conf ident
 set s
 list ed
 reported ly
h ab
ig er
 secret ary
 adv ice
ov es
 connect ed
== =
L E
du le
 incre ases
 b ull
 B BC
% )
 we ather
 Har ry
 def ault
 s ession
il ty
 edit or
 acc ompl
 every body
 Se attle
 Gr and
 prom pt
 Christ mas
il it
is hes
 expl ains
 p itch
 M a
r id
 ro t
as p
 f illed
 al cohol
 for get
D uring
 We ek
 Ge org
 exp ansion
 prot ests
 t un
 cent re
ath an
 at mosp
 ent ertain
 r ail
 F ollow
un te
 trans form
ok en
 te ch
 Re v
 Te chn
l i
 pract ices
 threat s
c alled
ab led
ab in
Ã ­
 he ll
 mess ages
 rout e
ac he
 ev al
 S um
 i Ph
 fl ood
 I reland
 I d
 pr in
 m and
b ur
 state ments
ap ter
ard en
ill y
 Re ad
raz il
 S ign
 we ar
ad ow
 Direct or
P R
4 3
 R oman
Americ an
ul s
u ations
 P enn
 200 1
in als
 Col umb
9 5
 build ings
 behav i
 pat ient
 effect ively
se x
end a
 A v
 public ly
 house hold
 report ing
 virt ual
app ing
 G en
 bas ket
un ction
 Jew s
 adv anced
 s am
 co ord
0 2
r ant
ed s
 disc l
g a
 val id
 p owers
4 1
res ents
st s
 b ond
 co oper
o oth
 conf irm
O D
 sy m
 lab el
 F e
 fact s
in ent
= "
 P rem
O ther
 a f
 announce ment
 laws uit
 L ib
 re in
 inc or
 exam ples
est ival
 200 3
u ous
 n ations
 schedul ed
F ollow
 em ails
A pp
he dule
 sp ons
 leg it
 L in
o en
 real ize
 a uth
 Ukrain e
ion ally
 ed ge
 init ially
 R ights
az a
 ca uses
am ental
ar ry
in ian
 r ising
r um
 object s
en ger
 net works
 I P
 pict ures
 S ports
 Y ear
 inst ruct
 store s
ER S
 ne ither
c os
 ath let
M any
 alleg ations
i ot
 govern or
 class es
ag ers
T C
 manufact ure
an es
 s ought
 follow s
M A
 per man
 H en
 t rib
w ater
 death s
 our selves
 restaur ant
 exerc ise
ed d
 mag azine
 v an
 g od
 IS IS
 high light
 su c
 surpr ised
 boy s
om a
t ion
 appl ied
 rem ark
 ent ry
 accept ed
ans as
ess or
es ome
 4 9
 c art
 br ight
 terror ist
u y
z ona
 W atch
al ty
 ar med
 young er
 comb ination
 mov ies
 appro x
 b ike
ocrat ic
ad or
 d ynam
 philos oph
 I ll
 sh ots
ord ers
R es
 lawy er
 n ative
 W al
 Bar ack
 for t
 You Tube
 3 00
 expl an
 my ster
 Sec ond
g ame
 po ol
 en h
l ong
scrib e
 beg ins
 rad ical
ar ters
 near by
 discuss ed
ay lor
 3 3
 dec re
 O F
 var i
 deb ut
 g ather
 bre aking
 cont ains
 Im age
het ic
M ost
 W ork
 B ack
 gr ab
 yes terday
t op
Al though
 pro hib
 Cl ub
ic ing
 p ure
 b ag
5 7
 On ly
 art icles
 al t
us al
 sub m
 but ton
 head s
ult ure
 di agn
 with d
 tot ally
 fl o
  ing
 f ashion
 An other
S pe
 colle agues
, [
 perform ed
w est
or ry
 des ire
ir ty
 link ed
l aw
 b are
= ==
 art ist
 Cath olic
st ood
 dem ocracy
 th inks
C ont
 T O
 mot or
 ess entially
 p ra
al i
 mov es
 rece iving
6 6
 any where
 di plom
 sch ol
 A ff
 Sy stem
 war ned
 V ict
 to w
 temper ature
U R
 add s
 met al
 necess arily
 le aves
iam i
er ry
 vac c
 O ld
 experien ces
 consist ent
 suc ceed
ph y
ide o
 ent ered
 rough ly
aw a
 war ning
 ab andon
 W alk
 fac ed
on na
 impro ved
 exist ence
 histor ical
 C le
olly wood
ac le
ic ian
S ee
w hel
 bl ow
 p arliament
 inter pret
 M en
 d ial
 res olution
 j ourney
F P
 imm igrants
g reg
 3 4
 l inks
 hold s
 r ide
 sa v
 gu ilty
 rep resents
 B razil
t witter
M ay
 in put
Q u
 stre am
 war m
 De velop
 Val ley
 198 0
 h at
 p hen
 K enn
s hip
 pus hed
 C ast
 few er
 hard er
 c ert
ic ious
 L ife
 Bo ard
f ortunately
 targ ets
 K en
 W he
 consequ ences
 creat ive
 fair ly
n an
 return s
 M s
 target ed
 class ic
 is land
r ich
 cor respond
ok ed
 r ally
The n
 C ub
 do ctors
 st ood
 br ings
 j oint
 H ist
 cur rency
Y es
 D ie
6 8
 b on
 l ie
 ro w
u a
 Ex p
ri p
E n
 Pl an
 invest ors
 Rom ney
x y
iqu es
 know ing
 M iller
' ,
 man ner
 int ention
 As ia
w ord
C an
 v ice
 w ins
g ent
 heav ily
 f ill
T S
 str ange
 sc ored
 G ames
oc ation
 fac ility
 sh op
 dat ab
 relationship s
 st orage
et te
 w est
 hop ing
0 8
ch o
ul ous
b orn
 earn ed
 subs id
 for med
 hard ware
 repl aced
 squ ad
 custom er
or se
S e
am i
O RE
 E ach
 hot el
 n av
 dep th
 dri vers
 alleged ly
com m
 Ari zona
 e gg
ost er
 rep ut
 C arl
 t ree
 conf ront
 fav our
P ol
and al
 consum er
 circumst ances
 Saud i
 mom ents
ig ure
 m outh
 It s
 exper im
semb ly
om ing
 s ister
 close ly
ens us
 r um
 V ol
L A
7 8
 import ance
 sh if
 an cient
 S ar
 inf l
olog ist
f oot
 V an
ill ance
 May be
 S ky
 frequ ently
 prot esters
 F il
 opp osite
 unlike ly
 fun ctions
 G ar
 attack ed
 def ined
 Color ado
 excell ent
 un us
 http s
 h ur
Don ald
 ded icated
 l ock
 E ric
 emot ional
 l ibrary
 Pac ific
ac c
 some what
 mat ches
 Ir ish
 main stream
 J r
d ef
ere nces
 fra ud
 regul ations
 c razy
 sh aring
 song s
 ch ain
 T op
 mon it
 ne ut
 Sw ed
el lect
 fl ag
 wat ched
du c
 che ap
 was te
 E lect
 ext ent
y ou
 W ild
 e ating
 market ing
 E nergy
 pus hing
 ess ential
 un iverse
 ob serv
 7 5
 w al
 pl ed
ren ce
 vers ions
 fund amental
 O l
 Pol it
 carry ing
 spl it
c hen
 dec line
 along side
 acknow led
 Put in
 con gress
 d iet
 int ent
 plan e
oc key
 w ave
Pe ople
 sign ing
 g rown
ap se
ian a
st r
i i
 walk ed
 cont est
 er r
 E ll
 iPh one
 Dav is
h us
 res ident
 un known
 l ies
 detail ed
 se es
at i
 disc over
 squ are
 M ount
es c
 news let
er ves
 b at
ro it
 Cl ass
 cy cle
 ca using
 k it
u ated
omet imes
 bu ying
iven ess
 em br
 describ e
ird s
 D allas
 It al
 G M
ke l
 e ast
 z ero
n s
 S ov
 em pt
 sc hedule
ograph ic
 dist ribution
 med ic
op y
 Bro ok
ef ully
 6 5
 N Y
 tr ick
 ev olution
T wo
ic an
 own ed
 commit ment
 d ownt
ra ham
w oman
 l augh
ici ency
 su icide
 mot ion
 res c
 fl at
 ch annel
 is ol
ens ity
 act s
 real ized
 adult s
 indust rial
az e
 franch ise
 de als
I R
 M iami
 prom ise
 C ard
I F
 You ng
v a
al o
 h all
 re ward
 feat ured
 sim pl
 opp onent
C E
or a
 s ending
 Char les
 vol unte
u gh
Ð »
 H ol
ack ing
 R ight
 l iqu
c hers
 stru ck
am ily
 chair man
 me at
 post s
ast s
 rele vant
 Br ad
G G
 sk y
 Kore an
 defe at
7 7
ay ers
 teac hers
ut ch
 W at
 con ver
 insp ired
 deal ing
 man age
 t iny
ac ter
 control s
 obser ved
so le
 s now
 controvers ial
 comfort able
 Wil son
 R am
 ill ust
 up coming
 batter y
 to m
 M ot
 F ar
u an
 immedi ate
n ic
 Ag ain
 nar row
 St r
 exc iting
 test ed
 compet itive
b el
B O
u able
b oy
 w ake
 kind s
ik i
 proper ties
* **
 A ut
 K im
O r
 pass ion
m em
 suff ering
 L ord
 s ick
 attempt ed
 express ion
 eff icient
 H el
 fl u
in ations
 sh o
â .
 C y
 auth ors
 bu g
ins on
 F re
ock et
 any way
 ter min
 symb ol
ob ile
rom e
 V iew
pp o
 n orthern
et her
 expl ore
 repeated ly
Des pite
 K evin
k o
 deep ly
 select ed
or ation
D S
 L ong
 us ual
 em issions
k ay
R el
 as ide
 cr ash
 sent ence
 Serv ices
 N HL
 ag enda
 act ing
 Def ense
 gu ide
 liter ally
 En ter
 out put
 refer red
 opp onents
 un employ
ol ve
 stud io
 reg ional
 sust ain
 c ere
 fix ed
st ers
 b oss
ce ived
 vol ume
 dom in
 str ing
O b
 d ry
 De v
 invol ving
 mechan ism
Ã ¤
 f ighters
 fif th
ger y
 over whel
 ra pe
 surround ing
 s ample
 cut ting
 W omen
 dis ag
r ations
 act or
 destroy ed
J ohn
b urg
 imp ressive
i pl
ver ty
 Jer sey
am ber
ang es
0 4
 let ters
 not iced
um ber
 ob lig
 In f
L ike
 upd ated
 Step hen
 ch ampion
 trans p
8 8
 person ally
 E conom
 r ing
// /
 she l
 ass ume
 swe et
 B oy
 sk ill
 po verty
 m ine
 ass ets
 rem ote
 un cle
x ual
im p
 D own
 pl ot
 wor ried
 lat ter
red it
 g ap
d ro
 put s
 ur ban
az i
end o
C A
 s outhern
ot es
 fol ks
 Soc iety
â â
 techn ologies
 sudden ly
lud ing
 Georg ia
b ar
os is
ord an
 al ive
se a
 r ub
 An n
ri ve
ig g
 slow ly
GB T
 F oot
 p ip
 max imum
 Cont in
 â
 L ight
we ight
 particip ants
 d ress
 C am
ag an
 Th anks
 inst ru
 const ant
 al g
 pre gn
i very
 prom ote
 197 0
c ow
 win ter
 protect ed
in em
 fe es
M an
 3 9
 base ball
 recogn ize
 lic ense
 se lection
 aspect s
ate ll
 p ed
re te
 mod er
 div ision
 prof it
g ender
 art ists
e en
 D i
 bl ame
 resist ance
0 9
h an
P U
 W ay
 he ight
 D am
 An th
 the rap
 schem e
ot ten
 T H
 w age
 cond em
as ks
 dr ag
 ser ving
 rep orter
 neigh b
 esc ape
 coff ee
 under stood
ll s
 L abor
f riend
ing u
 require ments
 sy n
 claim ing
ra id
f ire
 M ax
 arg uments
D r
 for th
 n arr
 B as
 D an
 B at
 H ollywood
reg on
 cl ients
Ad d
al le
 some how
z ens
onym ous
 Cru z
 im per
uild ing
 ide al
ons in
au g
 I D
 good s
 nom ine
 Comp any
 mere ly
6 7
/ //
O C
 sym pt
 phen omen
isc onsin
ur a
 Net work
ad el
 N ic
 all ies
 fall ing
 b le
 categ ory
 proper ly
 commun ication
ep ing
 ob tained
 P R
 un p
 E r
 ret ire
 hon or
 g aming
 basket ball
 fem in
ath y
 employ ee
 K n
as ters
  Î
 loc ations
 find s
end ers
p ost
 some body
 mist ake
P er
 teac her
 ev il
 crit ics
 electric ity
 g ro
 world wide
pr int
 ch ose
ci ples
 B owl
 w ww
S ec
 g ang
um s
 ris ks
 appro val
 Sp anish
 S outhern
s l
l ights
 ph ase
 prom ised
 some where
 form at
 w id
 T aylor
r ison
 Su pp
ig ation
 G all
 inform ed
 P y
 des per
 ¬
 contro lled
 camp us
 new ly
 cho ices
if orm
 H ot
  \
 doll ar
I nt
 V iet
on ic
 D aniel
is an
ow a
it arian
 pay ments
 pl astic
 wel come
 200 2
 Des pite
 ch osen
 tr uck
 defin ition
 surve illance
 D C
 them e
 Mo ore
% ,
 Jose ph
 Palest inian
3 00
c ers
 encour age
ow ed
 stret ch
 Scot land
i xt
 J ava
 se ats
 t ort
An y
V ER
 Det roit
 W ars
 W here
 L and
 direct ed
 perfect ly
 territ ory
 tourn ament
 pay ment
 A uthor
 develop er
 Rub y
 exp osed
 s ight
or ic
 H ome
 offic ially
un ning
 Sov iet
 capt ured
 equ ival
 cl ar
p ool
 prec ise
Pol ice
se ll
 support s
ack ed
 got ten
 vill age
 terror ism
 may or
 Ch ild
 f uck
 ext ended
 ord ers
 const it
 incred ible
a ire
 amount s
nes ota
j a
d is
 fac ilities
 conf ig
 st im
 reason able
 ad apt
 lik es
 T w
 aggress ive
ow ered
 int ellect
 strong er
 F ord
 reject ed
 d rawn
 ph r
E W
 ret urning
ear ing
 N ations
 f old
 trad ing
 threat ened
 dog s
the re
 pil ot
r age
ry pt
ort ed
 typ ical
 rout ine
 inc l
 St and
r ary
 NAS A
 N ight
 be ar
 any more
 cy ber
Ã ¶
 T it
ce ler
 B est
st ar
 b unch
  icon
 R og
 N ation
 w estern
 E p
 t ied
 d u
 prim arily
 ben ch
 rul ed
 w ire
 ap artment
 It aly
 J un
 ex hib
 compar ison
 C amer
il er
 Ag ency
 journal ists
 commun ications
E P
 result ing
 poll s
 F our
 Ac adem
 reg ions
 purp oses
 capt ure
 Prem ier
 D un
 estim ates
 p ic
 Th ank
 top ic
 strong ly
 tit les
 reg ularly
 conclus ion
 approx imately
 p al
 Or gan
 f lying
9 8
 so le
c les
e z
 win ner
 no body
Al so
 As ian
 th read
 ad s
 ext ensive
 pro of
 requ ests
 conclud ed
oun ter
 p ace
 refuge es
st yle
 Spe cial
a o
 T est
 ext ract
 Ad minist
 f asc
 drink ing
 L ove
 b id
 an x
 veter an
in er
 B ull
 collect ed
b ell
w an
Ã ¼
i ro
 we ird
 pun ish
 assist ance
ig en
act ive
rap h
 dri ven
 contin uing
 atmosp here
he nt
 ent hus
 found er
 F ort
 field s
 cru cial
ick et
 Fore ign
 meet ings
 Att orney
iz z
 prof ile
 par am
et ary
 Ad am
il arly
 prov ince
 in qu
f all
B ecause
anche ster
ot al
 adop ted
 un w
 hous es
pect ed
 L u
 comp rom
 ex ists
t le
 san ctions
 U t
ld er
 H T
 aw esome
 S k
 dist inct
hip s
 s and
ï ¿
 academ ic
 def ence
 end ing
 pl ug
 est ate
 program ming
 ha bit
 gr anted
 W isconsin
P G
 view ers
 Ch ampionship
 explan ation
5 8
\ \
 pen alty
 E nd
 r ival
 reput ation
 de leg
 lim its
 dec ent
 sp in
 const antly
ick en
ax y
 bit coin
ret t
 pro ved
 f lex
 rac ial
ind ing
or ne
a ed
 dem ands
 k il
 datab ase
C S
 t ies
 writ ers
 4 2
 ab ortion
 pattern s
 empt y
 T ony
 br ut
 advert ising
 sign al
 Ste ven
 d uty
ess ed
c ript
v y
 ( $
 ass ert
  iron
 K urd
 inn oc
 Ar ch
 contribut ed
 t all
 E astern
act ions
ab is
 Sp ain
 lo an
 answ ers
T oday
 T em
ic er
 feed back
es y
L L
 war ming
 tast e
ific ations
 park ing
 M ic
 ent it
ann y
 r ig
 h its
 p od
 Th ough
": "
 H un
l ers
 coal ition
 H it
 4 7
em s
 t aught
ag ram
ap es
 compl icated
 comp onent
 O s
N C
 c able
R ec
 sol utions
 u pper
 Mos cow
 person nel
 techn iques
ol is
0 7
re ll
S L
 pass es
 deg rees
 ter rible
 1 50
 incred ibly
 O regon
0 6
 Min nesota
 bre w
 A R
a un
 cont em
 m ail
 B rian
H S
 def ine
 coun sel
 ins pir
 N BC
 comp onents
if er
d it
 O nt
 st ead
 f ought
 surv ive
og an
 out come
 had n
 r ating
 st uck
 P en
 ex cess
 ro ster
st one
ib ilities
 A venue
 J osh
Get ty
A h
5 4
 pain t
 man ip
O nce
m od
 sur gery
 ra ising
 mag ic
 L GBT
 T urn
 mark ed
 s oul
 Vict or
 narr ative
 work er
 B alt
 ch ampionship
m ont
 gener ate
 th in
p es
od d
 Se a
re hens
 sit uations
s m
l og
 ne uro
 C IA
 autom atically
 G i
 keep s
 eng age
 N orthern
 b om
r ating
 prin ciples
 col on
 track s
 do zen
 con ven
 har ass
 Am endment
 Ital ian
f ast
 organ ized
 scen es
 consum ption
 vulner able
d a
 bill s
 represent ed
 r us
 law makers
 D ark
â ,
b ec
 6 4
 compl aint
 C oll
n ame
 B ell
5 6
  â
if ies
 en able
sc ape
 contract s
 J ordan
 regist ered
re f
 ap olog
p an
 J ason
 else where
 Const itution
 brow ser
 D ar
 unus ual
g un
 C ross
 mix ed
 cl imb
 accur ate
 ch art
in f
 h ole
 ang ry
 des k
 B ru
 success fully
 C at
 k ing
 P ay
em e
k er
O ff
 tre es
F r
 C ivil
M ean
 C are
 R ay
 I owa
atur ally
 f ake
 ph ones
 employ ment
 p in
 camer as
 P an
l ock
 4 00
 lawy ers
M ar
 Re al
 201 9
 feel ings
 ant icip
 a ver
Ñ 
 N ick
 C irc
 F C
 cons pir
 assist ant
er a
 L ook
ab ama
 enjoy ed
im a
 dep ending
 m urd
 gr ant
 S n
 O per
 gener ated
 199 9
 b es
 unc ertain
or ith
 cons cious
ph ia
 regard less
 poss ession
In st
 club s
E A
 histor ic
 af raid
 ar ray
 ext ension
 T ake
 rare ly
 ob st
 b oot
 med ium
 B usiness
9 6
as er
 priv ile
 aff ili
 b ath
 ext rem
 d ict
 aim ed
ili pp
t es
ir k
 emer ged
 A h
p at
 acc omp
 M u
r ates
 int ense
 ag ric
 ch ances
C om
M P
en a
 st ations
 inst alled
 K elly
os a
 B ry
 Z eal
 Hen ry
 Gl obal
 r u
re p
cl ing
ir ms
 comp ens
 negoti ations
adel phia
 fin ance
 subject s
or ough
og ether
 gr ass
 rec overy
ever al
 Be fore
 suff icient
 St ill
 Re uters
 Lin ux
 profess ion
ab il
 M S
 h idden
it ar
 C O
 result ed
 trou b
 val uable
 c up
t a
 S ir
 sp ark
M c
 inf ect
c ar
 do zens
 E duc
 t ank
 r iver
pr ise
 As h
 â ¢
 cry pt
 ind ex
 F ield
5 2
 equival ent
 j e
 pro te
 vis ited
 v en
t aining
 p ounds
 Con f
 sol ve
 downt own
 expect ations
 manufact uring
 eng aged
 D NA
isc al
m al
 describ es
 fun ny
 Tur k
 lik ed
 enem ies
 perm ission
ent h
ik es
 process es
o z
 c ited
 cour ts
ist ent
in ity
l s
 L ive
 l oud
 princ iple
 y ield
 g all
 en orm
 s atell
M S
 el ite
 Be ach
 perman ent
ab s
5 9
 Christ ians
 rel ief
 fe e
 bus y
id ency
 g onna
 my th
 att ended
 ro les
idel ines
l ist
 g ained
 m el
 f ault
 expl icit
 w ing
up id
 thous and
 bl ocks
Mean while
 M oh
 aud io
 C BS
ag g
o j
 K ent
 main ly
 sh ares
L C
 oper ate
 compet e
ul es
he rent
im ore
 C D
 W ater
 F air
c r
 beh alf
 dis aster
 sc oring
port ion
 deep er
 teach ing
 V is
 disc ipl
om in
 tick et
 n ut
 prom inent
U N
 dec k
 Th us
 rec ip
 com ic
ott ed
 ve get
U ST
 ro ot
 indic ate
l ah
b al
 back ed
 sc ream
bur gh
 4 4
ann a
 sa ved
it ors
% .
 sh arp
 Sen ator
 Mc G
 del ivery
v iously
 C all
 M anchester
 Zeal and
 tax p
 Pol icy
 b ra
D av
au c
 air port
 adv is
 head ed
 P ot
 strik es
 un iform
 redu ction
 engine ering
 prior ity
ad s
 C ome
ask a
 mach ines
 O S
 st able
us ive
ul ating
 webs ites
ars h
M L
 G reg
ach ing
U s
er m
 F ood
 g ift
 every where
 strugg ling
 creat es
â  â
 rid ic
abin et
 th ick
AT E
 L ew
if est
qu arters
 phot ograph
 Co ast
u ine
il ton
 t ag
mon th
 ill ness
ch ain
ad i
  ë
the w
 Die go
 bl ind
 po ly
 5 5
 F red
T H
f ound
 withd raw
 4 6
 
 wonder ful
 Foot ball
i el
 wall s
 minor ity
 R oyal
 cont aining
 particip ate
 scen ario
 ac celer
 Academ y
 loss es
eng ers
9 7
 T own
Th ose
 short ly
 4 3
 P S
4 00
 cor ruption
  â 
we et
 P arliament
 coll apse
ar on
em en
 fl aw
 Anth ony
 over se
." [
 ro se
 L o
 br idge
  ?
 Atlant a
 alg orith
 su p
oun ced
l van
 achie ved
 In vest
 Con ference
 Mark et
 g am
 sympt oms
epend ent
 Develop ment
f rom
wh o
th is
 un com
 Al abama
 M ajor
 T enn
 fore ver
 in ev
 port ion
 recogn ition
 ar range
 t ur
C o
 move ments
anc ou
 V eg
 I T
Be fore
p read
d em
 w ages
 rec ru
op her
aw ay
te en
ou red
it als
 restrict ions
int erest
 journal ist
prof it
at hered
 neut ral
w r
ides pread
 v ary
 Ab out
 St one
 belief s
 S P
 l ists
 la id
) )
y ard
 schol ars
 Pro gram
 conv in
 up set
 H as
a us
 del iber
 s acr
 discrim ination
ion e
 behavi our
 found ed
 struct ures
ink ing
 B ang
8 6
 interview s
 sp r
 rec ording
" ,"
 W in
 redu cing
 O ak
oen ix
ancou ver
 re ly
 nomine e
og en
 H aj
 mag n
 t ip
 implement ation
 b anned
 re n
 Mus ic
 owners hip
et ime
 eth nic
 Ph ilipp
 tack le
 Re view
ick ing
 Phil adelphia
C ol
ind er
 do ors
 eas tern
 inter face
 suggest ing
 comput ers
 ste el
 rem em
 ind icated
 M id
fl ix
 o cean
man n
le te
 h ired
u ction
 bare ly
r ative
omet hing
 P oint
rou s
 draw ing
ro lled
5 3
 A BC
 conv icted
e lect
he ast
 N ob
P r
f ront
 tr ained
 form al
St ar
 intellect ual
as hes
 progress ive
 H ay
ou ch
 ed ition
 V R
ang el
 dest ruction
 leg end
 din ner
 Ant on
 E mp
 touch down
 R ose
arr ass
y e
es ter
as ion
 vis ible
 S af
ose xual
p o
 Me an
 Ser ies
 sh ock
 c os
H A
 reach ing
 gen etic
 Per haps
S m
 whe el
 establish ment
ant ic
 light s
 w idespread
 count y
im m
es h
 H om
 str ict
less ly
l an
w orld
 F ull
 corpor ations
 rep rodu
 O p
 beg un
 N SA
 De ad
s he
 ele v
iz on
 found ation
 cont ained
M e
 ter r
 fant asy
 prop ag
 b ub
 S now
 friend ly
 vers us
 F urther
 philosoph y
m aker
ay ing
 farm ers
 Gree k
 frame work
 Pat rick
 c orn
 F und
P resident
 th rown
 Jud ge
R I
lah oma
 j u
ol en
k ed
 convin ced
 L ind
 ent ering
 process ing
 to ler
 jo ining
b ro
 Rad io
 R us
 R ick
L ook
 dev ast
 aware ness
 exp osure
 ut il
pl oad
 independ ence
 McC ain
p age
 f inger
level and
 E s
 May or
az z
x ic
 rapid ly
 disag ree
 challeng ing
 unemploy ment
 conc rete
 In s
 foot age
 st eal
 l oyal
 not ion
 C ur
 gen uine
sy lvan
ri ers
 j ury
 citiz en
 Al bert
r ical
c ription
 ch a
ams ung
 mind s
: :
 trans gender
 Th ree
 4 1
 m oon
 dep uty
 rob ot
 ro ok
8 9
U nder
 L ittle
20 16
 rac ist
 Min istry
 uncle ar
 M ir
 resour ce
 P ack
 inv ited
 sm oke
m aking
 recogn ized
 inv ent
N e
 initi ative
er ts
od ing
 ske pt
 f irms
 Med ical
 h itting
p ower
 Cent re
 care fully
 f iction
 tick ets
Ab out
 T our
T P
 techn ique
b a
h o
 rec over
re pre
it i
 pro ven
 v ital
 hard ly
 I M
7 6
 min ing
 ret ired
 we lf
 N ote
 t or
em an
 exclus ive
 Administ ration
 Educ ation
5 1
 al ien
 He ll
 out s
ob s
 att ached
 comp rehens
re c
 pro sec
S ub
 epis odes
 S cient
 st adium
 dem ocratic
 A le
ud es
 sh ips
 substant ial
all ing
T e
 phot ograp
 any body
 5 2
 log ic
sylvan ia
 collect ive
d oor
 sh r
 199 8
 disc overy
i ability
 equ ally
ã ¼
 p ig
 welf are
 col ors
 el ig
N ote
 speak s
 associ ation
our ces
 C A
 E SP
repre ne
 rece iver
 Sant a
 infl ation
 Ar m
 h o
 c ogn
 ult imate
 inter vention
 G ov
ile y
 produ cer
ust ed
 b orrow
 subsequ ent
7 4
 feat uring
 Mar c
 sett le
 A D
 hand ful
 prem ium
 King dom
 sc andal
um es
 Balt imore
 Se ason
 reg ulation
ino is
 R et
 d ance
 campaign s
 expand ed
 sy nt
 human ity
ri a
 w ars
 t rem
 19 60
 prison ers
 compl aints
ow ing
 as ks
 fall en
 improve ments
Ð º
ov al
d s
 h ide
 p apers
c ific
 P o
 re ven
 cl othes
are t
 Ke y
 pl ate
 an ger
 d iversity
 incor por
 O K
 s oph
 H D
int endo
um a
ener ation
 O tt
 prep are
u ce
 H or
og a
app y
 h ook
 ex ceed
 Columb ia
 review s
 fear s
 N avy
 sens itive
et ts
w rit
 suspect ed
 brother s
 k m
 advoc ates
 purch ased
 Port land
 entertain ment
 sm ooth
ut ed
 V ancouver
 emb arrass
 N ext
 except ion
um er
rop ri
 respect ively
Sc ript
 controvers y
m ate
Rel ated
 ext end
ian o
rat ors
 Den ver
p a
 c rop
t hen
 N AT
! )
 const itutional
u per
 O N
 t one
 produ cing
omm od
 upgr ade
el and
R uss
 test im
 view ed
 inc ent
 f ulf
 cont ribute
 g ear
 ser ves
 hom eless
 Lat in
ach us
 overwhel ming
 attack ing
s es
m o
 sh ame
 J ay
ivers ary
 L uc
 involve ment
 f ab
 H ind
d es
 score s
 un ex
ult ural
 represent ative
 En vironment
 sal ary
 D ig
 cann abis
 B h
m es
 A ction
 dynam ic
am ac
 t ail
 pe ak
 ground s
m ad
Ù 
 Gold en
 dram atic
 D id
+ +
 throw ing
we red
 desc ription
G O
 count s
 per pet
j o
 offic es
 invol ves
 Rep ort
 How ard
W ill
 P ent
 elect ronic
 b ureau
m ission
te xt
 refer ring
 Hist ory
 r if
 S uch
R L
 N ever
 dep ression
' .
w orth
 dis rupt
 att itude
 p uzz
 br ill
 ex ternal
 h ang
ict ions
 norm ally
 list ening
 Dis ney
v ision
og s
 month ly
 investig ating
 stay ed
 recomm ended
 S at
 medic ine
ann els
 199 6
ge on
 fr ag
 ign ore
 al ter
 connect ions
< /
 acc us
ph ones
d ney
 ast ron
 enorm ous
c a
 r ational
 public ation
 Penn sylvania
 est imate
 Arab ia
 F A
er ia
  Ø
u its
 Squ are
 eff iciency
ac on
 C leveland
ac co
 b ail
 langu ages
achus etts
 r aw
 C ode
 virt ually
 stat istics
 Rev olution
ir a
 qu ote
 lic ens
ht ml
ro t
P P
 in ject
 Har ris
 Que en
 sam ples
 st upid
 men u
 L ist
 su gar
 cas ual
 J ac
 m arch
olog ists
 E xt
 am id
 suff er
c ore
 Walk er
 ab st
 liqu id
 P itt
 aff airs
 R oy
 adm it
 princ ip
 con ce
ect ive
it o
ir y
8 5
 h int
 person ality
f are
 sc reens
 B ad
 low est
c ase
 temper atures
 y ellow
 hol iday
S D
ann on
 All en
 s alt
 rank ed
nd um
ition ally
 aut hent
h our
ol ph
 199 7
 Bro ther
igr ant
 rem arks
iver pool
 acc ommod
sen al
 ing red
 orig in
Bl ack
amac are
 j ur
ra pped
 R and
 fl ash
ã ®
 M useum
 Ok lahoma
 implement ed
 pl ain
 sur f
m ary
 Prof essor
 pres um
 un ions
 visit ors
 l uck
 r om
 s orry
 f iscal
C T
 ESP N
 p ump
 head ing
 r ural
 m ad
 over t
 miss ile
 transport ation
8 00
un es
 road s
 AN D
C he
ak a
 pre ced
 tr ave
W here
 platform s
 Al i
 ch apter
 He ad
es sel
 F amily
 g athered
B oth
 attempt ing
ut ies
 terror ists
 encour aged
 strateg ic
 legit imate
ar ms
 5 3
l ad
ab et
 con sole
G E
 f ro
 i P
c ut
ð 
 R ef
 M ah
 bo at
 should er
 w aves
 seem ingly
 g rav
 II I
 ar r
 Ont ario
y o
 Tr ade
 investig ate
 se vent
New s
ag ic
F F
 st y
 co vers
 r aces
 d a
 d rew
 ob tain
. -
 te a
 cl osing
 F ed
 cl im
k ing
Ä 
ab eth
 cele b
th on
 C re
 ball ot
 univers ities
6 9
co ver
 res ign
 Commun ity
 leg s
 pract ical
s iss
 improve ment
 Turk ish
y stem
 br anch
 h am
hel sea
rat or
 appreci ate
8 7
 care ful
 B uff
 dep os
iss is
inc luding
 t asks
 conspir acy
 Ill inois
 f oss
 al ert
 tweet ed
ì 
 guarant ee
 hand ed
 M aster
ot hing
Ar t
 B a
 L y
 prov iders
 tom orrow
b i
cl aim
 Ch air
 f iring
ri ors
 H ard
b n
p ed
 B rew
 dep ends
 consist ently
 St at
 sett lement
 convers ations
ien ces
 R a
 discuss ions
 dis order
 r het
 R en
 Mass achusetts
 dr ama
 re vel
 Int elligence
 com pe
 With out
 hor ror
 Co oper
 ign ored
 N C
 Mc K
 mist akes
 ser vers
 reg ister
 port ray
Wh o
port ed
av al
 m o
 dist ract
 inc idents
 susp ended
 C ore
 Guard ian
ed ing
ple te
 Br idge
 extra ord
 rel iable
 over s
 phr ase
 entit led
 Net flix
ie re
 F reedom
 opin ions
 U se
 mar ks
 d ub
 sp aces
 In formation
h ot
 gr id
 repl ied
 Che ck
S te
 th rew
 demonst rated
 dis pl
 Haj ime
iv als
Ã ±
 s in
 pass engers
 capt ain
R ef
re ts
H T
 read s
 Ind eed
 def icit
 mount ain
ib an
 activ ist
 m un
 lay er
 U r
 Mat thew
 g ains
nt il
ec ut
 U FC
 in equ
our se
 impro ving
 Techn ology
am med
ific ial
 N OT
 acqu ired
 h ockey
S C
sc ale
# #
 tw enty
 Un fortunately
 land scape
" )
 tri es
 not ing
 jud ges
 Camer on
 5 1
ap ing
 T ri
 199 5
 abs ence
 univers al
 contribut ions
 ins isted
er ies
 Wh ich
oun ce
 G un
 object ive
 Kenn edy
 r anks
 jo ke
omp son
 G ulf
 sequ ence
 Bern ie
in ch
 break s
P lease
v ard
 fail ing
 ex ch
 predict ed
 liter ature
 restaur ants
z ed
is p
on ly
ut en
 W W
 M ake
 common ly
 l ucky
 K ansas
 I ppo
 h ung
 Conserv ative
 I ce
 n a
 a x
 us age
iet ies
 leg acy
ih ad
6 00
 N intendo
 investig ators
A ss
H er
ing ton
 sa ving
 De ath
 cover ing
 high lights
d on
i ate
7 2
 equ ality
 prot ocol
 spokes person
 dismiss ed
h op
 Sh are
 vir us
 N iger
pl us
ap olis
 Veg as
 refere ndum
 f ighter
 m ice
h igh
ij ing
 critic ized
 ins ist
S en
 Ph oenix
 B attle
 rac ism
 sett ings
 document ary
 co aches
ke ep
 p orn
 hor se
 Get ty
http s
  %
 viol ation
 div ided
 rat ings
 fant astic
 cent ers
 wat ers
 Mex ican
V E
7 3
ty pe
 l ands
et ers
 B ible
 fall s
 earth qu
 com edy
 Bro ad
 B all
 ch annels
 Ex pl
ic ism
 vot er
 J enn
 sil ver
 acknowled ged
 mil k
 N one
 ne ck
 e uro
 rat io
ugh t
 Sy dney
7 9
 track ing
 appro ached
 P res
 partners hip
 act ors
 bu ff
 civil ians
Dav id
E d
R S
 P ass
 prof its
 perform ing
 respons es
 ass igned
 E ag
 n aturally
 C ook
 fact ory
 199 4
 Pat ri
 employ ed
 Aust in
 pet ition
 cap abilities
 instru ment
 mon itor
he im
 tri als
 hop ed
 vis iting
 H ospital
 Viet nam
 trans actions
it ter
w as
 stud ied
 Rober ts
ab e
aed a
F l
 ( â
 che cks
 abandon ed
 K at
 ob s
 Associ ated
 adv enture
 fore st
 L as
 fund ed
arg o
 X box
 ent r
Ã³ n
 e c
 l ocked
St ill
 P op
 sh it
 And erson
 hand ling
 ent reprene
 K ar
 S amsung
 Pro p
iz abeth
oc ument
 address ed
 sm ell
 j oy
 sw ing
 St art
back s
V P
 Be ck
 c ust
" .[
 j un
 A p
 â 
 - >
 w rest
 tact ics
 suppl ies
 Atlant ic
 V ill
pl ed
 in ner
 scient ist
 Ch ron
ord on
 W ik
 D O
 c ow
  ×
 st ake
 r amp
 meas ured
 sh out
 innov ation
 pre f
 let ting
 S ony
en h
 st one
 prom ises
 when ever
 d iverse
 playoff s
 Spr ing
 monit oring
g us
 st olen
ir ts
 D ata
 sy mp
 mid field
 ord inary
ct r
 f ruit
 rook ie
 mus ical
B ack
 read er
 h ip
 replace ment
 assess ment
 sub scrib
Å 
 sen ator
 B ureau
 but t
 War ren
yn ch
 mat hem
 nom ination
b ered
P ost
 s orts
 Scott ish
 Miss iss
 Phot os
P art
C ons
 second ary
 A cc
Y our
ak i
 spokes woman
f r
ini ans
 min istry
 H a
m at
tr ans
 Y eah
 Mars h
 Iraq i
 war n
 le ts
 the at
 F riend
u h
 Ob amacare
 ch at
A F
 for cing
 accompl ish
the y
 B ron
 arg ues
 ass ign
 war rant
 enc ounter
or gan
 Ab b
 A ge
in ction
com es
 M oon
 dist ributed
 Tal iban
 different ly
sh ire
 represent ing
 introdu ce
 program me
 St adium
j an
 T ro
ag h
 d ates
 t ips
 W olf
 â ¬
 H o
 U lt
Th ough
it age
or ous
 qu oted
 A z
ater al
 b ars
 dro ve
 main tained
 convention al
 aut o
c rib
d ri
e als
 m aps
 man ifest
il a
 block ed
 bur den
en cing
 tem porary
 congress ional
pl ate
x it
 no ise
 t iss
 C arter
 dead ly
 gu itar
i y
 arri ve
 G aza
p ack
ar ity
6 3
 important ly
 bar rel
cept ions
 Jon athan
qu est
ï¿ ½
 c ul
ound ing
 polit ically
 soc cer
 cop ies
 sil ence
 sp oken
 Sar ah
 we igh
 lo ans
 pop ulations
 sm oking
 athlet es
 re vers
 sure ly
se ction
 ur ged
 introdu ction
 cons ent
 ton ight
m ade
 dr one
 hy per
 lob by
 sw im
P re
 b ot
 t ie
 Do es
 trig ger
 subm itted
 sho pping
ib l
st ep
 l ying
 bon us
6 1
 rel ax
 gu est
 se ar
j ud
 W as
 NAT O
 L iverpool
 i OS
ass ador
 experim ents
 head quarters
F acebook
 focus ing
 stre aming
 wealth y
 health care
 Con nect
20 15
 C ow
Y et
 st ages
 S us
 threat ening
 Cont rol
ri ent
Ð ¼
 f estival
 bl ast
AN D
 par alle
 Ut ah
f und
 sem i
 C ost
od ed
 pre par
 Pl us
 celebr ate
es see
oty pe
 f ur
 A st
 C H
 week ly
 Mar vel
em ed
 S ometimes
or able
 odd s
 G irl
 popular ity
 B ra
 C reat
 protect ing
 circ le
 abs or
 wind ows
 kn ee
 ro of
 D ream
 t ape
 Cor por
 beaut y
S E
 P A
 D ave
is ons
 T rib
 cl ock
ipp i
 hy dro
R C
 appear ances
z ing
 brill iant
 J am
 help ful
room s
 purs ue
un ity
 Gree ce
 spirit ual
pt on
p ie
ah u
 K ong
the less
 gu ards
 w ider
 creat ures
vern ment
 B on
 out rage
 innoc ent
old s
ak h
at ar
 20 20
 dise ases
 propos als
 M ill
 M ORE
 newslet ter
 Ar k
z y
6 2
 Be ijing
 comp are
 re nder
aw are
 conserv atives
 smart phone
 D utch
 act ively
 veter ans
 Comm on
ir lf
 demand ing
 surv ival
 demonst rate
 m igrants
 aut onom
ial s
b ow
 A k
 room s
 arg uing
 afford able
 re verse
 appoint ed
 N ev
 Just in
 L ow
th rough
 bro wn
 un pre
 lab our
 kil omet
d y
igen ous
 Lew is
 rec all
ri k
Re uters
 so il
 dom ain
om es
E l
irlf riend
 h ire
it ary
or ious
ï ½
 conc ert
 question ed
Ch rist
 mus cle
av ed
 ann iversary
 r ush
 fore cast
 p icks
iz er
 d ying
 investig ations
 Indian a
 t ens
he ld
 th orough
 c ro
 mem o
arch y
usal em
Ñ 
 R oss
 tr illion
  ..
 des erve
 G ard
 Mean while
 egg s
 testim ony
 l ux
 prosecut ors
 Th ompson
mark et
 ag es
 Iran ian
 Cr ime
 Lib ya
m ony
 5 7
G A
 ac id
 A I
 arri val
 T ok
 o kay
 Mar ine
ult ane
 ex it
 Eng ine
 M un
 meaning ful
 phenomen on
 n in
 F orm
 rele ases
br idge
ecut ive
 w ine
 Am ong
 ar bit
 w ounded
 Int el
 lo ose
 an s
 retire ment
 m ini
 sign ature
 Co le
eder ation
 H ur
 sub sc
 T en
 class ified
 st ability
 can ce
re ction
 target ing
 Emp ire
 d ust
ors hip
St ory
 Pr ice
ocol ate
 G raham
 spe ll
 Mr s
 point ing
 broad er
 st em
 B ase
 l os
 S et
yl um
en ess
 open ly
 den y
 Mor gan
Cl ick
ber ry
o is
 bu ck
 trans it
 bott le
et he
A re
 le an
 h al
S im
 g if
 H on
 ab ilities
 coll aps
 but ter
ll a
anc er
 S ab
min ute
 sett led
l ined
 Gal axy
 great ly
 pass age
 design s
 organ ic
opy right
 F al
m Ah
 trem end
F A
 pers u
 request ed
 marg in
 satell ite
 pres idency
 5 4
 F all
9 3
 p atch
 f ool
 dist urb
ol ves
 C helsea
00 000
P M
ath on
 gener ations
iam ond
 fl ags
m ers
 M ach
 T oy
 d ump
 Sil ver
el a
 where as
 don ations
 def ending
 strugg led
 kn ife
 B oe
 sc ope
port ation
 am endment
 d ad
 l ad
8 4
 comprehens ive
 crit eria
St ep
ced ented
 Y an
 hyp othes
 sh adow
ab ies
ish op
 g ig
con f
 u pload
 want ing
 sh irt
 Man agement
 ex ha
Ð ²
 sav ings
est y
 h osp
 breat h
 c oc
ent er
 De b
 W H
 Cl ark
 child hood
 Te le
 pers ons
 rock et
 expand ing
 architect ure
 enthus i
ig ious
T E
 D S
 Mar x
 assum ed
 jud gment
 gen re
 reb els
ri or
D em
 miss ions
 b owl
 b orders
b ing
a uthor
AT CH
g age
 S a
 V ice
 al arm
 re ar
ER E
 prote in
ge red
 form ation
il ation
 subst ance
 Le on
om ed
9 4
ack et
Ñ 
 inc hes
 super ior
 I ron
R ed
 L ink
enn is
 st ere
 prov ision
 stay ing
 capital ism
 produ cers
 And re
 a er
ar ia
 e ase
 B urn
 â 
og y
 dri ves
 tit led
 ste pped
 Alex ander
 cons ensus
B M
 g ross
 co inc
Â ·
 round s
 bank ing
 Mary land
ik a
 D er
 sm ile
 cl othing
 compet ing
 g ent
 Liber al
 hop efully
 therap y
 Jer usalem
 v ig
 back ing
 l unch
 strik ing
b its
 w edd
 V e
af e
W atch
 prep aring
 attract ive
e ven
9 2
S U
 award ed
ut iny
 members hip
 to xic
 v essel
 bur ning
 kill er
 L ibrary
 Bar b
ass y
 ab road
 s ed
 remark able
ad ers
O K
 f ate
 Govern or
ou ri
 Y OU
ore t
 Medic are
in stein
con st
a fter
 Har vard
ing ers
th ood
 A ud
 t ables
 resc ue
m ic
 ans wered
 char ity
 fund ra
 ) ;
 reve als
land o
it ol
 hor r
 anx iety
ro ph
 1 20
 B enn
 discuss ing
 T ed
 M ess
 Pri v
 9 5
!! !
 E ff
 S ix
 follow ers
as ury
 unf air
 grad uate
 spect rum
 c ig
 unex pected
 b read
 g al
 n ic
f ol
 H old
 strateg ies
 M LS
 S on
ch ild
 St ation
 repe at
C omp
ik h
 5 6
t est
 ob sc
iff s
Go ogle
v ia
 Tenn essee
K e
ar ation
 under lying
 As sembly
 elig ible
 ass ass
N BC
 H op
 Ber lin
 Cap ital
 C redit
 com ics
 consider ation
 represent atives
 Te ch
 kit chen
 dist ingu
 inf o
 sp ots
 ins pect
ag a
 t ons
  ).
 Se an
 Ex per
 r iding
 psych iat
 manufacture rs
iz za
 pr on
 dis h
 enh ance
 P D
s ome
d ie
 cere mony
orm al
 Th rough
 cal m
 R os
ast y
 P ant
s ub
 aim s
 tem por
 analy st
 v end
 every day
 stud ying
 legisl ative
 impl ications
 clin ical
 St ore
 P erson
br id
a ver
 L ions
 execut ives
vertise ments
 L t
 par ad
 t ut
 int im
r ace
 El izabeth
 Pr ince
ig ate
 che st
 cogn itive
 G h
T R
 creat ure
8 2
C O
 comp at
 n ose
 st ance
al ysis
play er
part y
b ury
ct ic
om y
 D al
 poss ess
 sim ultane
 J ere
 n erv
 t ired
 ph arm
 employ ers
 m useum
c est
 cooper ation
 harass ment
  !
 R un
 cent uries
 line up
ond er
y es
 qu it
el f
7 1
6 50
 exec ution
 H ave
ten ance
 viol ations
 var iable
 promot ing
 collabor ation
 ch icken
ail ed
 be ating
 cre am
 journal ism
 bul let
 err ors
 Anton io
 psych ological
 B al
um in
 l es
 Ed ward
oc ial
am ous
ot ing
 Rep resent
alt ies
 inter action
 cont ribution
 fac ilit
 G il
el le
 se ctions
 disp ute
 prefer red
 pro s
 H ong
aff e
 Swed en
 p a
m ind
 foss il
r ac
it ure
 phys ically
 civil ian
 J ean
 Olymp ic
um ble
 domin ant
p ress
ra ig
ro ck
 prom ising
 dam aged
 suspect s
 Inst agram
 Ad v
 princip al
 m it
 Mississ ippi
 S om
 E C
al ia
 difficult y
 categ ories
 Le ader
 per ceived
 f et
icip al
 Bat man
ut ter
 surv iv
 mem ories
 A ward
 she et
 reform s
 Palest inians
y er
 B arn
 man aging
 demand ed
is a
 invest ments
 expl aining
 access ible
lic op
we ek
d ated
 6 1
A ct
 instruct ions
 in du
 Bru ce
 st ored
 pick ing
w alk
F i
 de lic
ier ce
 ide ology
 the ories
 fight s
 m ole
 res erved
 Or ig
 overse as
 T es
 D a
 W ales
 host ed
est yle
 Pent agon
 St ory
 gr ade
 p ill
 H al
od ge
 regul atory
 p m
M ich
 m ood
 Har per
sec urity
 emer ging
 under t
ades h
  _
 proced ure
end ar
 Em ail
er r
 Ste am
 Hit ler
( "
i ac
act s
ic ity
 se ed
 R ather
 l apt
 Rob inson
ov a
em ic
h ard
 s its
ne cess
 19 50
 land ing
 l ens
 Del hi
 he licop
 indic ates
bour ne
 out lets
 b ene
 S ection
w ed
 ridic ulous
M s
 op ens
ere nt
 tim ing
 gu idelines
ix ed
 agree ments
od ox
 display ed
 birth day
 gl ad
re r
 cr us
 conv ince
E arlier
 pull ing
 frequ ent
 Fr ont
V iew
 V ideo
th rop
w atch
 S E
ment ed
 g ate
 There fore
 milit ants
 rac ing
 l oves
 c abinet
ist a
d r
 int r
 Ind ust
 occ urs
 fat al
 cont rad
lud e
urrent ly
ac hel
 R angers
C al
Ñ 
 L ine
 Sh ort
 pip eline
 B ol
 for um
er g
ph a
se ct
 ro ots
S ource
 AP I
 be ach
F O
 S ure
 St ew
  vert
 inequ ality
B el
 disc ount
 sh ield
 che aper
 cou ples
 P ok
P C
 g est
 dial ogue
u j
 W i
 unpre cedented
ac her
 poll ution
 sum mit
amb ling
 7 2
 deploy ed
 Aff airs
 S av
 six th
M ark
 gather ing
 j er
 e lder
 cert ific
 rhet oric
oc a
 n urs
 correct ly
 H and
ke e
 counter part
al id
 post ing
 c iting
 dead line
 O cean
 t ab
 ke ys
 bi as
 contact ed
 so vere
 tal ented
 acknow ledge
 E th
 lif etime
C omm
 Pro v
o pp
 sign als
 exist ed
 vo ices
 per mit
 cust ody
ol ar
2 50
 G ary
 D uke
 m os
c re
 5 9
 con vert
 educ ational
 publ ishing
 cor rel
 Mur ray
 Whe ther
 precise ly
 rel ation
 cou p
 less ons
 bank rupt
 inst itution
 set up
 propag anda
ree k
as ant
 engine ers
 imp ression
 Capt ain
hold ers
 p ocket
 Mic hel
ative ly
 food s
 kn ock
 man agers
re nd
20 14
 rec alled
 concept s
 S ud
 Sher iff
be ing
 bad ly
 particip ation
 frequ ency
 emot ions
 prompt ed
 o xy
 Ham ilton
 rec re
 leg ally
 2 50
 land ed
 B udd
 inter f
 b acter
  ê
 present ation
 col our
bre ak
ol ving
 art ificial
h att
 5 8
Th anks
 ut ter
 Con vention
 M ain
aw ks
ol i
 bl ank
 box es
 defe ated
 per ception
M us
row ing
 cap s
book s
 8 5
 L am
 d ating
 P sych
it udes
 rem oval
ag ger
 it er
w ill
 Y emen
D is
u z
 indust ries
Y eah
 Bl oom
 she ll
 over come
 occas ional
 Louis iana
 M L
ar re
j s
 K ings
 l ane
 199 2
 stop s
 phys ics
 ins ight
 Medic aid
 team mates
 e cho
 Child ren
 constit u
 extraord inary
 as ylum
 function al
 search ing
St ate
 stat ist
ear ly
 brut al
 g irlfriend
 b arg
 b ands
arg et
 sex ually
 travel ing
 Ke ep
 tort ure
 F ive
 car ries
 M it
U L
c al
 E ver
 interview ed
 address es
 gu ests
 requ iring
s burgh
 T R
G u
 mag net
 un ve
 Author ity
 punish ment
w a
 d ies
 rec k
gr ade
oph ob
ump h
V D
 be ef
 speak er
 sc ar
 batt les
 Bel g
 Re agan
 disapp ear
N S
f ish
 engine er
 Des ign
 advoc ate
 rec ipe
 graph ics
 O x
 ir re
 b old
 hosp itals
if ier
ric ane
 me al
st al
 Cl ick
o ice
h as
 block ing
 cl ip
 encour aging
 R oll
 bub ble
ie v
 M ove
- >
 Ð ¿
 re nd
 top ics
ol n
pt ions
 ro y
P L
 W ord
 Kh an
it ual
 mir ror
 neighb ors
oll ar
 A L
 Chron icle
 Or lando
 pro be
 G ib
 appro aches
 ch ronic
 represent ation
 esc al
qu ality
 coord in
 hom osexual
 On line
 opp osing
F inally
Inst ead
 Come y
 Rus sell
T O
 st ats
 conf usion
 profession als
G e
 fab ric
 t ap
 ass et
 sent enced
 Capt ion
 F estival
r ics
 Ass ad
 m ac
 R ome
 H amp
 t orn
app er
 refere nces
 inspir ation
inc ome
 def ender
 Us ing
Up date
g ate
 Java Script
c ap
on ed
 Z e
 9 9
ate ful
 p unch
 b ags
 recommend ations
 moder ate
che ll
u i
 ins ult
 Gr iff
 int ellig
 jump ed
 edit orial
 Ph ill
A Y
" >
 own s
 ent ity
 imp osed
 ro lling
 sh ocked
 ang le
 Ch annel
  Ñ
 sh ipping
 sustain able
el son
gus on
 G iven
ix on
 block chain
 ( "
 W ould
 prospect s
 adv iser
 proced ures
 O pp
 p ir
 Bre xit
 6 6
 gen es
 anim ation
 trans action
 le ct
 associ ate
 require ment
 F inally
P aul
 commun icate
 se gment
M art
 Brook lyn
 inv asion
 G ordon
 Ex ecutive
 A C
 ar c
che ck
 accomp an
 Ar senal
on ing
 don ors
ut her
N ext
er ning
 dream s
ene z
 contem porary
 Que bec
 ingred ients
in st
AR T
 M ail
 Al an
ivers al
le ep
rib utes
â 
 ag ed
 camp s
 cho osing
 te eth
 h iring
 E PA
 S ource
 b ow
 B ox
 s essions
R eg
 D ick
 Tr ust
tain ment
 Im m
8 3
J uly
ele ction
 under ground
 command er
 trend s
 myster y
ra it
 G ro
 f ert
W he
 Are a
 sub ur
 ple asure
 Fl ash
 s wit
 f el
 b in
I E
 bur ied
 pro portion
 f o
 fl ed
 perform ances
 bill ions
 Bel ow
 v ocal
 part ly
 Bl ake
 just ify
 B ow
d ict
il st
D C
T HE
 opp ose
 199 1
 charg ing
 accept able
aren cy
 rec ruit
 elim inate
 disappoint ed
 st ro
 C ro
 C ustom
 E vent
 print ed
 household s
le an
 be ll
 N O
 Ch ange
 dom inated
 ut ility
d iv
 witness es
 diplom atic
 volunte ers
ixt ure
ast e
app ropri
 econom ics
 A ccess
 log o
 kick ed
 po et
 Follow ing
 L im
R em
 bre ast
ac o
 T ax
 brief ly
row s
 abst ract
 surv ived
g ood
 exp enses
 B ud
 MP s
 sc an
id en
 main tenance
 be ings
ac les
 fl ights
Tr ans
 clos est
 town s
  `
à ¸
 po ison
 198 9
ren a
ist ant
 analy sts
 Ind ependent
 prof ound
 e ager
 interpret ation
 end orse
 V ik
 res erv
 War ner
 acc um
 wond ering
 occas ionally
Spe aking
 Th ink
 Cap itol
 an cest
A g
T y
  ~
 dram atically
 Stan ley
w ind
 inst ances
 motiv ated
art ed
 pr ide
 consider able
 min imal
 weak ness
 b irds
 ep ic
 wedd ing
 Pr inc
 rout es
 twe ets
 inst ant
c or
new s
 inqu iry
K E
 des ert
 conf used
 impact s
 w et
 compens ation
 sub mit
 cl er
 y ell
im mer
 ar ts
 fail s
 C ON
le ft
el ve
 met h
 main taining
 nerv ous
is k
 s ne
 game play
is ode
mer ce
ot te
u cc
 d ual
 6 00
Th ank
 execut ed
 head lines
 Haw ai
 G ill
 Oak land
op t
 fig ured
 const itution
le ans
T ime
 E b
 g ene
 mon ster
 ple ased
 ch ip
 Play er
is dom
amp a
 Kent ucky
ang le
est ed
 strugg les
 character istics
bl ock
 embr ace
b ase
h ire
 8 00
 fil ter
 J ane
 h anging
 Mont real
ard ed
 D E
 D ak
G r
H P
 end ors
 design er
 tr aged
Â °
m ir
 L es
 Al b
 ev ident
D ef
 neigh bour
 hun ting
 C C
 K r
and o
hatt an
~ ~
 br ands
 sold ier
 Ch ampions
 Camp bell
ing e
He y
 dro pping
 researc her
 sh oes
 rep air
lud ed
st op
 tremend ous
oy d
 C ould
 sol o
 div or
m ath
at us
 6 2
 not able
 bi ological
rim inal
M od
N T
 ref ers
cos ystem
el ing
a very
 ref use
 speak ers
 199 3
 ad equ
Ã ¢
 H art
 Le ft
 se ized
 adop t
 sub scribe
v ation
he ro
igh th
 Cor ps
 coach ing
 y eah
 Dou gl
orne ys
 G T
 st ating
 Per ry
 cor rupt
 m art
 Fil m
g ets
M en
 Tre asury
 f er
iz ard
 Ar gent
 stead y
 poss ibilities
or ate
 For ces
 eng aging
bre aking
 qu otes
 forg otten
 lux ury
H z
 mod ified
 period s
id al
 p or
if ice
 C old
 P ope
 attract ed
 Mur phy
 Off icer
 bo om
 check ing
 in box
 district s
 integr ity
ri x
 Miss ouri
ug by
 pack ed
 exam ined
 exclus ively
 contin u
 Econom ic
 pregn ant
 occas ion
 K ick
 C as
B r
 Enter tainment
 Sh ould
 cur ious
ou b
at tered
 m ile
 describ ing
 ign or
 promot ion
ë 
o ft
7 00
 Pitt sburgh
im ize
 un necess
ã ³
 Man ning
 min isters
 in herent
w all
 Com b
t ra
k ind
 H aving
 S EC
 Sim on
m ble
in ite
 P a
f ather
 challeng ed
 Gr ant
is hers
 j et
ethe less
ar o
an im
 pat ri
 v oid
 h oles
 B i
8 1
 ch ips
 repe al
 6 3
 soph istic
 Stew art
 oxy gen
 lo op
 c ens
own ed
 cont rary
 R s
b ound
 S U
M B
angu age
 Every one
 integr ation
 g ym
 tow er
 desper ate
 inf ant
 th ro
ok er
Ä 
ur ches
 peace ful
 explos ion
 Or leans
B ook
 St aff
 def ended
d ep
 Ad ams
 surround ed
" ;
N et
 develop ments
ue z
ond uct
 H oll
 stim ul
 tiss ue
s un
A B
 C ase
 ident ical
 a wards
 dr unk
 le ak
 de emed
ra h
J P
 hand led
 eng ines
 as pir
 rob ust
l ib
AL L
g ly
ob b
 exp ense
 circ uit
oc ated
 moment um
 Gi ants
ur se
ar med
 bl amed
 le aked
 influ enced
 L ater
ah oo
 P ict
 elect oral
 b ird
? â
ail able
 D R
 R aj
 elect ron
 C raig
ry ing
 back s
 mathem at
h ist
 P age
 ev ac
 ann oy
ip her
 mer ch
 b icy
str ong
 an onymous
 en act
 conc erning
 De ep
 less on
 spec ulation
 pri ze
 Jim my
spe ed
 n od
 W R
ant e
ick ed
 N ich
 cour age
 exam ine
gr aph
 rob ots
 acc ord
 y e
ab out
 paralle l
 C R
 lif estyle
sc ar
wh ite
 product ive
 rel uct
 guarant eed
 isol ated
 Philipp ines
an z
con nect
 Cl imate
 sen ators
 che ese
Sh are
 eng agement
iz ations
 c ock
 subsequ ently
 F O
 bom bs
 h arsh
 imper ial
 dim in
 B ul
S upp
 reven ues
k m
 algorith m
b et
ter ror
 Ed ition
li hood
 Snow den
r c
T op
 off set
 t ension
 E ve
 quant um
 m ath
 Jere my
 ra ises
 prem iere
 det ention
 att ending
 dest ination
R ight
 Co al
 Jer ry
 load ed
 sole ly
 S ound
 R est
L ist
 sy nd
St ation
 abs urd
 key board
 organ isation
 regist ration
 co in
re ck
ix el
 prov isions
 unf ortunately
olit ical
 sp an
 do ctr
 Fer guson
 Res erve
lyn n
Rep ublic
 Charl ie
 sim ilarly
 Kurd ish
 v it
v i
 b ol
 Man hattan
 e cosystem
1 50
 conv iction
 fl av
f unction
 N on
 out f
 conscious ness
 Christ opher
) (
 to ss
 oper ated
On ly
 explicit ly
 bet a
 Red s
 l ady
u ably
 conver ted
 jur is
B N
 eth ics
 Stan ford
 dis abled
iz arre
? ?
 pres ents
 Be ing
 L ocal
 gu id
 cop s
 jun ior
 A y
 6 8
 Ð ²
 con secut
 cook ing
 v enture
 N azi
 t ear
9 1
 b its
 Stud ies
 depend ent
 O il
 B or
ist ance
on z
inc oln
 0 1
ap ore
 sl ide
 cred its
 concent ration
 vis its
 he s
 rank ing
gg ed
 m isc
 H ad
 prosec ution
o vers
 Pok Ã©
 Ab u
 F inal
 crim inals
 Ott awa
eral d
 compe lling
 Tes la
c ard
 6 7
 B M
 now here
 surprising ly
. ]
 L ad
 E st
 Tok yo
 simultane ously
ut t
a a
 Un like
 W right
 real istic
 Pro duct
 graph ic
 gl obe
io x
im ir
 expect s
 influ ential
 N ap
 appl ies
le ading
 ad ap
 l ift
 sust ained
Am ong
 W ard
 config uration
th odox
 to b
op les
 co ins
 Pol and
 integr ated
 inf ection
 qual ified
 fle et
 Up date
 res olve
 court esy
i ens
 T ower
 signific ance
w ich
 host ing
 pro st
 inev itable
 sevent h
 P i
m n
E ach
 m ales
 m ask
 long time
 T ob
om ic
ac re
enez uel
D own
 t ong
 re ass
 sc ared
 ke en
 el abor
 susp ension
 en abled
 g ri
 Dig ital
 V lad
 E T
 B an
 invest ed
 b ases
 function ality
 document ed
 U ber
 Mod ern
 vari ables
 Sing h
S W
ars on
 produ ces
 Egypt ian
m itted
 comprom ise
 Tem ple
l ow
 Th ings
 supp lement
 speed s
 transfer red
ip edia
 stri p
 bene ath
 p ose
for ward
 publ ish
 Ukrain ian
 pass enger
 pled ge
 Contin ue
M AN
ag u
r ons
ol as
 c ave
 rel ie
ous es
 st amp
o op
 del ight
ist le
t arian
 Hamp shire
 project ed
Ch ina
ul se
 decre ase
 earthqu ake
T ON
 col leg
bit ious
 Olymp ics
 in hab
 Hot el
 taxp ayers
go vernment
 T el
 n u
 b ump
 dr ones
ult y
 ball s
 mod ule
 ro lled
st arter
 cross ed
 Que ens
 sp o
any ahu
 And y
Is rael
 Prot ection
 Organ ization
 intim id
 sing er
For mer
 acqu is
 privile ge
m ay
 Corpor ation
M edia
n ie
G l
 P ers
 H uff
 rese mb
u ccess
 review ed
 launch ing
 reflect s
 Tre k
 fle e
 trail er
May be
 susp ic
 av o
 pat ent
Ã §
 as semb
 Red dit
 o ught
 M arg
 over d
ust ing
wit zer
AS H
l arge
 sc rew
 T ai
DA Y
 explo it
 polit ician
ism s
ub s
 w ise
 nation wide
un ique
che st
v ious
ag ine
 Nev ada
et on
 sa ke
 prov ider
 j ihad
 N orm
P al
 F ant
 bel t
ubl ished
 pack ages
 hero es
 over night
 refuge e
 sl ot
 vacc ine
 A FP
 r ic
 remem bered
ol s
 inter ior
 Canad ians
 pain ful
 lay ers
 imp ressed
IL L
 in aug
 G O
Q L
ass ion
he alth
 l in
 met ers
 view ing
 l ibr
 ex port
le e
 D u
 tob acco
 them es
 cons ists
 fil ing
 tr ains
sh ore
 e ar
 fl avor
 Ste el
ia h
 su ck
 Or der
 sp ray
 arrest s
 tele phone
hy th
 Sum mer
 experim ental
 pod cast
ress ing
 expect ing
 rec overed
 fl our
 burn ed
 c inem
com p
E X
les h
J o
 consecut ive
h r
cent ury
 to ken
 cy cl
ag en
 sl avery
u ating
 or ange
 sec ular
 imm une
 Net her
 supposed ly
 icon ic
 7 4
 cha os
 U b
ab a
 O cc
 sing ing
 st atic
ent ures
Ð ´
 out standing
l aim
 sp otted
T ER
 7 00
 N ature
 spec ified
 Every thing
 t ears
 comm od
 T am
 sty les
I O
p g
 N ash
 old est
 sh ops
 affect s
 v oc
 int ensity
 ch amber
 sur ge
 Met ro
 out comes
ch ing
 b other
 det ained
 trad ed
 collect ing
 d iver
w ords
 H oly
 G DP
 Ch amber
 an onym
 uncertain ty
 S everal
D R
p ing
  vel
 S port
 cat ast
 rest ore
 rec on
C or
 Sw iss
fort able
 bur st
 Marsh all
inc ial
ut o
 S H
 Ind ones
g ments
 accept ing
 Le ban
 Air port
 innov ative
C R
r ank
 b ip
Th ree
 among st
 er u
lim ited
 occas ions
O ut
 M ind
 devast ating
 f ingers
 arg uably
ã 
 F arm
 organ is
 sub tle
d og
r ition
 o rient
 N i
 neighborhood s
 b abies
b en
 g ut
F urther
ari os
it ivity
 Mad rid
 myster ious
 Mc Donald
 st ack
 streng then
C ar
look ing
 construct ed
ag raph
 War riors
 L i
 K al
 6 9
r in
 the ft
 Ph ys
for mer
 sto pping
 f ed
 favour ite
I d
ir s
 H ans
k ward
 pe er
 appear ing
 C itiz
 More over
 accur acy
 accompan ied
ite ment
ach ment
 count less
 oper ator
ch arg
 wal ks
 Th ird
om ach
 iP ad
 gr ateful
? )
d am
 1 000
 st arter
 tou g
 3 60
 al ign
 p upp
 depart ure
 shel ter
t own
 t ale
 K now
 Do ctor
 buy ers
 separ ated
 sil ent
 L ear
v as
 c am
t it
 Con c
â¦ .
 M other
 creat or
ver ning
 document ation
 Christian ity
 kid n
 Al aska
 HT ML
 bul k
om er
 L incoln
 S ep
 compl ained
 exc use
 int rig
 Swed ish
s uch
 Circ uit
 in her
 f its
 F uture
 rel atives
com ed
tr ack
uck er
or ical
 mod est
 A rena
g ence
 w ore
 vol unt
 ne ur
 aw ful
 Pakistan i
 bound aries
off s
 entr ance
 mun icipal
ah a
 Russ ians
 add iction
 anal ys
 w ound
 in ex
 pred ec
 F OR
 ens uring
 quiet ly
Per haps
 Coll ins
 R ow
ere n
 PokÃ© mon
v ol
 deal t
 Comm ons
 prevent ing
 equ ipped
Ob ama
 imp rison
a is
 all y
 host s
 or bit
 perm itted
 S ci
 d irty
 fuck ing
eg a
 S N
 novel s
 start up
 ev olved
 Stand ard
 photograph s
c ott
 des p
B R
ard o
í 
 R ice
 fin ishing
 res erve
 L arry
 an ch
 lob b
l ink
 W rit
 Qu est
augh ters
abet es
 Fore st
 traged y
n on
E m
The ir
ke ley
 em bed
 v iable
ows ki
 Other s
 L uke
 rem oving
 A aron
 7 6
st orm
 am bitious
or ia
 Bl ood
 Wh it
 S in
 Play Station
 n ode
t wo
 reflect ed
 prosecut or
 or g
 D ur
th ur
 Supp ort
m illion
her iff
ri ke
 f ut
 E mer
 US B
prof ile
s ur
 k iss
med ia
sc reen
 night s
 Law rence
 Chair man
 Im p
ir i
d ev
pr ising
boy s
 Sp ir
us er
 at he
l ast
en c
d ata
 cult ures
 all iance
h uman
 bomb ing
 renew able
AT ION
 Buff alo
ap or
 juris d
 Sing apore
un a
 Ty pe
 dist ribut
 incor rect
ot ion
found er
 W ATCH
â ³
 f ishing
 disapp eared
 198 8
 Further more
ol id
B re
 S witzer
i ar
or i
 rele asing
unt u
 particip ating
 fund ament
 Port ug
 Mag azine
EM ENT
h ill
 O R
 transp arency
ell o
b ie
ou p
 Pl ace
 D rug
 h unt
 gold en
or ig
p in
 H an
 c ous
 act ed
 pre view
 investig ated
umb led
 check ed
 convers ion
 L ady
olit an
 revolution ary
e velop
Follow ing
 highlight ed
 newslet ters
 st un
 Hun ter
 ven ue
m are
n amed
 F ro
T IS
viron ments
b ably
â 
 ins urg
 Mc L
 rif le
i ors
 Mit chell
 design ated
W orld
Â 
 promot ed
th al
il ateral
 resident ial
aren thood
 L ie
 M and
 Nether lands
U C
 K l
 con ced
 Le vel
 m akers
 Dr agon
 s izes
 H IV
 V in
act or
 conflic ts
 he aven
ue ller
am ents
 mother s
 fire arms
b es
 b izarre
u els
 avail ability
 Am b
re qu
 att orneys
r idge
v ar
as m
ank a
 the ater
 ab und
 p ending
ig ma
 D rive
 prepar ation
M on
 mort gage
 W y
pp ers
 un b
 V enezuel
 Eag les
 Cor p
 beat en
 B ears
 form ula
 honest ly
 Mount ain
 st unning
 P ap
 alt ogether
? '
ow der
 cal endar
 Sh an
ay a
 wel comed
 line back
 regard ed
 B aker
 product ivity
 r iders
n or
 for b
u ates
 e arl
 civil ization
 Cl oud
T witter
 chemical s
 frust ration
 reg ret
 F ederation
it ory
 guid ance
 bo ards
res hold
 All iance
 S essions
 ret ro
 In n
ll or
 agric ulture
 Environment al
 H ann
 ch ocolate
 N a
are r
 b one
 Or ange
is ive
 en for
 pres erve
 qual ify
 mount ains
im ents
 as sembly
 mon etary
en cer
 t u
 A S
 Th or
 M uch
rit ical
 miss iles
 d ressed
 Rec ords
 appoint ment
Ã ¨
 administ rative
 cour ses
 param eters
 ad j
 Bl u
ell er
 V en
 employ er
 deliver ing
p ark
 ch urches
T ake
 t empt
 viol ated
 pain ting
 pain ted
AT ED
 celebr ated
 cru el
 W inter
 emphas is
 Mag ic
ber y
 discipl ine
 displ ays
 the oret
 Mel bourne
 sophistic ated
H ar
ist ing
am an
as a
 g arden
 subsid ies
 Wat son
 R ap
 I V
 C S
 B C
 ass ists
 form ally
elt a
 publ isher
 scr utiny
Mich ael
am ine
 P ir
G ood
 po lling
 circ les
> >
B ar
 un l
ll i
 ins ert
 happ iness
 motiv ation
 mand atory
 Toy ota
P s
 H u
 oper ators
 focus es
win ning
ã 
 diagn osed
Un fortunately
 Hind u
ert o
gr ad
 comb ine
n atural
 pregn ancy
 de le
qu er
ro d
 cle ared
f irst
 Not hing
 supp orter
 P oll
oc ur
 delay ed
 Py thon
z one
 sl ave
 cap ability
 sleep ing
 witness ed
 end less
 exch anges
 d il
 M A
ast ed
i ated
 re wards
 n aked
 hor rible
 accompl ished
 drop s
 gro cer
 Cub a
 Benn ett
ud ge
 wh is
 aw kward
 Q ual
 design ers
 Com put
 fl ip
 mechan ics
 des erves
 Mot or
friend ly
 emer ge
 Dak ota
 Comm and
Ä 
 m ouse
 plan ets
 respond ing
 safe ly
 r anging
 pra ised
 Cle an
 pass word
w he
Che ck
 gent le
 over l
 limit ations
 pr icing
 Patri ots
 en vironments
 T able
 So ft
 det ain
 just ified
 B eng
 occup ied
 fle w
 Victor ia
 R oc
AC K
d eg
b ig
 deb ates
 rad ar
 dest ro
 contribut ing
 draft ed
 sh orter
 calcul ated
 L og
 P od
 y ard
 G ra
L a
b est
 strong est
 const rain
cel ona
 Again st
ac red
 p ink
 a uction
 tut orial
 M D
 I ss
 fast est
 An na
P at
 expl oration
 transp arent
N D
 s ons
 liber ty
 pan els
ici ary
h alf
 McC on
 compl ain
 reb el
 E V
c ount
per ial
 intellig ent
P ress
 h orm
 h iding
 Pe ace
 advoc acy
 dev oted
hand ed
 gr at
 frust rated
 mand ate
Sec ond
 Rog er
 r ivals
ol an
b ian
 ( )
b urn
 E nt
 C orn
 t ends
 inst antly
j amin
 citizens hip
 fr act
 murd ered
ect ed
 brow s
 o d
 P u
 go verning
 sc ary
 le verage
g ary
 ind ication
 re ign
 occup ation
 Bl ock
ot ine
ers ion
ail ing
 B and
 uncom fortable
p ur
 be ars
 Ind ians
 build s
 rec ession
 world s
 F CC
D id
 rad iation
 M ap
 desk top
ier re
d el
 B ah
 comm ands
 suggest ion
 Te a
 expl oring
 travel ed
 met aph
 prevent ed
c ular
 e arning
 R T
 me ets
 plan es
 Ð ½
 heart s
 dr inks
 m igration
 install ation
 Mad ison
 newsp apers
 ce iling
 adop tion
es ides
 r ib
G reen
 protect ions
 Ke ith
 press ing
 H ide
 7 3
qu es
 elect rical
R et
 Vlad imir
B E
 long est
 par ks
ude au
 question ing
 cl uster
â )
lam m
 He art
s ize
 D or
ig e
 cont ents
 ret ain
 H ung
 D isc
 green house
UT ERS
 l ib
 O d
ter y
 unnecess ary
 F le
 scen arios
 K a
 Y ang
/ .
 comment ary
 poor ly
 post er
 mean while
 restrict ed
itt y
 off season
 expert ise
out heast
spe cific
per or
u ilt
h ar
ore r
 Pro gress
 struct ural
b ecause
 Un iverse
appropri ate
 Ch all
 act ress
 treat ing
 imag ination
S ign
 U I
 g host
 bond s
 bug s
Ad vertisements
 T ampa
ip h
 H ug
 not ably
 ve gan
 Congress ional
 dr um
 decl aration
w id
el come
 ce ase
 Add itionally
 fro zen
 dist inction
 N ik
 lapt op
 P ear
st art
 D om
ol o
 t rop
 part ially
 N atural
 tri ps
anc hes
 confirm ation
F e
auc us
 bath room
v o
M O
 Net anyahu
 B E
 S D
 te ens
N ame
 autom atic
iv an
 marg inal
IN E
 ha z
qu al
ant on
ust ers
f ile
 al ike
 d ign
 br ains
 ca ution
 g reet
 R osen
 Ron ald
 conven ient
 Ed it
 Albert a
 pol ar
 7 7
m aster
 see ks
 tou ched
ock ets
comm un
ut er
l en
ke es
 bu nd
A tt
 La ure
 ag greg
 agric ultural
 invest ing
 ex em
 g olf
 Br andon
 Fin ancial
 Conserv atives
\\ \
 St ars
 Ark ansas
 P el
ne g
 m ild
 M erc
 ver ify
 com ed
 St ock
 accus ations
out ing
f i
 t um
 N ative
k es
ight ing
 un h
 sh ake
 des ired
 press ed
at oes
 tr ucks
 depart ments
 condem ned
vers ion
). [
du ction
U E
 man ual
t ains
 sp y
 Rem ember
B ig
 res ort
 deleg ates
 F lynn
 ent ities
 partic les
 ep id
 m asc
lim inary
 indic ating
 m ic
g iving
 C ulture
 W r
ob by
 ess ay
 trig gered
 w isdom
 imp ose
 F ather
 saf er
 dis par
 app lying
 sent iment
 Sm art
 K irk
I X
her ic
ict s
P N
 f urn
 gr ants
 oper ates
 t anks
 ch ampions
sh ot
air y
lect ed
 F un
ac er
 Un iversal
od a
 u gly
 an ime
ac cept
 accept ance
 techn ological
 Leg isl
 H end
 enter prise
z b
 B ir
 Mc M
and ed
 c rown
 announ cing
 earn ings
 illeg ally
 repl acing
 K night
 dem o
 table t
 P L
( '
t ics
 Ber keley
 Switzer land
 inter ven
 bu zz
 Mor ning
 Commission er
 pra ise
 pro l
 spark ed
 sup rem
 K y
 bit ter
 l ung
 is lands
 F igure
 D anny
it ate
Ù Ù
 sum mary
at al
 sacr ifice
m id
 ref using
 demonst ration
vel t
 Ch rome
 th reshold
 l one
 Ar ts
 appro ve
 ins ane
 v ague
 He at
w estern
 Park er
 198 4
 scr atch
 gra ve
 H BO
 flu id
 climb ing
ro c
G iven
 sk et
form ance
 enjoy ing
 st ressed
 Co hen
 hat red
 observ ations
 D VD
ac ies
 K yle
 host ile
 aren a
 initi atives
 d uties
 butt ons
enn y
 st omach
VER TIS
 P arenthood
 S ide
 understand s
 suggest ions
 dec iding
 comp osition
bor ne
 f itness
 eth ical
 back up
 explos ive
 compet itors
 Be er
th an
 L en
 F ig
ap y
 T ig
oc ity
 pr ayer
 Columb us
 to y
 celeb ration
 8 8
 log ical
 Rub io
Ã ¥
b age
form ed
 dist ant
og g
 sec ured
 Spe aker
 consequ ence
 transl ation
 C PU
 to ll
 met ab
m ap
 prov incial
es is
 â
 g aining
â â
 difficult ies
 L aur
 defend ers
 contro ller
 sh ar
 st ir
 count ies
 win ners
ple x
 histor ically
 sh ocking
 t ensions
 comp r
 manufacture r
M ed
 M obile
 M VP
 hypothes is
 pen alties
alk ing
at ile
 M ult
 S ex
 Mar io
 minor ities
 pl acing
 Rod rig
 optim istic
 t ent
arm a
 O w
ac ular
 earl iest
sel ess
 A x
 Post s
 T otal
s upp
on er
 libr aries
 H us
ult s
 S M
20 17
 Part ners
 in eff
 experien cing
 res igned
ig hed
ok o
 inv alid
 A wards
 tra its
 meant ime
 Mal ays
 hack ing
A ust
 G PU
ic ating
 Mod el
 N ut
 G a
ren cies
 t ill
 har vest
 detect ed
 B uy
 dam n
 G erm
th ink
GG G
H D
 break down
 acqu ire
 achieve ment
 teen ager
 car rier
W S
j i
ay ed
 cur ve
 K arl
 direct ions
 purch ases
 complex ity
im ens
oc ate
 b ass
 bacter ia
d ig
ose velt
w hen
 fun eral
 ad vertisement
oc us
 pat rol
 Art icle
 d ensity
 ste ep
 S S
' '
 N ame
 div ide
d rop
 react ions
ater n
 mechanism s
 Way ne
 L ynch
 amb assador
S er
p op
f ox
 E D
 M orm
 vis a
 G ene
 F ried
 abs ent
 res erves
ortun ate
 F ind
 aud iences
 soc ieties
 P rom
N ever
Wh ite
 dec ides
 anim ated
 compl iance
 retail ers
 wal let
\ \\
 T odd
olph ins
M et
Ñ Ñ
 l un
 pe ers
 fr ank
be it
 attend ance
 f est
S everal
 overs ight
 b io
 dam ages
 conclus ions
 h ill
 Ste in
ect s
wr itten
. :
 K it
mind ed
be at
r ane
 T s
 So x
 free ly
R ober
 R ail
 colle ague
 Ed itor
 space craft
 Ham as
ruct ive
 fasc inating
 cr icket
 U ntil
 J S
 social ist
le ments
 Coal ition
al g
AD VERTIS
 arm or
 Th under
 att ributed
 l anes
abb ing
on ia
he ll
 I v
 the r
 we aken
 t une
 shoot er
 gener ous
 grab bed
f old
 elder ly
 M itt
 ann ually
 air line
 light ing
 comput ing
 F DA
 trans formation
 pil ots
 human itarian
 anticip ated
 her itage
ã¼ ã
F S
 fac ulty
M in
Ñ 
olog ically
 reveal ing
 Ch ap
 Be at
 Sm all
 ser ial
 B P
c rat
op en
 be ers
G ame
 don ated
 R aid
az y
ã 
 ch ap
 C os
 < /
inc inn
 print ing
 isol ation
um ing
Wh ich
ur ities
 grad ually
 bar rier
â 
S ch
 r ice
 c ats
 respect ed
 respect ive
 st ocks
 se ctors
 B uck
 198 5
 C z
 G re
in ance
 Hawai i
m ons
s k
 M ason
 me als
H ave
 gam ers
 B ou
 C ry
c ode
 M ueller
 Bar celona
 RE UTERS
 l ip
 arri ving
 re aches
 C SS
ond a
 p y
A V
 address ing
st ory
 in mates
ne red
 8 2
 as h
m un
O p
 ( #
au nd
az ines
 res idence
not e
 tend ency
 wor ship
 observ ation
 bre ach
 capital ist
st ock
 J u
 c ort
 inf ring
 imm ense
 Man ager
 H ait
 interact ions
 rot ation
ell a
 e ars
 A w
 T an
 exc itement
IV E
 Gr ay
 D raft
 aff air
 purs uing
back ed
 B uilding
 pop ul
 ev angel
ur red
 F R
 dec or
ack er
 SC P
urn ed
e h
ne ver
 ide ological
tt es
 t el
 Sun n
U D
ru p
d ing
 ind ict
ill ery
incinn ati
ard less
p ace
 Exp ress
and y
20 12
val id
 respond ents
 cross ing
 d uration
 m amm
 de ce
 collaps ed
 Re id
 ro d
 Z h
h ol
 m m
 ab ol
 St orm
J ames
 19 30
 Bar ry
 hope ful
 f ru
 cont am
res pect
 touchdown s
ch arge
 app eals
 C ass
sel s
 D J
act ory
 kn ocked
ios ity
 Medic ine
 s isters
 re hab
 wire less
 Niger ia
affe ine
 d aughters
 McCon nell
 c ake
 exp end
 p ension
 f t
 pled ged
 His pan
 w rapped
 Ne il
 femin ist
O B
Th rough
 inc omp
 spread ing
 pure ly
 M om
m other
fl ow
ac ent
ab ling
v als
 V ar
 Y ahoo
E E
 I an
 Sp urs
 De an
 Â ©
 inn ings
 inter rupt
c itation
 Mod i
 se eds
 Rog ers
 excess ive
ul u
 wind s
 B B
H ist
 wa ited
bo ards
 disp os
 Is lands
 n an
 tun nel
 clin ic
 ha bits
 r itual
 ver dict
 Ben jamin
 S ong
 Int erest
 f illing
 p our
 assum ing
 ro cks
 deploy ment
 p owered
 trans mission
Ø §
 Cam bridge
20 13
ar ians
 Bloom berg
ch i
. ),
20 10
ry ption
 M ission
 mass es
 tr apped
 rus hed
 g i
d ec
 b ust
 Ro osevelt
 sl ower
 met ric
 adv ances
 mag ical
 s ends
A lex
 A ve
 vill ages
 phot ography
 B uzz
 satisf ied
 B art
 aver aged
 deliber ately
iv a
B en
arent ly
 J ess
 h ier
 Turn er
ë ¤
ament o
m atic
 Sp encer
A G
 ret reat
 head line
ã ¯
 cr ude
 fem ales
 rec alls
 res olved
 gr asp
 mon sters
 scream ing
 pros per
 N elson
 s heriff
 P un
 econom ists
 wh ites
 worth y
 advant ages
 Jeff erson
ad vant
pl ing
 condem n
 un st
 t ier
 E ss
 rep ly
 Mor ris
G eneral
 assum ption
 click ing
 mut ual
 vir al
it ated
 parliament ary
 non profit
s a
 a est
 inc ons
sh irt
val ue
 z omb
 prior ities
 ste am
RE AD
 tour ists
 Pl anned
 R aven
 puzz le
 Ox ford
r ained
or ph
 orient ation
 di abetes
 p osed
 econom ies
 oper ational
b rew
 N eed
 bel oved
 pan ic
 stre ak
 inst inct
 Rock ets
 ple aded
 comple tion
 g rip
 : :
 presum ably
 subsc ription
 Pr in
s ized
m i
 p ays
 Ch ance
 19 20
 fail ures
 198 6
 f ires
oc aly
 bal anced
 K aren
 Saf ety
h ave
c at
ADVERTIS EMENT
 out er
 ass ured
F ig
ear chers
i ary
 lay out
 L ess
 R io
 cle ver
 invest or
 care ers
 cult iv
 decl are
 mon op
 der ived
 accur ately
 Nor way
 sh aped
 S aints
 flo ating
ll ers
 O scar
at in
 Gl enn
g ov
IC E
M ake
 C her
 text s
 doub led
 purs uit
 enh anced
 smart phones
 tempor arily
arth y
 surviv ors
 T a
l ive
by n
 Tr ue
 lack ing
C NN
 g ard
ubl in
 bar riers
keep er
ab ad
au kee
 U C
 T un
 sc rap
 account able
 pen et
 Ev ans
 fin ancing
 F isher
 wild life
 tradition ally
V ideo
 D NC
PD ATE
 U RL
 wh ilst
 new est
 - --
 Qu inn
d ale
 Phil ip
pe ople
 work place
 esc aped
 volunte er
 Jac ob
 Sus an
cast le
 hy brid
r ust
 re un
 w ings
 throw s
 benef icial
 Br ady
 pre ference
 su itable
f ive
 remind ed
 rum ors
 G ear
 flex ible
pie ce
 C op
sec ond
in itely
 perm its
 under mine
 hero in
 ag rees
 B os
ort heast
m art
Å ¡
 l ake
 d ivers
B est
 K ill
 exp ed
 Dou g
 Sc ar
 flex ibility
 Princ eton
 Tr udeau
 ac res
 J ets
 B ash
 adv ised
 197 9
 Ver mont
 edit ors
P ar
 D ub
 Res p
at re
P H
im s
 res ume
 album s
 ind igenous
ol ine
 fr ight
 ess ence
 M aine
ham mad
 Mil itary
 coordin ator
i op
 educ ated
 organ izing
 ident ifying
 Ant i
 mag azines
 comp aring
 laws uits
 dub bed
 gif ts
 bankrupt cy
 tri umph
 r hyth
 crowd s
 L AC
on i
Ñ 
 wh ales
b ull
 routine ly
 incl usion
 licens ed
 rom antic
idd ing
 certific ate
F ree
 fire f
oc c
 prev al
ous ing
 Super man
  ï¼
 l oving
 dis g
 ment ally
 shif ted
cont rolled
 grav ity
le ton
 un ity
 ex empt
ã «
 ap ology
pro duct
 Pol ish
 K och
 F ly
 L ock
 vert ical
 Kick starter
 acquis ition
 G ab
 v ent
 C B
 A th
 supp ose
iber al
) |
 skept ical
ug s
e u
z es
 f ont
 grow s
 creat ors
 dam aging
h aul
 und ers
 jud icial
 contain er
 shif ting
 NC AA
 Q aeda
 Abb ott
 hum or
af i
 solid arity
r int
 wh istle
 J en
b les
t ail
id o
 threat en
 ten ure
 l yr
 prot otype
 direct ors
 m ixture
em in
 par agraph
 es p
 Play ers
 feed ing
icial s
 sp awn
ugg ed
p owered
 L G
c u
d f
 B ond
 f ence
 belie ving
 vac ation
 cre ep
Us ing
 H um
 K u
th a
it is
 crypt ocur
u ced
 connect ing
 prison er
In ter
force ment
 celebr ity
 cart oon
ord able
B et
 P ick
 tri ple
 to ile
 F if
 squ ee
bor ough
 particip ated
 emot ion
 decre ased
 magn itude
  ð
 R ound
 N in
 unf ortunate
R T
 Camp aign
 G arden
 st abil
 Al t
h ner
 att itudes
ch a
per m
 author ized
 inst itutional
 transl ated
 Mem orial
 discl osure
 = =
 emb assy
 F el
i per
 h ub
m ile
p ot
N G
w aukee
 R at
 n ons
 tr ash
 With in
 S alt
 sl ip
 bott les
 conserv ation
 firm ly
 M ov
 N az
 veget ables
N EW
 f lesh
IS T
L D
S l
 D est
 far ms
 conv inc
 en ables
 sp ill
 w and
s chool
ere r
 eval uate
ub es
 photograp her
 port fol
 p izza
id ad
h al
Ä 
 ed ited
Ph ot
 altern atives
est one
 W iki
 diagn osis
p se
 G as
p y
V R
oll ah
 adm its
ex us
 S aint
 Frank lin
 am end
 F oster
ount ered
 Bl og
an ia
or ient
 techn ically
 ant ib
 Cent ury
 far ming
 sl aves
 comp ly
 sm ugg
 Commun ications
vis or
 o x
d ad
h ome
 p ist
 St re
rop olitan
d i
Ã© s
im age
 contro lling
 B att
H aving
 Pal in
 clean ing
 willing ness
 passion ate
 sa uce
Russ ia
 R ou
 t ar
 doctr ine
 form ing
 198 7
 publ ishers
 comp osed
 d irt
 j okes
 c odes
 f are
 m ock
K ey
 ult ra
 avo ided
ur i
S em
ä ¸
 rec ount
 L ane
 Sen ior
U lt
 ex ports
 W orks
 mechan ical
 Ter ry
 Commun ist
 aggress ion
ac ious
 trans f
 dem ol
 athlet ic
 he d
 as c
 C incinnati
s ky
A ug
is ers
 An ne
 dis pro
 lab els
 adm ission
 legisl ature
 wond ered
 conclud e
inf o
x x
 Yan kees
 gr ay
D E
 enc ountered
iz able
 cred ibility
IT Y
 draw s
 mount ed
 Re ading
F our
 remind er
 succeed ed
p ublic
claim ed
 Ch o
 colleg es
d irect
ot ton
 R ams
 Count ry
 Ser ge
ec onom
 L uck
 D od
g al
 res on
 inv ite
Â ®
ut ical
 approach ing
 regul ators
 length y
 G host
 M MA
 warn ings
 disturb ing
 G er
 magnet ic
 7 9
a ac
 count ing
Ch ris
 Islam ist
 cons iders
 ra id
te ch
 hung ry
pro t
iff erent
 Ar n
 Pot ter
S y
 T ell
 Cast le
 j ew
 high way
 b ones
ã 
ic ut
 path s
 mill enn
Ñ Ð°
 l aser
 Bang l
res a
 Move ment
 Wik ipedia
 su its
 str ain
 C rown
 19 40
 rank ings
 inv ented
 taxp ayer
 P interest
 sec rets
J ack
 helicop ter
ir able
i pt
E r
 dec ks
 there by
  __
 V ery
 Dep uty
ul pt
 obser ve
 appeal ing
 Prof ile
 teen age
 inter rog
 Brad ley
se lling
 fundra ising
f il
G R
N orth
uss ion
 S acr
 s illy
n ames
 fulf ill
 entreprene urs
S ports
l ie
N AS
IT H
er ving
op es
in ning
 Be h
 ur ging
 10 1
 loyal ty
 int u
Whe ther
ell ar
 B JP
l r
ur able
 E arly
 ident ification
 qual ities
 transform ed
it ably
w ear
 bl ess
 DS I
 synd rome
 7 1
z o
m g
 fe ared
 screen ing
 strik er
 th irty
 legend ary
 endors ed
sun ami
and e
at ers
A nt
 last ed
 del ays
 su ed
Â £
 fr action
 ext ends
 ur ge
 m aker
 Har vey
 avoid ing
 cast ing
 comp iled
 le agues
 Ch uck
 Mer kel
there um
 econom ist
ow ell
n en
 In v
 gar bage
 Germ ans
 C L
o ard
St ud
ess ional
 sent ences
 contact s
 L akers
 purch asing
 establish ing
 hack ers
 n uts
 susp icious
are st
 desper ately
se en
 K ind
 crop s
ibl ical
( );
are ttes
ï ¾
 wor n
 found ing
 conduct ing
 E lection
 pres cription
ah an
D et
ect or
 T D
W ork
we alth
S outh
arent s
 sens or
L eg
 compar able
 proceed ings
 break fast
 arrange ment
f our
s ki
o ons
 T reat
 priv ately
 che er
 organiz ers
 Ol iver
 intent ions
 ath lete
dri ven
 R y
 Dougl as
 Sol ar
â¦ â
 Cor byn
 D ublin
 should ers
 equ ity
 z ones
ast ically
 rap ed
ar ound
is ible
 disc our
ine a
 t ang
 7 8
b ad
ra pe
 Cal gary
 S A
 rece ives
 orig ins
 treat ments
 imag ined
m outh
 fol k
 pro x
 ped est
 bra ve
 Ver izon
 imm igrant
ur u
 pre liminary
 B ab
 H em
 s ie
d ays
 Ch ile
 rel ating
ne ath
 Gu ide
 H ope
 w ounds
 negoti ate
 sw ord
 Fin ance
b art
 motor cy
 lock er
 8 4
 sear ches
st ring
 R ah
 D og
u um
 v ibr
 Ty ler
 prohib ited
 tr agic
n ormal
 Gu y
 n ick
enn a
 K as
 d ys
 he nce
 dark ness
 R ain
 Polit ical
ocument ed
id ays
 M as
M al
op oul
 a ired
 reason ing
 b oring
 soon er
 mob il
 h oly
 Pet ers
 N av
if ting
 Occ up
 Sci ences
 lineback er
 un ch
 Ed wards
umb ling
 t urb
 gen et
 satisf action
 real m
 cy cling
 f ict
ool s
wid th
 dis advant
 gr ain
] :
 separ ation
 prec ious
 predict ions
 aw a
oty pes
 con j
 after math
 misc onduct
 C ut
 imp ress
 K am
j e
ace utical
 h ors
E uro
 ne o
 head er
rem lin
 jump ing
 vulner ability
 belong s
 pri est
ill o
ation ally
 P ur
 pl ates
 ind irect
 mar ine
 deal ers
 kill s
 sn aps
 le aks
 F itz
an ium
 contin uous
p ath
Russ ian
 sacr ific
US A
 sequ el
W est
 B iden
own ers
g t
F R
 p ants
 M oney
ro ots
 after wards
 introdu cing
 obser vers
 p ipe
 def ic
Ref erences
W r
 M ans
Ind eed
 flood ing
 Brazil ian
 Down load
G od
 out door
 comp ound
 f ierce
 Bry ant
o a
 ins ure
 f oul
 lif ted
miss ions
 harm ful
 Bet ween
let ter
 recru iting
 R h
 Pant hers
t able
 Tai wan
 organis ations
T om
ide os
 out right
 Ser ver
 ref lection
 dr illing
point s
 inter ference
au x
rodu ction
ern and
200 8
 bip art
s ign
un s
aw s
 loc ally
 trust ed
st an
 trib al
 Ro om
fe ld
crib ed
ip se
 S K
 she er
 inc umb
 traff icking
 Bron cos
 C row
 or b
ur ring
 w ishes
 licens ing
 Griff in
 Charl otte
 super hero
 J a
 B L
ã §
 fl ows
 work force
as ma
H ill
 spons ored
J an
 re cept
ll y
 un re
 C elt
red ict
g el
 test ified
 d umb
 tem ple
 liber als
 except ions
ul ent
 elim inated
iox ide
 mis leading
 embed ded
F T
 l as
 destro ying
 sp are
 am pl
az ed
 char ter
 M arl
 reg ards
ã ¦
 pe pper
 implement ing
 unc ons
 instru ments
Art icle
 part ial
W ar
 N ixon
 Mar ia
j u
C P
 where ver
 don ation
 Al tern
 For mer
 Se ah
 un rest
 consum ed
 c her
II I
bl ack
ript ions
D ata
 unf old
 adequ ate
 br anches
he w
c s
 r all
ail and
row th
 fl owers
 commission er
 dis orders
 wrest ling
 midfield er
 un anim
 Spir it
accept able
l ash
S uch
 Ch arg
 match ing
 m erc
 creat ivity
 Stud ios
 Ur ban
 un a
 swit ched
St art
 tw ist
f b
 met res
 Bl ues
 list ing
 organ ize
 cost ly
 severe ly
 renew ed
c ost
S ometimes
M em
 pe oples
iz ont
 New ton
 d ivid
 treat y
 cloud s
 withdraw al
 p ound
 comp assion
ob i
se ud
C D
v iol
 Bro s
ec hes
 R apt
 G ate
 reb ell
 cry ing
 rein for
 Book s
 war fare
 Trib une
 e ighth
 suspic ion
h u
20 11
 a ster
 problem atic
 sound ed
 div isions
 a qu
 Sub scribe
ak u
OR T
 in appropriate
 Tig ers
 A G
 d ense
 198 2
 Ad vent
 Bill y
Cl inton
 eval uation
 18 0
 vig il
 TO DAY
roll er
 Sur vey
 cr ashed
 coast al
 r iot
 rus hing
 M ann
Look ing
 she d
 Luc as
 autonom ous
pp y
 sens itivity
 S W
ias m
u er
e ep
 f ame
 d ated
 ent ries
 lim iting
 Pal ace
 ste pping
 blood y
ins ki
ugg ing
 197 5
 int ens
st ore
k n
bs ite
 elabor ate
op ard
 Br us
p x
um m
M arch
 G arc
 un le
 N DP
fund ed
 assum ptions
 fel ony
S et
 Ar thur
st age
 Mil waukee
 J ake
 bus es
 Ð ¾
os aur
 G reens
pr ing
 tem plate
 statist ical
 P ere
 fundament ally
 Connect icut
 D ra
E nd
 support ive
 less er
 prev ention
 not ification
 se ct
 breat hing
 shif ts
 infect ed
im ated
 T ry
 fin an
Down load
l ies
ard ing
g roup
 arch ae
 med al
 fold er
 incent ives
× 
 den ial
 S i
 Michel le
 straight forward
ah l
U M
at on
opoul os
ke ys
 psych ology
 Ar men
Is lam
 liter ary
olute ly
 var iation
resp ons
 consult ant
 wid th
 accomp any
rep resent
 compat ible
 like lihood
amp s
 Cow boys
N Y
ash i
O ct
 c ents
 ins ists
 ele ph
 Z ero
E ng
 A ld
 ex agger
 inhab it
 Fant asy
 C a
op ing
ick ets
 consum e
 P ed
 oblig ation
As ked
 steal ing
 Friend s
ct ive
 S id
ull ivan
ion ed
 G ay
f ly
 H at
oc ide
M ike
 Sh ield
 contin ent
 M ust
 spe lls
 frust rating
 vary ing
 Vill age
ri ving
 vend ors
 C reek
 night mare
 f uels
deg ree
 McC arthy
ig nt
 your s
 rel ies
 e cl
 en cl
 edit ing
 pract ically
 lic enses
 re ception
 batter ies
 Rel ations
 correspond ing
orn s
 Sh i
 p owder
 c od
ar se
 1 10
Â 
 trad itions
 qu ery
 fresh man
oth y
 Re ed
 teen agers
 black s
 Co ach
ale y
 Q ur
i Ã³n
 E X
 G ates
 exp ose
iz ards
 kill ings
ain ted
 disappoint ing
 K erry
 adapt ation
iv ic
 unve iled
 9 8
 G onz
 C arson
mun ition
á ¹
 st ays
 par ade
 bet ray
 broad c
 ed ges
 conf using
 last ing
 wood en
 trans cript
 p ad
S uper
roph ic
ad ows
 T ol
 The atre
 lyr ics
it bart
 d ioxide
 p ale
 mon ument
 air pl
 celebr ating
 c ache
ott o
 incent ive
 J av
 exha ust
R ob
 spect acular
 I b
int age
 n ull
 gr ace
 redu ces
 ple a
 Soc cer
 altern ate
 Stud io
 Liber ty
 d angers
 HT TP
 B agh
 hydro gen
ott om
RE S
 sh y
 in sect
 lect ure
. â
ul k
os i
 loc als
 exec ute
Le aks
 interact ive
 ch arts
 mod es
 accommod ate
 W ol
 1 30
 express ing
 Gl ass
 Rob in
 kick ing
 labor atory
form ing
 M UST
 swim ming
 C art
 Ch and
l ain
 whe els
 R ush
 histor ian
Ð¾Ð ²
 S omething
ne apolis
 rub ber
le m
Ðµ Ñ
  Ï
 p ile
 Un ity
H ouse
 sk ull
 play back
ã ª
 affect ing
i ots
â 
 n odes
 B our
 mem orable
 colon ial
Cl ass
 g ambling
 counterpart s
 r ugby
r us
 Soft ware
ist ically
 L E
 M IT
 do se
  ),
 Ph one
 sol ved
 account ing
 E mb
au er
 h alt
 subject ed
 det ection
 tra uma
 C ann
se mble
 Venezuel a
 tw in
 prob ability
 Hill s
 che f
 N EW
L ink
erv ation
 J oy
 Ub untu
orig inal
w art
et e
 over haul
ful ness
 B u
 gener ating
 M ull
 W oman
 emp ire
 pret end
 Bry an
ier ra
pro v
 o un
 c ure
 mat ched
 198 1
 E rd
 vari ations
ential s
augh s
 Be ast
 inf amous
ol utions
m ines
on ge
out e
ss on
P T
ignt y
 don or
 op io
 independ ently
 dem ographic
 Ob viously
 0 2
 divor ce
 D elta
 D M
 Mu hammad
co ins
 met a
 h ij
 sw ift
 stre ams
ask et
 N PR
 L l
 Conf eder
 Trans portation
 ML B
 Argent ina
 mar ry
 over look
s ource
 portfol io
B rit
 B und
 Z ion
 gu ilt
 shoot ings
 int end
 A CL
Ðµ Ð½
F igure
 bes ides
te am
 Represent atives
 Eb ola
ic ides
 Leban on
less ness
 Sacr amento
 bipart isan
in ho
 tr ace
 J oh
 sk illed
 corpor ation
 Brown s
 for ums
m atch
pe lled
G old
? !
 K ir
D ay
 Morm on
D ec
 S ad
 N ep
 rec y
 pre y
 special ist
 k icks
 mob ility
 spot light
 touch ing
 8 1
 G PS
 al tered
 se iz
 For um
oot ing
 Mar athon
ING TON
= â
E v
 am munition
 cl one
 ch ains
 rece ivers
 tr ap
 out let
ie val
 arri ves
 ign oring
M obile
 l aug
 b ikes
 stro ke
er als
 lobb ying
as i
 success or
 love ly
 le af
 Bl air
 exerc ises
 sh apes
 Nob el
 tong ue
ft en
 B ased
cer pt
ret ion
 inst ruction
 determin ation
 transl ate
n ational
 corn ers
iss a
heim er
 spons ors
id ges
 sp at
ic he
 B R
 under neath
am o
 She ll
w al
u v
 under way
 wr ap
itt ees
 comment ed
 rec onst
 adjust ed
 Al f
Every one
 ref usal
 cy cles
 friends hip
Sm ith
 resign ation
 subscrib ers
 anonym ity
yn c
 Raid ers
9 00
pt ic
 sc ulpt
h um
 Th ailand
 Brus sels
 P as
 a ide
 b ite
 S old
A uthor
 Palest ine
 oblig ations
 vol umes
oca ust
 cous in
ul um
 Be g
 Bangl adesh
Pro f
 laug hed
 public ations
ern ess
 attack er
 L iving
 ad min
 ris en
 comm itting
 comp os
 Wal ter
 System s
 demonst rations
 prop ri
put ed
Ã £
 ch ase
ã 
 sens ors
 med ication
lev ant
Americ ans
â â
 Rich mond
 f ond
 E is
 convinc ing
ab ul
Å ¾
 count ed
 Ar med
ling ton
 former ly
 reason ably
G erman
 swe pt
 chem istry
 t ribute
 swe ep
 Res ources
 thorough ly
p it
B L
re ach
 enthus iasm
 W ade
 fin als
 T her
 V eter
 Me et
ig ade
cont rol
 d ancing
clus ion
 confront ed
 J uan
W ind
 D ennis
 in ch
rane an
 rel ate
 med ian
 l ined
 red ist
 Be yond
 disp ens
 perman ently
 Elect ric
 arrange ments
2 000
 aut ism
 Indones ia
 analys es
 R are
 A qu
 h ated
iss ance
 attack ers
 class ical
 W inn
 pre season
 tack les
 gar age
 behavi ors
 swe eping
 kilomet ers
C opyright
 Barb ara
 cann on
ik ing
 tw elve
urn s
 C M
 Br and
 Seah awks
L ife
 an om
 r ides
 trad em
 196 7
 brief ing
 AM D
 ret rie
 boy friend
 p ione
 M i
 L isa
 K el
oub ted
 uns uccess
 Im perial
 inf lamm
h is
 diff er
man uel
 doub ts
 t ube
 Pri ze
 p up
 column s
 Bull s
 gl ob
 in k
 Spe ed
ul ative
 dis m
 b ay
 al beit
ne x
C ity
 Com ics
 But ler
 198 3
 box ing
D oes
 Def ence
ins ula
acc ur
work ing
 part isan
 entreprene ur
 T ib
ro lling
 lin ear
 off shore
re nder
 Min or
 c m
O G
 K remlin
 Class ic
 pat ience
 bo ats
 t att
 f ib
ian g
 troub led
 pred omin
 out lined
 milit ant
 H ub
ah n
 r ated
 g au
 comm em
A ng
 vict ories
 197 3
 defin ing
ipp ers
 gener ic
 g rey
 sport ing
 territ ories
 A LL
 S or
C are
 Boe hner
 mem orial
 ge omet
 8 3
RE L
 car riers
 197 8
 inter cept
 All ah
M er
 grocer y
 c u
 bl ade
 process or
ã ¤
 sp ends
 legisl ators
 spir its
ch air
 spons or
 god s
 Plan et
 L LC
 nav igate
Ag ain
1 10
 adap ted
it ative
ant o
 un limited
ane ous
 enc ryption
AR A
 o h
â ¢
e or
am as
 r age
 Mar co
 viol ate
 film ing
 cred ited
 197 6
 b inary
 196 8
 accident ally
 trave lling
 diss ent
 8 7
op ular
Rober t
G M
 K rist
 name ly
 aff irm
ã 
 consist ency
 fan cy
 cool ing
 Ch ad
 catch ing
 inc oming
 sa il
 Sud an
al so
 Event ually
 elect ro
 Rodrig uez
 m ph
 ab used
 V iol
 stat ue
 Col omb
 sn ap
O rig
Ð ·
 H ud
 mal ware
 l uc
cul es
writ ing
 c ord
 bed room
b one
 or chest
 dele ted
 p ockets
 pre st
el er
 im pe
 hard est
co very
f eed
 den ying
 w ip
 Sw ift
 autom ated
 gen ius
 laugh ing
aret te
 le ap
O s
 m ate
 Ed ge
 contract ors
 Tex ans
 decl ining
 ne at
 intention ally
 enc rypt
T unes
 cat al
 n urse
ble m
ock er
b in
A c
 ca res
osp el
 Le af
 protect ive
 Ex change
 Phot ograph
 emp athy
 lit igation
 mus cles
 Hom eland
ev ent
 vessel s
 termin al
 l ap
 t sunami
em on
 p iv
 disc on
 R ivers
 inf er
 m ature
 fire arm
 consider ably
 l oses
ick r
! !!
 rent al
 glass es
 tre asure
 correspond ent
l ation
 Polit ics
th irds
br aska
 Lt d
 correl ation
re ated
 Ep isode
 9 1
 neur ons
 Re act
 P ast
 E M
 bureau crat
 T ill
 Rec ord
S an
k g
 sovere ignty
D B
 r am
 fin ale
 In side
 sell s
 comp iler
 Jenn ifer
ic ers
 me g
i ology
 spe eches
be an
 E ither
St ring
 hum ili
 star ring
 High way
 sh ipped
 or al
 clar ity
 poet ry
ov ic
 Cub an
 O m
 back lash
oubted ly
 ac ute
 var ied
 dis ability
 music ians
 An aly
 v ib
 S oul
 Stud y
 l ighter
 tim eline
uster ity
 phys ician
 desc end
 strict ly
 S elf
 8 6
 Com merce
ri el
 ch ant
 Q B
A FP
ain able
ã 
p ic
am y
U PDATE
w er
U P
v or
I RE
AR D
 d ive
 viol ating
 Â ­
gr icult
 rep os
 exam ination
 st icks
 f isher
 H ockey
 B annon
add y
OM E
AN T
O pen
 Cz ech
 Sunn i
 E thereum
ul ator
 sh ower
 function ing
 influ ences
 John ny
 ban ner
irt ual
 De al
ow een
 off enders
g ener
 cont race
at hetic
ate ur
H igh
 ag ing
 T ory
 to ys
 h oney
ern el
 object ives
 C urt
 occur ring
Americ a
 sh ore
 ment ions
 mort ality
 label ed
 mid st
est ab
 Pack ers
 utter ly
 w reck
OR K
 Bern ard
 C rit
 legit im
 Min neapolis
 wh ale
e very
 short age
W ashington
 c attle
 cal ories
eter min
 except ional
 prem ier
 ju ice
  Ù
ag ging
 coc aine
p ound
ant i
ear able
sc he
E arly
J une
 in ability
 account ability
 deter ior
 aim ing
 st er
 To o
## #
out ed
const itutional
 port rait
pl ant
 s acred
 T ru
 Ar c
we b
 t ire
 don ate
 con cess
 process ed
es ity
 ve to
epend ence
 acc using
 Wall ace
  â
 worry ing
ì 
 schem es
 Mem bers
 cor rid
 exhib ition
ri en
 9 6
 Cat al
ould er
b uild
greg ation
W H
c ill
 p seud
n ik
g irl
 th umb
 determin ing
 san ct
 pit cher
 qu arters
 demonst rates
 9 2
J im
 FO X
ost ic
ig ue
z i
w ick
raw l
 F ab
 M O
umb ai
 measure ments
 Sil icon
 philosoph ical
 king dom
 Aut o
pe red
 Bud get
K K
 Cl ar
 electron ics
 sub t
 Ab d
 St op
g reen
 ne ural
 K ane
 just ification
 hot els
 L ED
 sexual ity
 in hib
 V illa
 tact ical
 explo itation
 surve ys
 embr aced
 J obs
 H ERE
 n asty
Mus lim
 main tains
 d ash
 fil med
d isc
 national ist
 Fl ight
 d rought
ov ation
 sur pass
 trib es
 Sn ap
 She l
 n it
 dign ity
 vel ocity
 comple ting
 Christ ie
 H unt
ort ions
 E RA
 mis under
 affili ate
 pre jud
 Q atar
 pron ounced
ang o
Ã£ o
ange red
 St ring
 Em ploy
 195 3
 hun ger
 v owed
 Brother hood
 portray ed
 C our
A f
 hor izont
 F at
 â â
 cl ause
 v on
 l iver
F eb
 C ris
am ation
 achie ving
ian ces
 nom inated
 market place
 he aling
 substant ially
 ag g
 Carl os
 Gall ery
 b inding
 not orious
 delic ious
act ic
B it
 stimul us
 al iens
 Y am
 bl own
 ind ef
 she ets
 Tr uth
 pos es
mar ks
ai ro
 can cel
 subm ission
 D ian
 B ed
 Girl s
 facilit ate
 obst acles
r ide
ron es
 pro c
y d
1 20
 pro ving
 wor ries
 197 2
 effect iveness
 Tit le
 l iability
 class room
 P ubl
ent ions
 s perm
 K le
 G ive
 F ame
 ad vers
 h ood
 up side
 mod ify
 rev ised
 art ic
 â 
 assault ed
 dr ill
 suppl ied
 apolog ize
 toler ance
 G ener
R ich
eng u
a ired
us k
 M ode
 e leg
 soc ially
ung le
 attract ion
 prof itable
 Tra vel
 tun ed
 GM T
 D omin
 reluct ant
 social ism
 jurisd iction
 C ou
 P AC
 Att ack
 D in
un ct
 Wiki Leaks
 D ate
cent ral
 press ures
 necess ity
 negoti ating
 p ond
 att ributes
cc a
 bicy cle
 le thal
 tour ist
 In valid
ing le
 Ath let
ernand ez
ASH INGTON
G N
t w
 c ute
 M ember
ocrat s
 rest ored
 battle field
run ner
 Bet ter
 Contin ued
ag ged
 arr anged
U ntil
ri ved
 WW E
l arg
 break through
 Ar ctic
 priv at
ul in
 frank ly
M or
 Aff ordable
 I C
ens on
ll o
s im
 l ately
 br ush
 N eg
 risk y
 Ð ¸
 Ne ither
 pl aint
 Liber als
 emp ower
 N umber
 scholars hip
 genuine ly
 revel ations
ro se
 predec essor
V al
 Oper ation
ur l
k ens
ast ing
 fl ank
 le ather
Â »
 spec ify
 opt ed
 con vey
 A ven
 cat ches
 en roll
 Sam uel
 switch ing
 entertain ing
 astron aut
Q aeda
 Hur ricane
 pr ay
c ond
 gi ants
S H
A K
 sp ite
 ext ending
 st raw
er ting
 S earch
 hon our
 Bob by
 Ab raham
 dem on
 algorith ms
 casual ties
g ian
amp ed
 cons olid
umb lr
 H P
RE E
 n ost
 man ages
 character ized
yl an
Un like
 Mont ana
 Sim ilarly
 gall ery
uff y
 tw itter
 f art
 pers ist
or us
mont on
 W E
 inev itably
 Bagh dad
 Cl ay
 inf lic
 direct ory
 M aj
iz oph
 list ened
 p sy
 inter pre
 broad band
 ir rit
 Y ears
 mid night
 quant ity
 pers istent
 c argo
 Gib son
 Vik ings
 8 9
 c affeine
 st ab
 un acceptable
 B us
AC T
 new er
 rel ied
 broad ly
 tour ism
 virt ue
 respons ibilities
uten ant
 W onder
 Barn es
 an throp
Ty pe
 eru pt
 R C
Ä ±
ith ub
 somet ime
 expect ation
 L oad
ã ¨
 C ape
 C BC
 M atter
l ength
 Bre nd
 recommend ation
 ha ul
 pro xy
sh ow
 G it
 T ar
ol er
 he y
 s lic
 pict ured
 M itch
out ube
 hel met
col m
hold er
 bon uses
uls ion
 d un
P ut
 hy d
 indict ment
AM E
al in
 fin es
 rep ublic
 under min
D ep
 arch ive
 vill ain
 Sand y
 initi ated
atic an
 bul lets
 fort une
 nav al
 plug in
 Wood s
ertain ly
ast rous
 analy zed
 Id e
 render ing
d esc
the m
 US D
 finan cially
N ET
 def ines
 decl aring
 favor able
 hear ings
 download ed
 Ale ppo
writ er
 I RS
 R achel
 assemb led
 ca ut
 Fire fox
 i Tunes
ab i
 off ence
 fe ud
 read ily
 A bs
 c yn
 Sp ot
 197 1
With out
vent ions
ir med
 w are
 dim ensions
 disappoint ment
 discl osed
 pr ayers
D irect
 Cost a
 recre ational
 N ar
 9 7
 J ar
 H erald
 shar ply
ak y
pro of
P ort
 st ark
 art work
min ster
 review ing
 defin itive
k now
 depos its
 revel ation
 fac ial
ent in
ump s
 H R
so ever
 econom ically
 H alf
 the or
 p orts
 Pal mer
. â
 regul ate
 over see
 D ynam
 has h
 confident ial
 P il
 inter section
200 9
ut ing
 Un it
ult z
at ched
f in
M R
T or
 ins ights
uff icient
 rel ent
 trib e
 Enter prise
 mod ules
 subscrib ing
H ead
lement ary
am bers
om o
 C P
on o
 B Y
 our s
 order ing
 l iv
 Col in
 cred ible
 end e
 p airs
 crow ded
 dom inate
 0 3
eg u
 New castle
S and
 swe at
 Te h
p os
P ublic
ather ine
 be aring
 Te xt
 str anger
pr ises
 prot agon
 F alls
 crew s
 mal icious
g eneration
 barrel s
 un e
 A B
 E qu
per t
F ire
 event ual
 h ilar
 art istic
ming ham
 impl ies
 Mil an
 B ird
 neighb oring
 bl end
 Never theless
EC T
 p uck
 theoret ical
 Le v
 D olphins
 Re form
t ic
 p ause
 O wn
rib ly
 import s
 Al most
 St yle
 197 4
C ount
 clos ure
ag ain
ant le
h ole
 Fl avor
 pr isons
 inc omes
 rend ered
ed ge
L ab
 volunt ary
 constrain ts
bl og
× ×
 P ence
 qu o
 d read
 fr ames
sy stem
 A irl
 196 4
 Ter ror
 under go
 stick ing
 random ly
 Work ers
 preced ent
 sear ched
 arbit rary
 00 00
al ion
L ong
 Belg ium
 roy al
om ers
p rom
 Pu erto
 en abling
gg le
 vac uum
 In g
g on
im eter
 G rey
 Den mark
 ur gent
 un lock
ch ron
uk i
 9 00
 mart ial
 An a
 aud it
 R af
us hing
 ar ise
B ased
 un ited
 Ind ex
ett a
 * /
 prem ise
min ent
he astern
 reb uild
 billion aire
L ater
 cance lled
Cal if
ck er
em ail
 Col on
s cience
 haz ard
f ar
g om
 M AR
 what soever
 m aj
 business man
oun cing
es pecially
 inj ust
oun ters
 Jo ined
 trick y
 W ing
 Hug hes
pro du
ã 
 he m
u ity
 at e
W A
 prov es
 r ivers
 gl ory
 Sh op
 ter rain
Sc ott
 roll s
 sign atures
 insp ire
B ill
 discl ose
 settle ments
 N GO
 un aware
 I BM
 multi player
 out break
 Ass istant
 dist ress
 So on
A v
 Rapt ors
 I l
 E P
L Y
izoph ren
 L ives
 t ires
 star ters
 table ts
 lay ing
 196 9
 ch ron
 Work ing
th ird
O kay
 bes ide
 Phill ips
terror ism
f ix
 dispro portion
 Br un
 M ob
he tt
ort ing
 a ides
 Sp ider
 a ston
 blog s
 Prot est
 un bel
 an k
 flaw ed
com pass
 embarrass ing
 Base ball
 Sh ar
ope z
 Common wealth
ch ar
 to oth
 A gricult
 he ter
N ational
 su ited
 base ment
 C hem
ere rs
 ad verse
B ay
 exhib it
 pref erences
Con f
 B ishop
als h
 Reds kins
 Or thodox
 R ust
 over th
 inter im
Sem it
 fict ional
 hors es
 S O
 M umbai
 beh ave
head ed
 commun ist
 lack s
 separ ately
 bi ology
 subst itute
 P oly
ig ion
in formation
 Sh aw
 refere n
 Card inals
 b ind
 Marc us
 revers ed
CL A
 br ick
pri v
ER T
 tourn aments
 tel esc
in ces
l ay
r ar
 Bre itbart
 und oubtedly
 N A
 back ers
 ind ie
 young est
 Sc ript
 sk ip
 conven ience
 flaw s
.. ."
 d iamond
 S ay
h ou
 adj acent
S ur
 R aw
E V
 se am
g i
th ree
 co at
 express ions
port ant
 Reg ional
 Stud ents
 Indian apolis
 fort un
App le
 S ierra
F OR
ke ll
 d rown
 u mb
 exam ining
 ble w
 recip es
 C opyright
ES S
om i
ar at
R O
 M ack
 prev ents
 nation ally
 ban ning
 conclud es
ov ich
b uilding
 M es
 elev ated
 y oga
R eal
ul ates
 N exus
ri pp
 Hall oween
 â 
rit ies
P erson
 relig ions
 B order
ser ver
 hyp oc
 Ch apter
 Leg end
 murd ers
 N ad
at isf
 mem or
y our
] )
 transf ers
 c ra
pl an
 Sh ah
 dis astrous
 D ue
M uch
 M aking
 organ ised
 link ing
 pl un
 Wh atever
E mail
itz er
 inc on
 du o
 assass ination
 met rics
 outf it
 trop ical
 comm ittees
 deb ris
 network ing
if iers
 fam ously
 neg lig
 emphas ized
 war r
wr ite
 invent ory
 U FO
 c ab
s or
end ent
ri v
 N ag
in is
 N ine
G reat
 b atch
 project ions
 sp here
 per ce
 K ath
 Dun can
 anal og
P ac
 Garc ia
ment ioned
 Ed monton
ade qu
ri ages
 record ings
 Â «
 Ag ree
 cor ps
ny der
 sub mar
 fif ty
 sk i
 satisf y
ph p
uff ed
 D iamond
 j acket
 T arget
ophob ia
 G ot
 exc luded
 Lad en
 st d
m itt
l as
t em
 ob l
 Ne braska
atter ing
h n
S M
 M ine
 min ers
 se min
 fact ories
 hold ers
 var iant
 analy ze
 survey ed
 14 0
oot s
 porn ography
 Mach ine
 Priv acy
 Invest ig
 G and
e em
et z
Euro pe
 V ideos
m ans
 hand y
 197 7
 shut down
 Leg al
 L ost
 Ã 
 by pass
 evolution ary
 Tra il
 pro port
 Jam ie
s ocial
 Lu is
Ch ar
T im
 L ang
 D A
 pat ents
 M ana
 n arc
 opp ression
 Her o
 F inn
 A CC
D aniel
ë 
 neutral ity
 m igr
 s i
IC K
 N at
 PD F
zb ollah
 C F
M ac
W ASHINGTON
 str ings
â¦ â
 President ial
 M urd
¦ â¦
Bl ue
 hack ed
 tact ic
 hand gun
 P ad
 h ind
 Gold man
Rem ember
 C riminal
 F an
 Cast ro
d ain
c m
 ab oard
s qu
L aw
 H orn
 cred entials
 ob esity
 to kens
 he ated
U se
 p ork
 Re ally
 Cl ose
 3 50
 polic ing
 S ie
 mist aken
 upgr ades
In tern
 crack down
 N athan
pl ess
 Kn icks
 comprom ised
 land l
ì ´
 assign ment
 Sur v
 C ond
 V i
ex p
 D ise
 compl aining
 kn ees
 re iter
 mix ing
 ev olve
 boot s
undred s
 grad uates
other apy
c ourt
v oc
 prov inces
i w
M o
ew ay
 Ch ase
 campaign ing
um atic
 E arlier
ous ands
 integr ate
 tri o
otten ham
 fe as
it ial
 MS NBC
 Pri or
 u seless
 P red
g ay
it ches
t or
 s ab
 T on
 govern ance
 9 11
 investig ative
 B elt
 text ure
 surv iving
gr at
app ro
 achieve ments
 Ob serv
Ã º
 Week ly
aus ible
 disc ourse
 Acc ount
child ren
 L uther
 liber tarian
ro le
 m elt
 ' '
 K az
ig m
S um
iter ranean
 be ast
on est
ar u
 o ven
 S ave
 d ug
 Re yn
 track ed
 su e
A pril
 pred iction
 over ly
 Jack ie
 sl aughter
 n erve
 196 5
 Met hod
 defend ant
 tow ers
 grad uated
 drag ged
 Creat ive
 intrig uing
 org ans
.â â
st ick
 hol idays
 C u
 V atican
B ron
 dr ain
 phys ic
do ing
 remem bers
 Ba iley
 S el
 art if
 ignor ance
 art illery
 J os
et a
 p add
b at
M at
 Airl ines
 sub way
 real ised
gh ai
te lling
 A pr
 res et
 co pper
head s
 Four th
s omething
n esty
war f
 min im
 rob bery
 inv isible
 glob ally
 Bir mingham
V ID
Ñ 
 int ake
 P ink
 Ph D
 tax i
if ully
 int ends
alth ough
 Well s
 off s
 concent rations
 B uild
M ad
 team mate
ind ex
 homosexual ity
 D w
 mathemat ical
ur ally
 R ud
 dest ructive
 Chance llor
 pharm aceutical
 fl ower
 dis gr
 who ever
 rep et
 b ats
 f itting
Not es
 post season
 b out
 9 3
 qu ad
 T ouch
 anch or
 epid emic
p ay
 cl ue
E xt
 present ing
 Com cast
 measure ment
 Z imb
 Jes se
 S ens
 Prop het
 nin th
 subur bs
he art
H ub
 toug her
ig a
 W el
 atmosp heric
B ro
 l azy
ON E
us ions
 J ama
 president s
 cont empt
 Israel is
 den ies
 Mon th
 sal aries
 prof iles
play ing
 disp utes
 sl ipped
  **
 N ancy
gg ing
 domin ance
L ear
 imm unity
 cont ing
 non etheless
 IS BN
le ague
l ass
 tu ition
b ul
us hed
B o
 Mo z
ce ans
g reat
 design ing
 mor ality
 meas uring
medi ate
 ch airs
 sum mar
 Ant ar
 aggress ively
 dis k
 Ell is
 symbol s
Î ±
 .. ..
 Pr im
 Nash ville
d evelop
 Em peror
 T alk
 grand mother
orient ed
 K or
m os
 B ach
 she ep
ab we
 far mer
 place ment
 Ob ject
 Â ±
 free ze
 const itute
 manufact ured
 emot ionally
 0 4
Will iam
 horr ific
 Met al
 thro at
i ably
 Word Press
 Malays ia
V I
 ×
om atic
 N E
F ox
 del ivers
 Â §
ai res
 coll ision
 n aming
 ad oles
 des erved
Se pt
 Har rison
 extrem ists
 ham mer
 theat ers
 subur ban
ine z
ew s
em et
 Se ven
ik ed
 reject ion
ipe g
 R PG
sh it
 L ore
 nurs es
 elect orate
 les bian
 dep ict
 Laur a
imens ional
 Hol ocaust
REL ATED
 up hold
ud ed
 M E
M D
 was h
 run ner
 cl ash
 wr ist
 mind set
 e ternal
 Sh adow
 interpret ed
 X i
 sle e
H el
 att ach
. (
 Vin cent
re view
 S ullivan
he nd
 He y
 off line
 g aps
 f iber
 | |
asc us
 iss uing
 inv itation
 contribut or
 make up
 prohib ition
 9 4
 Nob ody
 conv ictions
 distingu ish
 Z immer
 Prin cess
 r h
all ow
C r
an ic
 S F
 We ather
 bo oth
 sc ales
 Pr int
 Har am
 sw ap
ã ¹
 M aur
 tr icks
 Cons ider
 cons cience
 Pet erson
 D awn
 Rod gers
sp oken
 Mot ors
p ired
 K ate
 terr ifying
 p iano
 C av
as ive
b ot
 Arn old
 Gu inea
ol k
ve t
as se
 dig it
 C hen
 sl ice
 St ories
 A my
 Be aut
 R ico
 regul ated
 prec ip
 nice ly
serv ice
 off enses
 assess ed
 hor izon
 Steven s
 jer sey
ar cer
 accord ance
Aust ral
el ed
 a ug
ah o
 Marg aret
 unb earable
m ain
AR Y
 a pt
 int act
 prop ose
 l ips
 pass port
 M icro
 vacc ines
 buck et
 fre el
 Tele graph
arm ing
 sket ch
 L oc
 Occup y
Ù 
C OM
n ut
ick er
 We iss
 real ise
 Y ale
 question able
 mater n
 te aches
 at oms
 marg ins
Over all
gh azi
 Jul ian
 b er
ific ant
Hill ary
 R ic
U K
os ures
gom ery
 Med iterranean
 pl ural
Â ©
 T ask
 Ch ip
 div ine
In vest
 my st
Ã¡ n
Ob viously
 rel iability
 synt hes
 incorpor ated
ibl ings
 comple ment
ur ry
 bus h
â 
d ollar
[ /
off icial
 An im
 Sh ard
 discon nect
 O z
 Bre ak
C ong
 S ach
 A round
omet own
 gu ided
 was ted
 pass ive
 position ed
 Mon ster
 Arab ic
 Dem ocracy
Ã 
 guarant ees
 belong ing
 proceed s
 thr illed
ol ith
 forth coming
 manip ulation
 deliber ate
IG HT
fr ame
· Â·
IF A
 Pal m
c ulation
T ur
am mar
T w
g s
k h
 S ter
 fact ions
 m ush
 J oint
 crit ically
 Sen ators
 App lic
lin ing
 Sw an
 G aming
sp ace
 Angel a
 Louis ville
 Jeff rey
 he al
 stead ily
r aged
 cos mic
 endorse ment
 res ur
Fr ank
 Comput er
 uncons cious
i ological
 E A
O ST
 M ort
 D ays
we ather
 Z ach
or ically
 re lying
 phys icians
 remind s
 Gl obe
 G ang
 Tit ans
P ower
 T ogether
 Brew ing
 Crime a
12 5
ot ive
 Ch an
 in accur
 un constitutional
ur as
 well s
 E aster
to o
 ha un
 secret ly
 opt imal
 param eter
 wood s
 Look ing
 s ink
 j ack
 ancest ors
 inf inite
ch ant
 Queens land
 med i
r ising
names e
al ph
 incumb ent
b as
k ar
 ret ained
 since re
 Â 
 jo ins
 wh oles
 breat he
us cript
 administ rators
 Sim p
ed uc
 C T
 metab ol
 we ighed
 evangel ical
 fact ion
Ù 
C ON
 Teh ran
M E
 R ace
 sh ark
N one
ograph ical
 E ight
 dig ging
 ab uses
 Alex and
 dim ension
 Id ent
 Cub s
 foot print
 ch ick
 profess ors
 enact ed
 R ank
 Chall enge
 Thanks giving
 cur rencies
um bers
econom ic
y on
 M ul
v ised
 car b
V A
ul ously
 equ ation
 int imate
 stri pped
 transport ed
 purs ued
 Over all
Ind ia
 ve t
 m s
 Ed die
 K an
 gas oline
 confront ation
od er
 Cont ent
m us
el o
ed In
 disc ont
og yn
 tal ents
 defend ants
 c ups
 commission ed
 column ist
g ow
 pitch ing
 unemploy ed
 16 0
 de lete
 inject ion
 Stat istics
 Moh ammed
 come back
V er
e ment
p ad
 man eu
 hed ge
k it
act iv
 Th ai
 masc ul
ot on
qu is
osh i
 V M
 Gl as
ere k
 sa ves
 hand les
P oint
 Co ff
 back wards
 travel s
 min us
 A ub
 hel m
ith uan
Te am
.' "
 vit amin
 Im agine
 detain ees
 Col lect
 Hispan ic
 rhyth m
 cig arettes
 und ocumented
ell ing
 O pt
 saf egu
 over time
 L amb
 land mark
 commit ments
 Comm ander
 att ribute
in burgh
 m es
 reven ge
 Gard ner
 cance led
 lad der
Â· Â
 sm ok
 troub les
cl osed
id i
 legitim acy
emet ery
 ent ers
 expl ored
 any time
 bl unt
 B aby
ac hers
 que er
 symb olic
 Light ning
 nav igation
 h ref
 troub ling
 infect ions
 cou pled
ac cess
 adv entures
s ight
 catast rophic
 irre levant
 unp opular
 ener g
 respons ive
 staff ers
J eff
 subst ances
 confir ms
 pun ished
 impl icit
 appreci ation
Re illy
 prom in
Can ada
 efficient ly
 aver aging
G en
 Squ ad
K ing
 kilomet res
anche z
 toile t
 amend ments
pro ve
um i
Sh ort
 W alsh
G S
 S em
 r ings
 ris es
 associ ations
 cost ume
 A FL
ean or
 19 45
 F aith
 unc overed
 L ic
 Pet e
 out look
 str angers
 Any one
 se aled
 Dou ble
 J ed
 Brook s
 shall ow
 Broad way
 buff er
 sovere ign
ê ³
 Jo el
 Y e
 w ard
 im minent
 G R
 be ans
 ident ities
 B ills
Ð ¿
 flow ing
 elim inating
ilit ary
 dynam ics
 W ii
 gl imp
 un int
 Boe ing
 as leep
ro gen
tit le
 authent ic
 Hait i
 S L
 Dod gers
 grass roots
 We bsite
C BS
 contin ually
 import ed
 val ued
 dist ances
 collect ions
 S add
 Ter min
 def enses
 Tra ff
 batt ling
 autonom y
 lad ies
 Sh a
IM E
op ic
 a usterity
 glimp se
 d orm
 cop e
 mess aging
J apan
 lack ed
if iable
play ed
 al igned
 load ing
 G ore
 calcul ate
 Hol mes
 Ice land
 n est
 grand father
ie ce
 furn iture
 K ap
 C and
 g re
w ould
 Dam ascus
on gh
 fe ver
 Al ong
 sp ying
 gl ance
 assert ion
 Brother s
 expl oded
ers ed
 gal axy
 commod ity
 tr im
 cryptocur rency
 Simp son
ä º
 start ups
 b ru
 ro g
B uy
 for k
ator ial
r ors
 neighbour hood
 r ou
ced es
 S outheast
 unh appy
 mer it
H and
gu ard
 gen ocide
 mole cules
 He zbollah
ID S
 Tr aining
 account ed
 g reed
 seek ers
 encour ages
 ref res
 pro long
  ic
 F ac
 Point s
 premium s
C ap
r ise
 C arm
ath s
 G B
 H E
 sh ook
ib les
M att
sh aring
 be ats
 dis reg
 legal ization
 option al
 196 6
 qual ifying
 pit ched
 sc al
chn ology
 du pl
 inspir ing
 C urrently
E vent
 sc attered
 ord inance
 ex cerpt
is co
ib bean
 Fer r
ë 
 R ange
 cur ric
cent er
as ures
 cont ender
 acc idents
 Her oes
 consult ing
 concent rated
 Chief s
 simpl er
 en vision
 trave lled
 res id
p her
k ill
 fru its
 aest hetic
 disc retion
 West minster
 c age
 h ike
 S pect
 g ren
 cent ered
 favor ites
 sum mon
 n uc
 background s
 load s
 Com ic
 consult ation
Ð» Ð¸
 extrem ist
Sub scribe
on ut
ophob ic
 C ab
 Hel p
 p p
 Tib et
on ies
ond e
ug ar
 Winn ipeg
 s iblings
 public ity
 w oke
 we aker
 S ett
R yan
 P orter
 lif ting
 install ing
 cand y
 appreci ated
 m asters
set t
ov o
worth y
 qu ot
Up dated
l anguage
 en v
 n ail
um my
M ain
ter ior
 nons ense
 defic its
11 1
ain er
S F
at ility
 direct ing
 C ox
 j unk
 R AM
 E sp
Be ing
olit ics
 tro phy
 r anges
 conce aled
ê °
~~ ~
 annoy ing
 G P
 M B
 F L
 in adequ
 S nyder
or o
 Ben ghazi
J on
 su cc
 activ ism
f ull
b oth
iz ers
 has ht
agg ering
 cul min
ur ious
 V oice
ear th
 se gments
om on
ã 
 C ort
 b ans
 o we
ã 
] ;
 col ored
 hy pe
 pack s
 r ip
 consum ing
De velop
Ã­ a
 St rip
 e ld
ograp her
 compar isons
am pton
 D aw
T ex
 acc laim
 M I
,' '
 sc roll
 D ri
ens ed
U I
 F ast
in os
z el
est a
 W ire
ener gy
 pat ron
 crit ique
 Austral ians
 applic able
 M ills
 liber ties
Cont in
G GG
ke eping
16 0
se in
 DO J
 Engine ering
 persu ade
av ailable
d ist
 Eff ect
ig her
en berg
 Ll oyd
 med ieval
m ember
le en
o ir
B as
Ù 
th reat
 M ons
 a fore
 fl ames
 op ener
 w ield
 he els
 de af
 contract or
re ctions
 redu ctions
 ill usion
 stud ios
 ro oted
 d awn
 pit ches
 c ensus
 m ast
 bre asts
 dress ing
 anx ious
 C ell
 sie ge
oy s
um ed
 celeb rities
 con grat
 M all
 inc arcer
 
 sc are
anc ies
 l ending
pro cess
 character istic
em ale
 imag ery
 Fin land
 An imal
 calcul ations
 brew ery
Ph il
dep th
is le
an ies
 up s
T ra
le ased
 sch izophren
 â 
 l ion
 p und
ys on
 J ared
 E ug
 light ning
 t ales
 promot ional
 Nor we
Ã  
 W or
 clar ify
 habit at
 yield s
 Vis it
Christ ian
 S ut
. ).
 Raven s
 s id
he ster
 Dr ag
 Mal colm
xt on
 J ong
 L ion
 app et
 sol ving
 fav ored
 Re play
 educ ate
 class ification
 Coun ter
 eas iest
om ore
 prompt ing
 f oster
ne ys
 n er
 mor ph
 dict ators
 advis ers
 C abinet
m ax
 In iti
 L yn
 psychiat ric
 sl im
 b iblical
a que
 sur render
ian n
 post p
 Agree ment
um ar
 Qu ick
 k g
 at op
 G round
 sm iling
 amb ul
 depend ence
ì 
 Roman ia
 un law
ber ger
ob ody
 H im
 comp act
 Wal mart
d et
C AR
 sec uring
 according ly
 ra ids
iam eter
 bi ased
clus ive
 pres erved
cul us
sec ution
 0 8
 Mc N
ol ics
 I g
W R
an ne
ra pping
ore st
S ure
 for ty
 Europe ans
w ald
 real izing
M icrosoft
 re ct
 Polit ico
Sh ow
 j am
 par a
 barg aining
 Arm strong
 H A
 rein force
 p ub
 unp redict
 Hud son
le tt
 C ant
D ER
n ar
 Viet namese
 m im
 pack aging
 remain der
 cool er
 prec ision
 eat en
 adjust ments
ount ain
 unw illing
 sur plus
 Pict ures
ys ical
q a
 reprodu ctive
 inc om
â¦ ]
o at
 h ometown
se arch
 S ales
 circ ular
 subject ive
h ots
 F ish
 Dep ression
 Other wise
am iliar
 instruct ed
 Labor atory
ne ed
 bud gets
 Huff ington
 emer gence
ro ot
 c aucus
 Se lect
 trans c
att ack
Aug ust
est on
 inhabit ants
y ang
 R ing
 D ylan
are z
in ery
p ol
 sp ont
 P ract
ivid ually
 E arl
 dis l
up iter
 des ires
 d ining
 l enses
et ooth
 l inem
 ab usive
 Sh in
f illed
enh ower
s ic
ook ie
 mass acre
 s od
et c
â (
it ations
 G am
ob a
i ott
 Zimb abwe
 jew el
" ]
 L ower
 Al ice
 dri ed
 opt ical
 sens ible
 st ap
raw ling
 predict able
 R acing
Every thing
 conf erences
 ch rom
it utes
 Aust ria
 m old
 cens orship
 V a
S am
 o w
 am ateur
ia z
 L opez
 over head
 W ings
 p iss
 pat ches
 stat ute
 em pir
 Em ma
 air ports
 ver se
 bas eline
 strength s
 match up
 exp ans
 Y ellow
 mir acle
J UST
 cur b
if le
ev al
b ane
h ad
 You th
 bas ics
 man a
 st ole
S cient
 Up on
 mount ing
 kid ney
 adv ancing
oster one
p resident
 Oper ations
 trad es
 sent encing
 cul p
 Form ula
 flee ing
x on
 umb rell
ud a
id y
 p el
 j ets
 L ate
 certain ty
 fin ances
 special ized
 norm s
 pot ent
 ang les
 cons oles
 T rav
 academ y
 jail ed
M ax
 recru ited
c all
 Ah mad
 ax is
 Ap oll
 an arch
 aer ial
 scar ce
l al
our ge
ut an
 C raw
 u pt
 need ing
 K ids
 system atic
 ch asing
 Ð ´
 cl ips
 r ipped
ch ief
 Ah med
 vol t
 Scient ology
l ocal
author ized
 st ub
 P owell
b ra
il ers
u art
â â
h at
n ia
 man ually
 dis hes
 an ten
 ins ider
 r ats
 half way
 ref uses
 fix es
 Tom my
pe ction
 Str ong
 cl ashes
uck ed
 rom ance
 Social ist
 share holders
 depos it
l isted
â ).
C le
 po le
 br idges
 mac ro
 Shan ghai
 Mart inez
cl ick
h l
 op ium
iction ary
 critic ised
Wh atever
 dr agon
 Fin als
 fl uct
 vol can
 pract icing
osa urs
cont ent
 A er
 shout ed
 upload ed
 obsc ure
 Gr an
 Per formance
 Jess ica
We b
 inter ventions
B ER
 multi pl
v ial
  ^
F ive
 pr one
 And ers
 found ers
 sl ated
 cle aring
 similar ities
 res il
 respect s
 g orge
 indic ator
ire ction
 protest ing
Ð ¹
 academ ics
cons cious
 en rolled
ogen ic
 al pha
~ ~~
 > >
 B esides
 pist ol
 A F
ad ian
 su ite
In side
 not ified
B ox
by e
F eed
 pur ple
 autom ation
 pract iced
 W ant
ad itional
 dep icted
 show case
 Cl in
 D j
iat ric
T er
 ce ment
b ank
 euro s
 u m
â :
 C OM
 nost alg
C all
d b
 Car ibbean
 Mag n
  q
 up ward
 im aging
 port ions
 offer ings
 h urd
 und is
 Em ily
il itation
 vo iced
 Inc re
 Imm igration
r ams
 Fro st
ir us
asc ript
ust ainable
 liv est
 U CLA
I ES
 N as
ach t
H y
 ins pection
 inv ention
 gl ac
 log ging
 Int egr
 Ne uro
sp ons
 compet itor
 laun ches
 san ction
 satell ites
 sup reme
 rif les
 cro re
ri ans
 b od
 Con n
 neg lect
Pl ay
.' '
 chap ters
id ity
 Charg ers
ch at
C re
 S r
 m all
 man uscript
 Ed inburgh
 sp ike
b illion
We ek
ph is
 L arge
 Mar ines
 circ ulation
 huge ly
 park ed
 196 3
Not hing
 recip ients
 c oding
 ble eding
 d ot
 T ree
 P T
 at omic
 Norm an
 dec isive
s ay
 M ater
 Is aac
 U P
ig s
 Y u
OS E
 B anks
 recogn ised
 Ag ent
Un ited
 S witch
 task ed
 adjust ment
 resc ued
 illust rate
 ru in
own er
 boy cott
 hier archy
 dis puted
 R A
ie ve
os ity
 As k
 H S
 ( -
 gener ates
 Z one
 recogn ise
 f reed
 wild ly
 d are
 script s
b usiness
 fore sts
 cert ified
 Str ateg
 recover ing
 synt hetic
 rele g
OW N
 Citiz ens
 Portug al
omet er
 Clar ke
f un
 cou ch
ic ates
 P in
 E le
 R oth
 custom s
 U ser
 jud ged
 impact ed
 tou ches
 cr ap
 dark er
 positive ly
sh aped
 Ken ya
 distinct ive
 fif teen
 Reg ion
 12 5
 shout ing
 Belg ian
 cry stal
 gr im
connect ed
Republic ans
cific ally
 end angered
H C
 t ide
 D ame
 Pro cess
 pull s
 progress ion
 ch unk
 prem ature
 Ev il
 manip ulate
 sc iences
 st iff
r ational
 se al
 rece ipt
r ill
 o k
ic able
St r
 Sc he
D el
ac ist
 br on
 st aggering
T est
W ould
V ery
 associ ates
 S eth
 consist ing
st airs
lev ision
 Al z
 amb ition
 Pre vention
 St range
Ã ¸
 dis ruption
are a
 US C
 Î ¼
 G raph
 bl at
c ision
 incorpor ate
ij i
el ong
D ou
 I R
 intern ationally
X X
 Erd ogan
and als
m el
 L an
 kn ives
 po ised
uss ions
F ull
ã ¢
 Ð º
lev ard
 consist ed
 Car roll
 impl ied
 res ent
 Bet a
 bull ying
 Kurd s
 Her itage
 ill um
 continu ously
 inherent ly
occ up
 reck less
G ET
 luc rative
c amp
m ill
 sex y
 comb o
hod es
 hon ored
 log s
 amb itions
 detect ive
 s acks
 t a
 G ing
W omen
Off icials
 S ri
ich t
ou st
ment ation
 ap ost
 collect ively
 rest rain
 P ic
Pl us
 Th om
igg s
 T PP
 p ars
charg ed
 F a
 mos qu
 add ict
 max im
â ?
 l b
 sens ation
sc ript
cl osure
v ance
 T ottenham
o os
ter ing
un n
 S ite
 Â ¤
 Â °
 prim aries
eal ous
 uns upp
 mer cy
 â  â 
 explo ited
 forg ot
 pig s
 surf aces
 dep uties
200 7
 Fal cons
 war rior
 Hop kins
 mathemat ics
ok a
 Leon ard
e ous
m and
um per
V M
F ind
D I
 re ef
 found ations
 w ished
 view er
 kind a
 music ian
J oe
 assist ed
 dep ressed
 t ags
els h
 cooper ate
 war ns
 R ot
 spin ning
 relax ed
im ity
 femin ism
 stun ned
 B oko
ell ed
 K ash
c ue
 fat igue
 K in
 up rising
it as
T T
 real ities
 sl ides
 Col ts
 sim ulation
 Pr ison
 ball ots
 adm ire
 ab rupt
Re view
 sm iled
 wat ches
 turn out
 emb od
 m ud
 vast ly
 ment ality
 me ga
\ -
 Josh ua
 bureau cr
orth y
 displ aced
 sh irts
f est
 Er n
 W ere
 grat itude
 B ot
ab bit
 T u
B rien
y en
ot ics
h or
C U
 comp ile
ues e
 hum ble
20 19
 connect ivity
â 
 reflect ing
 Great er
 B uc
 Step han
 IM F
 u b
Ste ve
 works hop
at ured
ess age
 Priv ate
Ke ep
ver ted
re cy
 min imize
 man kind
b ling
 supp ress
 sound track
izz ard
 V ersion
 aggreg ate
OU R
 Naz is
 G ur
 M t
 Gand hi
i u
and ing
 M oss
 S ina
 book ed
 writ ings
 impro per
 inf ilt
 B apt
 port able
 comp ounds
 pr iced
 tight ly
 Cy ber
Any one
 ob taining
 authent ication
 symp athy
 C ancer
 Sch olar
 echo ed
 Citiz en
 predomin antly
 Colomb ia
 pl ag
m ajor
 D rew
 Pr ide
 test ify
 Ass ange
 B omb
 repe ating
run ning
 H TC
 Sil va
ise xual
 v ic
J es
 Represent ative
 Nic otine
c iously
at able
 prosper ity
 bl oc
 motorcy cle
 dys function
 encrypt ed
E nt
s an
 Let ter
 M ade
ir ies
 over view
 activ ated
ã 
 personal ities
oles ter
 ir ony
 Ch ampion
 remark ably
 v icious
F il
ov an
 bail out
 dies el
 recon c
 at roc
m ph
 Ad vis
 S B
1 30
 Dian e
 g em
O k
 car n
 ind ividually
â ²
 le ase
  000
 b ored
 und erest
 W ait
 react or
 dev il
 ar rog
 F ear
Ã¼ r
 ver bal
 Fred er
ason able
 nut rition
  í
 Amb assador
 int ro
 F ight
 monop oly
m ean
 hilar ious
 Reyn olds
s ite
 â
 loc ate
 D rop
ident ified
 P aper
p ically
rest rial
 D anish
 element ary
 boss es
Î ¿
 N HS
 mis er
 Cont act
 Indust ry
 ple asant
 fert il
 organ isms
 K ay
t ax
 U l
 10 2
 SC O
ef e
C amp
 Mont gomery
 mis ogyn
on al
 we ars
 en velop
 min eral
 cr unch
 Act ually
 e rect
 s atur
 reb ounds
mer cial
Th omas
 satisf ying
 light weight
ib al
 C urrent
 gest ure
 Imp act
V is
 unbel iev
 B O
s u
 V o
F I
t v
un ks
 D h
S und
 New man
 car ing
 exp osing
 av iation
 amb ig
 spe ar
Spe cial
 uncom mon
n umber
Ed itor
 P or
 not or
H ello
ey ed
 opio id
ood y
 Dise ase
il ia
a ic
 O ri
 B io
 des cent
And rew
 investig ator
 activ ation
 e go
 P oke
 el ites
 respond s
 fix ing
 Act iv
leg al
sh ack
 apart ments
 monit ored
 bat ting
 shel ves
 al erts
 Mus k
an throp
 ev olving
 constitu ents
 weakness es
 national ism
 g ru
st ated
 Tun is
ind uced
W as
 horizont al
 F IFA
 Norwe gian
 un m
 
 The ory
 happ ily
 capt uring
 camp uses
 rock ets
 pay roll
 condition ing
 Inter ior
 par as
 m apping
 extensive ly
 incl usive
# ##
 t ennis
 coinc idence
ab lo
ok u
 P ierre
 h obby
R ub
 genet ically
 T as
N on
en es
 afore mentioned
 Eis enhower
 Ell iott
 t il
 P H
ard i
In f
 st int
 fin est
 a in
M arc
 prop osition
het ical
 p unk
C ourt
 ut ilities
 c ad
itness es
 cook ies
erv ative
Qu ery
 h sl
 Greg ory
 F ile
ec d
 overwhelming ly
 BM W
 to pp
 dispos al
 intu itive
 j aw
 NY C
 Sal v
 Val ent
oc o
ick y
 F o
 to pped
 st aring
 answ ering
 foreign ers
 appeal ed
im edia
Sp ace
 belong ed
 19 41
 liqu or
 overwhel med
 TH IS
 T weet
 hint s
p ical
 pa ired
 cinem a
 Legisl ature
p res
 0 9
iv ia
 ank le
 J et
Å 
 inc ap
 w ives
 Le ave
 B urg
per ty
 behavior al
 Stud ent
 eff ic
 hom icide
 separ at
 diplom ats
 schol ar
w age
 blow ing
 Boy s
 thread s
 synt ax
 Ø §
 bre eding
 We instein
 vend or
 hur ricane
 flav ors
h ouses
 v apor
 bund le
 show c
 En forcement
 W ITH
 tradem ark
Ù 
he y
 ab ortions
D O
EL L
 Glas gow
 L ithuan
d est
 Se b
H ome
ad ays
ourn als
 int ensive
it ially
 treat s
 pay load
 hand c
 N RA
 ca f
 app le
 quarterback s
 remote ly
 Arch itect
 affili ated
 Ind igenous
Ñ Ð¾
 App arently
al one
 ur anium
 pl asma
 S ale
 o ceans
d imensional
ar ah
l us
 â [
He alth
io let
 access ed
 K urt
 promot ions
 dist ribute
 z oom
osp here
 Ok ay
 shel ters
 sc i
 apolog ized
 Cons umer
 demonst rators
 sl ammed
 Trans port
C urrently
 Al pha
 zomb ie
 faith ful
 Confeder ate
 b ang
 injust ice
 fortun ate
at ics
ris k
 unsupp orted
ix els
D i
anc ers
 Al ien
 for wards
reg ular
 histor ians
 19 44
 attend ees
 work out
 m g
igg ins
 demonst rating
â 
 Cole man
 cl iff
 Pr adesh
acer b
 T E
f amily
 c ub
 B ak
 Eag le
 R u
 M eg
 enc ounters
H ER
 E t
os c
 S anchez
e ur
S QL
 l ied
 post ers
 trad ers
 alleg es
 lo vers
 Ang ular
 run ners
 emb ark
 un related
 discover ing
 M asters
 decent ral
 clim bed
 bre ed
 Mun ich
 Gil bert
 bl u
ucc i
 conv entions
 rem inis
1 000
 J upiter
 tri vial
M I
ion age
 fl ies
 B ody
 le ver
oc used
 We ap
 c ows
 d ude
 contribut ors
 gl oves
 input s
Int erest
 assert ed
 Circ le
 sufficient ly
 advis or
 finger print
 Com ment
 dig est
 H ousing
in ates
 flo at
ask at
 ecl ipse
 sh adows
st ud
 repos itory
 P ew
 s way
hed ral
 Sp art
 compan ion
 C ele
 ant agon
 tast es
 coord inated
 T rip
 incl ined
 bench mark
 W es
 administ rator
% ),
ch t
 W ag
 Em ir
prising ly
 greet ed
 so ap
 Iv anka
w ait
Hist ory
ad os
 C ob
l ab
M ap
 caut ious
 M ath
 sh aking
 conf ined
 B rist
 K ush
 sl ots
 slow ing
 B ren
 blog ger
 ad ul
 Sch ne
Don nell
 by tes
J ul
 E ye
 ju ven
A ir
col or
 S ikh
 pass words
 imprison ment
 m a
 analy tics
Phot os
 rall ies
 rebell ion
 agg rav
pt ive
 Mer cedes
 nuc le
a uth
 r ans
 he ating
 V ince
 add itions
 consider ations
 father s
 pick up
 g ly
 explan ations
iet h
 Ash ley
S ources
 l ing
 Hop efully
 barg ain
 ignor ant
 exem pl
 airpl ane
 M ak
ar us
 Cath olics
 adv ise
 g ases
 Wh ats
 t ender
 imp osing
 hy ster
 Par ks
 prior it
 air lines
 b ent
 mo ist
ment al
 Adv anced
 conced ed
 brows ers
 Tri ple
 Hy d
atern ity
ch anging
 c ivic
 mar riages
h art
ou x
 l i
 T ab
 r ays
 t ense
 gu ides
ator ies
asc ular
 T win
 Sher man
 North west
 privile ged
 c abin
ur bed
 instrument al
 App eals
 Ever ton
 Steel ers
 contrad ict
 D im
es ville
 down s
ep rint
 Aven gers
 Agricult ure
ud er
Sept ember
S N
ep s
l on
ok ia
 v oy
 cent res
 gl uc
 light ly
 threat ens
 de ar
 rev ision
 h ills
 med itation
 state wide
 Get ting
atter y
 bound ary
 Sum mit
ï¿ £
 Dar win
 frag ile
 blank et
 12 8
 J agu
 Gl en
 pot atoes
 K id
 vibr ant
oo o
 l oot
ph abet
E p
s n
th s
 ex acerb
 g ates
 success es
 Some one
 slow ed
 l ining
 c ables
 med ications
 cat aly
L ove
W ant
 Lat ino
 flo ors
 hur ts
 dest inations
 recip ient
 war riors
 sl am
o ven
 Som alia
 Pict ure
uff le
 W a
 L ot
 o live
p df
 Car r
cl ock
 C AN
 fart her
) *
 Ster ling
 ic ons
 Alz heimer
 cl ues
 fore most
 form ats
 am ended
 g ently
 : =
 vis ibility
 negoti ated
lud es
 upgr aded
ric anes
 reward ed
 author itarian
 L av
 o wed
 p ul
ee le
 The resa
 an nex
un al
 Sch ultz
 to ggle
 parad igm
w ent
ing ham
 deal er
 C rew
 object ions
P eter
 enjoy s
 adop ting
B rian
 contain ers
with out
 explos ives
 Brad ford
 tort ured
 constit utes
com plete
 mar athon
 absor b
 A br
 helicop ters
 K er
 Fl a
 Nich olas
 sen iors
C rit
 Met ropolitan
 ne arest
s ens
 je opard
 R oute
 T ak
p ose
ic ans
 R alph
 curric ulum
 G or
 Blu etooth
 Mem phis
 Â »
 quick er
 self ish
 F ace
 host age
 past or
 en rich
 K end
 back yard
 R iley
 Le aders
 Hold er
 per ipher
 delight ed
 inaug uration
 Hung ary
 con form
** ,
 W elsh
f ood
N E
æ 
 direct ive
 serv ants
 understand able
 back ward
 tra ject
rop he
 Reg ister
 dis gu
 comb inations
â ¬
 Es pecially
 E instein
 mos que
 N early
 un con
 Hend erson
 incomp et
 St alin
 pl ausible
 D ew
Ã¡ s
 an ecd
00 1
 c ared
 Gr ace
 be am
 re nown
 PC s
Ð¾Ð ¼
 C ash
 deleg ation
 P ret
 0 5
 compe lled
 crus hed
cl ub
p aper
 s oup
 V I
 V A
 E L
â ),
el ines
 Veter ans
Feb ruary
AC E
qu in
c ot
ê³  
 D I
r ays
 H i
p i
 d ough
 Un less
 v ivid
 protect s
 B ald
 impro ves
 red irect
b ps
 g rief
 Co in
 acc ent
 bre wing
 quant ities
 proceed ed
 emphas ize
sh adow
f ax
IT E
 advis ory
 util ize
F ile
 insist ing
 imm un
cre ate
 H app
c ounter
 p ap
 Eth iop
respons ible
 accompany ing
ort al
l ings
m ount
 l ith
C ome
 ref und
ã ¾
 access ories
I ran
 R idge
 har ness
 lic ence
 O mar
it ous
 sequ ences
 suppl iers
 An onymous
 obst acle
 mis dem
 obs essed
 m i
 de portation
gg er
he arted
Republic an
 v ag
 adv ent
j pg
 Ð½ Ð°
 Expl orer
 prol ifer
Ñ Ð°
ass an
 cur iosity
 des irable
 ACL U
 O ften
Con clusion
 Brend an
× ×
 D erek
Qu est
p aid
 O culus
 s ore
 Craw ford
 fl own
 sw orn
 gr ades
Ch ild
 ve ctor
 trans mit
 gra pp
 rail way
 brut ality
 Cre ate
met ic
ind ust
í 
hy d
 H onda
add afi
if a
 G N
 Mov ie
c am
 sne ak
oint ed
 St ra
ro v
u ber
h on
 was hed
 M atch
f inal
 c ried
 ball istic
 jud ging
 W alt
 defin itions
ut ic
 plant ed
 que en
 react ed
 st agn
 un real
 concent rate
iot ics
 monit ors
 eval uated
Add itional
 Food s
com mon
 Major ity
 embarrass ed
 flags hip
S ocial
IN T
 storm s
 abund ance
ik o
viol ent
 color ful
s rc
Tex as
 soph omore
re a
 R hodes
it ational
 sing les
 R ails
B rown
 fig uring
 resist ant
 r abb
 highlight ing
ff f
 G eneration
s ix
12 3
 firef ighters
 W izards
 r iots
g one
 unsuccess ful
 K ant
n c
 Aub urn
 prox imity
G C
 Portug uese
p ict
 sh ine
 c ater
I ts
 main land
 prob ation
g rown
 + #
 ste ering
 con gest
 mention ing
 A ston
 wond ers
 B ec
 Sim ply
 h ipp
 F ortunately
 fr acking
 bo asts
 rev is
Ass ad
 contem pl
200 6
 meth ane
b led
 Cr ack
 propri etary
ic z
m ake
 L ed
 Bou levard
 V it
olester ol
E G
ine ment
 bar red
 candid acy
 mot ive
C onst
 pus hes
 196 2
 teach ings
 hyp ot
 pot ato
 lit eral
 subsid y
 cere mon
 prote ins
 R ules
 obs ession
p olitical
 optim ism
 imprison ed
 incons istent
Res earchers
 dr astically
 insure rs
arl ing
 desc riptions
M iss
Ad am
health y
 b ast
 int oler
 X P
" [
ah ar
 B uch
 st akes
 N iet
it ime
 inst ability
 bl aming
 compl iment
 un just
 the sis
 pun ct
 so y
do ors
 retail er
 kn ocking
 ext ensions
 congress man
R ad
 acceler ate
uff s
 fool ish
 def er
 yell ing
 prohib it
 Ow en
 cort ex
S IS
ac iÃ³n
 W ang
 erupt ed
B Y
 Mar in
oy le
ant a
e i
v id
 min es
 cur se
 Dav ies
ic ularly
 R ule
 Bro ck
 Mos ul
 hun ters
 D ani
 ment or
 cr ashes
 sc am
 qu eries
 enthusi astic
C urrent
 A K
Q ue
cast ing
 Pro bably
 enfor ced
 H od
 ( Â£
 band width
 aster oid
 Dra ke
! ).
 num er
Wind ows
 met eor
S w
ì 
 d warf
os ph
 L O
 P ath
 US S
B ob
an ing
U LL
 K os
 C ork
 B ever
 vers es
 Ch arter
 sus cept
T able
 } );
 appl aud
 N ord
Ã ¦
b ucks
 new com
 pip es
 po em
 ven ues
 bo o
 p oured
Th ink
 gr ind
 Scient ists
 ( +
 protocol s
 bot hered
 fur ious
le ys
 m ol
 interf ere
 interven e
 G az
 He brew
 gard ens
 tatt oo
 k ernel
 ins ulin
 protagon ist
en z
N obody
M M
au nder
 var ies
 home work
 accept s
 wh it
 announce ments
 assum es
 un equ
 Spr ings
 vari ants
ns ic
 uniform s
rik es
 govern ors
 o st
 Case y
 Bor is
 E cu
 S gt
 Alf red
or um
 Y uk
ick ers
p ers
iqu id
ress es
C ard
en o
W E
O H
 d ice
 H ence
 ind ul
 fin ed
 mark ing
 l bs
 Sc reen
 st ones
 & &
ã £
 Cl int
 connect s
D isc
 ste alth
 tw ent
 w olf
 Am anda
place ment
 cas ino
 X L
 l ingu
 spr int
 Sat urn
 N aval
 Fal con
 exha usted
 enthusi asts
 nic he
els en
 Merc ury
 dece ased
ocaly pse
ane y
b ird
qu ire
 Hus sein
 incom plete
 time ly
 19 00
 M ini
 fil ters
 compet itions
 pred ators
 applic ants
 recogn izing
} }
Pro ject
rig er
 At hens
 gang s
 S weet
 C aval
 Start ing
Post ed
 outrage ous
 Bar r
 comed ian
 d od
 Cry stal
 H ack
 unst able
 Dub ai
l ide
 Comp et
 cig arette
 symp athetic
 Curt is
ball s
 Te levision
cy cl
 J ays
Th us
 place bo
 Re lease
 advoc ating
 cook ed
 Re x
 red es
John son
 shot gun
ia o
 Win ston
 m igrant
 d airy
 vol atile
 Turn bull
ind a
â ;
P ER
 Bash ar
as is
 E N
m ass
 de er
 G oth
sh ine
 whe at
 st aged
 Christ ina
 p ills
Ã ª
 Jackson ville
om ical
 fin ishes
cont in
 contest ed
D ear
 recruit ment
 Beng al
mid t
 Till erson
 en compass
 perce ive
 c el
 schizophren ia
 Initi ative
 unpredict able
 Ex xon
an ity
us p
 S askat
N O
C ost
 F ans
ren ched
 comb ining
 l amb
 correct ed
 col ours
 appropri ately
ek ing
 phr ases
 sett lers
 Vis ual
 shr ink
 D ust
 dis respect
-- ---
 sub p
 v intage
 overlook ed
N ARA
 Dis covery
in arily
 app ar
 Mana fort
 V as
 St uart
il o
ot er
 hand ing
 partic le
 Go ing
 deb ts
 prop he
 U pper
 P OL
 Kenn y
 bl essed
 got ta
 Ins ider
 pur ported
 d y
A ut
 inher it
 Gene va
 interrupt ed
 Off icial
 Advent ure
 thought ful
 Hy per
 Aut om
ig el
 o ath
P o
c od
' )
Sund ay
F ar
Mc C
S ep
W rit
 fe ather
 Co ver
 dom ains
 Br ight
 paper work
 feed s
 Ad rian
 F ighter
 prosecut ed
 Lib yan
ast ian
 b ounce
 weigh ing
 An alysis
ess ors
 nurs ing
 integr al
 statist ically
ract ion
 L anguage
 infant ry
Jo in
 WATCH ED
 disadvant age
sec ret
10 1
 Ind ependence
 ins ufficient
ac a
ens en
all ah
 pl um
ich i
 L anc
M G
amp ire
 ro pe
 ass ure
 Fr ame
 perform ers
ã 
 Day ton
 confir ming
 pop ulated
AS E
 stretch ing
 surf aced
 iter ation
 trans mitted
 whistle bl
se at
 C ool
M ass
 A RE
Pac ific
 bull shit
 A ur
 Apoll o
or ie
 C ities
 No ah
 T ourn
 mor ally
 special ists
 gen ome
az or
 out field
ll ah
 T roy
 pr ag
 wa ist
 I gn
 rest oration
 reb uilding
 partners hips
is ans
 earthqu akes
step s
 cor rection
asp berry
ela ide
 l od
 un named
 R B
 St anton
 Fried man
hol m
 Pel osi
M ENT
ins pired
 Id aho
ices ter
 health ier
 sing ular
 T ories
 hold er
 El ite
 struct ured
 select ing
 prospect ive
 affect ion
 disappear ance
 r apper
 cycl ists
 H og
 prov oc
 awa iting
k ers
 Le Bron
A ud
ed in
 gorge ous
V S
op hers
 mem e
 App ro
Al ong
 method ology
 critic ize
 disapp ro
Ð ³
road s
 criticism s
 vacc ination
 datab ases
 Jun ior
 accommod ation
18 650
 Roll ing
" ).
 DR M
 tr ump
 K ell
ar in
am ples
h h
b us
ill on
 Sina i
 D ad
 bet ting
 cont ention
 prob able
 after ward
 entire ty
 similar ity
 stret ched
aze era
 Ma o
 program mes
C ent
ft y
 nod ded
 Emer gency
 El sa
 A j
 eleph ant
 P ul
ant ry
 nav ig
 Ferr ari
 a irst
 sh ade
 det on
 cr ush
ã 
 low ered
 l over
 shoot s
 cont ests
 predict ing
 no on
 B olt
 B rett
 never theless
 anal ogy
 Wi Fi
 ar row
 F ocus
 ther mal
 l aund
Ult imately
 W A
 Re b
 inadequ ate
 B ear
 d iameter
D ev
S un
n els
 M C
ph an
! '
 she lf
 t ended
 ey eb
 adm itting
 lower ing
O pp
 bed s
d ogs
 ! =
 gri ev
 inher ited
 forb idden
W elcome
 their s
 sam pling
 an at
ï¼ 
 the rape
 p enn
Oct ober
 concess ions
 an them
 inaccur ate
 Sadd am
Q U
 Tr in
ay an
ub a
 p ave
 ele ven
 season al
 sum s
 comb ines
 v ault
 L iter
 comment ators
 cy l
 bank ers
 hous ed
 d oses
 cru ise
 195 4
 Leg ends
 dis abilities
 W enger
 under water
 W end
mod ern
 Rand y
re ra
ig o
 be ard
 broadc aster
 W AR
am on
 c ripp
 L um
ong yang
P K
 Ging rich
 K il
Th ings
 out line
 National s
 ener get
 He ights
qu arter
 round ed
 introdu ces
 clean er
 ten ants
 promot es
man y
 assault s
 19 48
 strateg ist
 19 42
 crack ed
 coord ination
 hur ting
Î ½
D ate
 toler ate
 under cover
 Burn s
In c
 p ixel
 d ip
ile m
 Beat les
re z
 H az
Mem bers
ann ers
 M ut
ar ious
ID E
 offs pring
 1 11
 Or d
z ym
M T
IC O
 subp oen
S il
 W t
our ning
 vis as
 W rest
qu ote
 Gu ild
se min
ien cies
 N uclear
 H IA
 196 1
 sol ic
 Trans it
 sun light
 par an
 S hip
 bom bers
 l av
 micro sc
 0 6
 K iev
P ass
 For bes
 exem ption
 B in
 stand point
 K ob
d eep
 min erals
 sanct uary
 P engu
Ex per
ach i
re v
 Ch a
 R S
r ab
ad h
A E
b uilt
 F ew
id av
 J ill
 rep s
 / >
 position ing
 gr ams
 cell ular
 concept ion
 orig inated
 arch ives
ale z
 bur gl
 pr inter
 He aven
 th under
 A ce
 I CE
amer a
 Court esy
 skept icism
 v est
 Fr an
 10 9
 n ortheast
AC A
ill es
 trans plant
Sh ould
 C airo
 enter prises
 aston ishing
D an
t i
im ag
 AR M
 he ck
and ise
ograph ics
 met ro
yr us
 sad ly
 row s
 Wild life
 not ifications
 Mill enn
 Fred die
 all ocated
 rep ay
F in
in ters
 pres cribed
 Pere z
ic orn
 d ent
s ch
 Br is
 super f
pe ace
S ix
 min ors
 small est
You ng
 fav ors
 administ ered
 c ites
 en light
 p estic
 cell phone
 occup y
 th rive
 neuro log
 cha otic
 exceed ed
 distract ion
 n il
 r ack
 parad ox
 0 7
 P and
 Chamber lain
 out reach
 syn chron
B ur
 K od
 b isexual
f a
f ill
 a u
 ch olesterol
B B
 B le
work ers
an as
 system ic
 clear ance
 display ing
 D uty
ipp le
 detect ives
 clin ics
 sc aling
 illust rated
 borrow ing
 corner back
Ge orge
 Lim ited
 B row
th ouse
 obs ess
 st ain
Ù 
G L
 wrong doing
 matern al
" ),
 empir ical
 G ross
 che ating
 met er
 project ion
 col ony
 sh oe
 buy er
 influ x
 st yl
Ã© e
 Col lection
ateg ory
Ð¾Ð »
 Richard son
 rob otic
 Ev an
 D iana
 reward ing
fore st
Î ¹
 soul s
 Dar ren
 gall ons
S omething
bro ok
 gl uten
 Walk ing
ere o
ent ry
 F ix
E lect
 D ow
 Cris is
 eleg ant
 Load ing
ow itz
 re per
 K on
 volt age
av in
y ers
 LA B
 C able
 se ize
ex ample
 end ured
 C raft
 f itted
T ext
 log ged
 Dem s
oci ated
 tour s
 School s
 wel coming
 cor related
 H ost
 all ocation
L im
 theat re
 super market
 undert aken
he res
bl ue
 evac uated
 toss ed
 C ert
 def ect
 wip ed
 Kle in
 fre ak
Sand ers
M a
own s
S al
ash a
 am p
D en
 st ip
 b aking
over ty
U ser
 upd ating
 pri ests
 particip ant
 He avy
 sn ake
 recomm ends
 top s
 ded ication
 Com edy
 195 9
 big ot
 C ros
 Spr int
 ch ill
 cert ification
 con ceived
 phenomen a
reg or
 simpl icity
 rest art
PD F
 lun ar
 D iff
 Br igade
d eb
 ware house
 unlaw ful
 un authorized
W C
l it
 past e
Ñ 
 b rib
 M ead
 St ream
 tr ails
 down ward
 Man it
 typ ing
 C amb
 to dd
 recogn izes
 H aven
 Ã ®
 C ensus
 sl ogan
 terr ified
id Å
 Del aware
 distingu ished
 SU V
 Cur ry
 Hann ah
h it
 Sh o
 insect s
right s
 l ur
it an
 J ob
N OT
 Bapt ist
us c
 categ or
P ay
 N y
A round
 rel ates
 milit ia
 / *
 R BI
 sub urb
gu ided
 man ga
 acknowled ges
 cont end
 ru ined
bal ance
 H appy
 Sch umer
us ers
 sp am
 J in
ci pl
 Tro phy
 compat ibility
 indu ced
op ers
w ere
l ived
 compr ised
 St ay
Op ening
 h ug
 S aw
Ñ Ðµ
c ro
 Leaf s
B uild
 corrid or
ik er
 Th rones
ment ia
 smok ers
s um
 hasht ag
in v
 sec recy
et ed
 St eele
atch ing
 R ating
 ver ified
200 1
spe aking
 Ir ving
 appoint ments
 territ orial
 broadcast ing
 LGBT Q
 s idelines
os ion
 C ord
 ext inction
Pro t
 lot tery
ro e
 preval ence
ï¼ ¿
 c otton
ny c
 Nep al
aw ays
int endent
 st ew
 F am
 umbrell a
 Trav is
 R ac
 bron ze
 bureaucr acy
 j ournals
ng th
 C E
N or
S O
 W ake
 right ly
 reg imes
 B rent
 reg ain
 di ets
 train er
 craft ed
 car pet
 diet ary
 Gar rett
un ci
Pr ime
 Full er
 Fre eman
 Cl are
 delic ate
ian i
 Pun j
 A A
 jump s
ech an
 Sach s
 prolong ed
 per secution
 bod ily
 Poke mon
 renown ed
 Ecu ador
 P P
U G
c in
 p ard
 int ric
 Ind y
 intern ally
 hand ler
 cho oses
 arm ies
gg ie
 tw isted
 sh arks
 Conserv ation
 depth s
 illust ration
il ogy
 certific ates
 N J
 n ud
 V PN
 sec urities
 popul ist
s uper
 Tit an
l at
k ov
 traject ory
y re
 aff idav
L P
 rec ons
 belie vers
 Al ways
Â 
 benef ited
With in
 aw aken
 que ue
 195 8
 un rel
 j ar
 Econom ics
ixt y
 rain fall
 bom ber
 B ent
 film maker
st rom
 McK in
e us
 fright ening
ili ation
 Tre vor
 E sc
 ren ov
Rich ard
 Rel igion
role um
M el
int egr
e on
  ã
C BC
t im
E s
ra f
 3 000
 end ure
 own ing
the ning
 char ities
 N ode
 val ley
 sex ism
 ground ed
 alleg ing
 ar che
ish ops
 request ing
 exclus ion
 e tern
,â â
 flood ed
 valid ity
M ORE
 Bas ically
 nomine es
 dis asters
 t enth
amm ad
 acceler ated
 Lind a
isp here
 st ing
c hens
 r ust
in yl
B esides
 e Sports
 Pear l
 nick name
H ard
ed u
verse ly
 maneu ver
d id
 re play
 po orest
 Jud a
 O P
y t
 v ine
 pract ition
 al lev
in atory
 emb ry
Be yond
 mer its
 stret ches
 vulner abilities
 port al
 occur rence
 H ogan
at um
 de ported
g rowing
 fut ures
grad uate
 Test ament
att ed
 prest igious
Dem ocrats
 enroll ment
 st al
 story telling
whe el
 H ood
aunder ing
av i
 c ite
 sp ine
 che ss
 Cent ers
 sm arter
 Wh ole
 ens ures
d uty
 ex otic
 Jul ie
 ty r
 m asks
 Indust rial
ract ed
 Ab du
Ñ Ñ
 Holl and
 conj unction
 S ak
ie ves
 Br ain
 dem ise
C ast
H R
 M az
 was hing
 B orn
 r ider
 sever ity
 cr ashing
 travel ers
 t sp
 W and
 John s
ruct ed
 out law
 anticip ate
 puzz les
 Matthew s
ri um
 brew eries
 P HP
 at om
UT C
he ed
W al
re ci
 s ack
 mil estone
Er ror
 F ern
 Celt ics
 Whe eler
 Abd ul
c reat
k ara
 plaint iffs
m und
 appet ite
O per
å ®
 M Y
 H ook
 tw ins
 rad ically
 off ences
 fair ness
 imp air
 prem ises
ave z
 under going
 I van
rim ination
 pool s
B erry
 H ugh
 nar rat
 18 650
 cry st
ir ation
 Fl oyd
 Nov a
 Hon or
L ou
 SN P
 Gen esis
 stere otypes
 pl at
 D ale
 cast le
 ch ambers
 Nut shack
ownt own
t ake
å 
 " [
P age
 gener ator
eng ine
 mar ched
 success ion
 M aid
 host ility
ins ky
 sens es
 C lear
 inst itute
 An cient
 command ers
 char itable
vert ising
 17 0
 ingred ient
 absor bed
yn asty
 U T
 max imize
 f ist
 IS Ps
f air
sh ould
3 50
 short s
 R ut
 d uck
 McC l
M C
OL L
d oc
R P
L ead
 Al ger
 research ing
 D anger
 Ang els
 det rim
 liber ation
 se as
 compl ications
 l aughter
que z
 unus ually
 photograp hers
 Roberts on
 D oc
 program mers
 relie ved
 voc als
 l ou
 con qu
 mole cular
IS A
 N ort
 un seen
 f al
 ter ribly
v ity
 feas ible
 Roc hester
 unf amiliar
h aw
 G A
AS S
N ove
ade on
 B ened
 con ve
 Che ney
 acqu iring
 a kin
b ard
 she lls
Any way
 illness es
 ar senal
 distract ed
 var ieties
 N SW
l ance
m ails
Con nor
 lung s
 r im
ï¼ 
 Ab original
 geomet ry
iol a
 V irtual
Bit coin
 G ri
 Observ atory
 ambul ance
 F ell
i pper
ri ad
 K ub
 Py ongyang
L ocal
EN S
 rest ruct
J ason
 no ble
 M aps
 discuss es
 d ull
 W att
 ball oon
 email ed
 critic izing
 like wise
 C AP
 Pat rol
 Arab s
 uns ure
al iation
 Haw ks
 He arts
 A zer
 Par ad
 w anna
 j azz
 micro bi
 sh aping
 Me yer
 exc lude
 torn ado
vas ive
IS I
 B ert
 P ain
! â
F orm
 beaut ifully
 K umar
U RE
OR N
 Qu ant
 in ning
 med als
 war mer
 good ness
ad ata
 inf ants
 l aps
 gun man
 off ender
 Med al
Ch ief
 le mon
 rep airs
 Mon ica
 Sw ord
 download s
 gr an
 t apped
 hun ter
 St am
 hard ship
 embr acing
 narrow ly
 b end
f alls
200 5
 terr ific
 util ized
 10 5
ds i
 hard core
 analy zing
 WH O
 alarm ing
 Ve gan
lean ing
 Pl ant
 bol ster
uter te
 pour ing
 disg usting
Sec ret
.. ...
dis play
 Frank en
 P le
w s
let te
In s
o ids
a ude
 rest ing
 d iving
ris y
 doub les
 regul ator
 w itch
 fuel ed
w arts
De cember
it ating
 B TC
def ense
 Elect ronic
 M end
 paint ings
 extrem ism
 Cy cling
 Mir ror
 st all
 rig orous
 court room
 cap ac
 who lly
 seiz ure
 W u
 inflamm ation
 comp uls
 Git Hub
che m
 pund its
 C it
c ano
and ro
 ide als
ott est
 access ing
c led
 suff ers
 Rich ards
 F resh
 ill icit
 In spect
 core s
 ded uct
 P os
 elim ination
 c raz
 prompt ly
 IP v
 l end
 Mor rison
 Stand ing
18 0
m ove
Fr iday
 den ounced
 philos opher
 Mid west
 Hay es
 sol itary
iet al
 M ix
 rec laim
 horm ones
 b ore
 Progress ive
 thr ust
St op
 st ellar
 deter mines
 Gab riel
 ââ â
 stab bed
 relent less
 Murd och
R od
 Eug ene
ar ray
conf ig
he id
OR D
c ur
 He ath
 em ission
 h over
  Ã©
 Sm ash
 enjoy able
 a ven
vel ength
 commer ce
ile aks
den ly
 NY PD
 pit chers
 conver ting
C redit
 therap ist
 Bas ic
 was t
 Victor ian
 comp ilation
ant om
Cont act
99 9
 th or
 insurg ents
 brows ing
 t ubes
 gau ge
 c ant
 H ernandez
J osh
ourge ois
s al
En ter
os l
 Sh ane
b b
f ff
so ver
im ages
 gl ue
 4 50
 la wn
 co vert
 exc av
 Des ert
 Sim ilar
 Every body
 obser ving
L ine
 Us ers
 ton nes
 intention al
part isan
 unw anted
Rec ently
 grant ing
C ode
fund ing
omed ay
 fert ility
P ark
 Rest aur
 align ment
 cle arer
 wholes ale
 Coff ee
ol ation
 The ater
 B oss
 ex ert
se ys
F inal
 story line
 deb ated
 er ad
 tr action
 G iant
fl ight
 B eth
 A FC
 195 7
 length s
 Fil ip
 cont enders
 pal ace
 st ems
 G E
 tempor al
av ior
c ourse
 b ilateral
 L ay
 fest ivals
 U g
r ina
p arent
 home owners
l aughs
 prejud ice
at ivity
port ing
IG N
 M ik
 N am
 w ary
 b ount
 che ek
 2 20
 national s
 Gu ant
sec ure
 specific s
 Will ie
 Qu arter
ett es
 cross es
 M iles
 grad uation
 pe cul
 der iv
 withd rawn
 tele com
 laugh s
 C rypt
 Scient ific
L og
 imp art
 inaug ural
 Pir ate
 L ac
 lone ly
ut ral
ern on
 unch anged
 Wol ver
 Abb as
 spat ial
 catal og
 t outed
 warr ants
M ur
 mir rors
w en
N ick
 Brist ol
 K o
 t ant
o T
 d ilem
B D
AN S
 York er
J ones
 off ended
 Rep orts
 mot ives
 L AD
 mer ger
 ì 
 repl icate
 r anged
Ð» Ð°
 extract ed
 radio active
 E ld
S erv
 10 4
 un cover
ish ment
 GT X
 Pre vious
 kidn apped
 H uck
 dil ig
 Laure n
 N ak
 j ungle
 F REE
 super b
V ol
V C
 ub iqu
 Tas man
I K
am el
l ia
 M ig
D am
 L P
L ee
t imes
 cr ank
year s
 inv iting
 bl ows
man ned
 he ights
bor o
 star red
 Spe aking
 rad ius
 Us ually
 perspect ives
 Techn ologies
v ideo
, ,
 deleg ate
aun ting
gg y
 ON E
Ã± o
 symp ath
 watch dog
 Hans en
 St rike
 Rap ids
 horm one
% ).
atin um
 Har bor
iz a
 ex h
 fo am
7 50
 test osterone
an ol
 Kash mir
ur ai
 C W
c d
 ha w
 b ourgeois
 le aking
 happ ier
 sk ies
 compet ent
 agree ing
 s ights
Al most
 Ð °
 dig its
 visit or
 La unch
H uman
 notice able
Ð ±
 sn apped
 S kin
 innov ations
 rent s
 franch ises
200 4
 ident ifies
 re jo
Add itionally
 Ult imately
 per ceptions
 P ist
com merce
 Nap ole
 Lear ning
 FR OM
 Jen kins
 Nove ll
l ate
 Qur an
 metaph or
 infring ement
 rele vance
 Ø§ Ù
 Hel en
er k
AN G
 t ally
C reat
 K oh
 edit ions
 pl ots
S aturday
 defe ating
t ours
,' "
 s ang
Ob ject
 Econom y
 femin ists
 sal ad
 dub ious
 different ial
umin um
 bit ch
c ritical
 B og
 Partners hip
 ab normal
 rec urring
H op
d oes
be cca
 Pan el
OS S
 M is
 M T
 S ah
ject ed
 ref riger
is y
 W ine
m ult
 program mer
 process ors
 d ots
red ited
 n urt
 B rief
 ref resh
 attract ing
 00 000
 negoti ation
 w ipe
More over
 bal ancing
 TH AT
 sw ear
 Ep ic
 shut tle
 Ev angel
 Ins urance
sh irts
 back drop
 Mor oc
t ier
ang led
Brit ish
 C el
F ri
ob ic
 incon ven
Cong ress
 J ur
 ch uck
 Spe cifically
EN D
 reminis cent
I Z
 Star bucks
o qu
 tun nels
ur st
 e man
 end uring
 l akes
 acc use
 alleg ation
 prop osing
 lo oph
 mod ification
 comp ares
ir rel
 freedom s
 advoc ated
 surround ings
 refere e
 spec ulate
 h alls
 Jul ia
 S end
UR L
  Ñ
 devast ated
 inter ceptions
 up held
 there after
14 7
d ue
 T ucker
enc ia
 Sim mons
 Zh ang
 exped ition
 preval ent
 t et
c ry
 coun cill
y outube
Ã¶ r
 O g
ie u
ush i
 N okia
ang a
 R O
ent ric
she et
K S
s ided
ight y
S at
is se
 F ine
 cl oth
M ex
 C rist
 Mar ie
 P resent
 turn over
 ind oor
 path way
 Mar riage
 w inger
 G olf
ici aries
 transl ates
 tweet ing
 v andal
 P v
 Tw enty
 extract ion
 Jo in
 Ult imate
ung ie
 We ight
 Ret urn
 B oulder
larg est
 anten na
 lif elong
 L C
 o m
 unbeliev able
 lith ium
in ational
 de mentia
AT H
Nove mber
 S ame
 rem n
 govern ed
 not ices
 inform al
 Ad ded
 J eb
 pret ending
J ournal
 My ers
oss ibly
 pen is
arr ison
 celebr ations
 restrict ion
 ge op
Get ting
 Church ill
 poss essions
 cap ita
 explo its
 proud ly
 Or t
â 
 IM R
dri ving
 c av
 z oning
 rese mble
16 8
f ired
 o mn
id able
 contam ination
 contam inated
 Tim othy
 pup ils
i ago
 K i
 sc andals
 F F
 p ac
 G H
 re he
 k its
 p ets
 perform s
 tr aces
 dest ined
il ight
 @ @
 doub ling
 Bay ern
 195 2
 depend ency
 m ansion
Up on
im ental
ric ks
 g aze
 10 3
 Kurd istan
 Sp icer
 g ad
 S HA
 disagree ment
pl aces
 surviv or
 Orig inal
ê ¸
 pir acy
st ill
IC S
 memo ir
 cl usters
commun ications
 contro llers
 super visor
 Treat y
 G rowth
10 4
 Athlet ic
 coc onut
ot ers
 Sc ore
view s
 D iet
 syn c
 un ite
 sp ouse
 met als
 A be
 sl ap
ã 
 S pl
 spe cially
 capt ures
 detail ing
 19 49
 gar lic
c ulture
Yes terday
 dest abil
 embarrass ment
 Through out
 crus hing
 un armed
En large
 athe ist
 insert ed
count ry
 Reg ardless
f act
 Prof essional
 sp arse
central park
our ing
aj a
m or
 Tourn ament
 therape utic
G H
el in
centralpark nyc
 ref ined
 } ;
 ver ification
 unique ly
 indic ators
 shut ting
 d well
 f ost
 lo oming
 hall uc
 Kn ights
 Championship s
 shr inking
mo il
 Core y
 collabor ative
14 0
 swit ches
 Budd hist
 H ag
 jud gments
 p ier
) -
yl on
w ild
 Pen insula
 a rose
 referen ced
 Sol omon
 b un
 hypot hetical
 Le icester
 Bris bane
f ight
 A gg
o an
D L
 V ision
 un ified
C raft
ã 
 parent al
 sal mon
19 90
 negative ly
 po inter
 Olymp us
Am azon
 architect ural
sequ ently
 coord inate
 IP CC
 north west
 rival ry
 illust rates
 exch anged
achel or
vention al
Pre vious
 Jud iciary
d ies
 Pro duction
Through out
st atic
 goal keeper
 P ub
 astronaut s
 per imeter
 maj ors
sh ort
nd ra
h m
iv ism
f ocused
im an
 ret aliation
act ed
20 1
 to e
 so ber
 L ance
 tax ation
 po pped
 activ ate
 employ s
 sell er
 tour ing
 b ounds
 T iger
 south west
 neighb ours
 st acked
 championship s
pat rick
 co h
rec ord
 R d
 bad ge
 F ate
 mat rix
 I Q
 commun icating
 G ul
 over c
 Ve h
i otic
 c um
 rig id
bl ood
H en
ra its
 D re
 Re in
 I L
st ract
O O
 V el
Ñ 
  ion
R are
 ex ile
 H oney
 sex ist
 part ition
 Not re
 Br itt
 st airs
 Val ue
 truth s
 brand ing
 false ly
 Sh awn
 alt itude
 stim ulation
 Invest igation
 dial og
 screens hot
 gl orious
 char m
 br acket
net ic
 Lear n
 suprem acy
 rod e
ed ience
 squee ze
Wr itten
 F u
M ult
 l ag
lic t
em ade
 Ber g
 W id
at ism
pl ates
em p
 merch andise
 Juda ism
È 
 R ise
ort ium
 take over
 dom ination
 conf isc
 prim itive
 surpr ises
L ondon
 speed ing
 score r
 in ad
 bi ography
 micro phone
 Bur ke
 ens l
 H orse
 can cers
 L ogan
 mark er
 we ed
 Niger ian
 Ge or
M ont
b ee
rah im
h ma
 MD MA
 mult ip
ol iberal
 unanim ously
t arget
am ount
 adoles c
 super st
s il
 Jos Ã©
ã »
ee red
 Com ing
 pro se
 l ament
 rel iance
 A part
 hack er
 sad ness
H arry
 debut ed
 je ans
 prosec ute
 borrow ed
 sl og
 Ext ra
ish i
ex cept
 Gr ass
 T we
 resemb les
P ublished
 S ou
 vers atile
 Kit chen
 H ulu
 indirect ly
ir ling
j et
 Link edIn
" "
 Bh utan
b id
 Jagu ars
 T ah
f an
B T
ven ant
 wa velength
 G C
em er
 fl ame
j ury
 sh iny
 Col bert
 log istics
 ext rad
Go ing
 spir al
 architect s
 acknowled ging
 H alo
 imper ative
 plug ins
Rec ord
f uel
 recru its
 law maker
 ramp ant
 lobby ists
Bel ow
 R ugby
 Comb at
Im agine
Pal est
 H off
 mamm als
 Fly ers
 bless ing
 P am
 diagn ostic
 C ertainly
 sur g
squ are
ond o
 W it
 chick ens
e pt
 ple as
 Mons anto
 judge ment
 my riad
 benef iciaries
c ould
 need le
 soc io
 Ind ividual
 lab s
ã 
 co erc
 Mon te
 vac ant
 guess ing
 cook ie
 cl an
 milit ias
 tack ling
 V ader
 Space X
 Pl aza
 correspond ence
 psych ologist
ters on
 Com plete
fol k
 F ixed
 intr ins
h awks
 f ren
pr im
 sand wich
An n
 ric hest
 v om
oc hem
 N olan
 b og
 Sing le
 pri zes
load ed
urt le
af ia
g em
Mart in
ans en
F oot
 din osaurs
 W T
 misdem eanor
 M oy
A BC
ã ­
 Abdu llah
AT S
n ings
 all ied
 gl oss
 author ization
/ -
 stat istic
 object ion
 Ð ¼
 content ious
 P ip
 aut op
 cr ises
 be aches
 alleg iance
Ar ray
 obser ver
 AP Is
 brand ed
 Cor nell
 decre ases
hen ko
 11 5
 frag ments
 yell ed
 p oker
 Product ions
 sc oop
ign ment
R ay
 dec ay
R on
 Map le
asket ball
 L ag
 T umblr
Europe an
 ver b
 out raged
spons ored
 rans om
 Dani els
 T ac
aid a
 âââ â
c ross
 Kr ish
V ict
 St ef
 h ollow
 ret ention
 1 19
ustom ed
ã 
ã ¯
 rev ival
 Man uel
 coll ar
 imp ly
 select ive
 mer ge
,â â
Other s
 unp aid
red dit
 co herent
 smooth ly
 march ing
 na ive
 bur ial
  ï½
 forecast s
 fundra iser
 side walk
N early
 eval uating
aff ected
 expend iture
Supp ort
ett i
F ore
 D iaz
 gluc ose
 H assan
 antib iotics
IS S
k k
 J azeera
 energet ic
im en
 su ing
E ver
 Re ich
 C ards
 vis ually
 mess y
 ref rain
 F uk
he avy
 b unk
 sle pt
 B irth
 bomb ings
 p and
I ron
 Leg acy
 19 46
 cr acks
 advert ised
 van illa
 tra it
 fore front
ff iti
 Y oga
 res h
keep ers
 do omed
 gest ures
 sh attered
US E
P ot
s cient
Ð½ Ð¸
 meaning less
stan bul
 s om
H as
AM A
 jewel ry
 Bren nan
 Ad elaide
 en zym
 Manit oba
ent e
aw i
 fact o
20 18
 e cc
 B ark
ab ee
rent ice
 D ana
 Su ccess
 ep it
 anim ations
it ives
 P owers
 reject ing
 pen al
 discover ies
 susp end
 re print
 reprodu ction
 Andre a
R edd
 cooper ative
 Ar row
b ai
 Liber tarian
 char ism
A cc
 nic otine
 But ter
 cr ust
Bet ween
 anom al
 sc out
p sy
b ach
 disreg ard
tt a
l ocation
ott i
 livest ock
ill ions
 juven ile
 appar atus
rom a
 J e
 v inyl
 Ch i
 t am
 r uth
 imp ending
 sp ider
 cop ied
 contract ed
 Ð ±
 week ends
 concept ual
ut ory
 Sol utions
 N OW
 R SS
 South west
 diplom acy
 Card inal
 privile ges
 affili ation
 C ad
 blast ed
 free zing
 War rior
br ing
est inal
 Exper ience
 mit igate
L ive
 bell y
 w izard
 merch ants
Top ics
 p ulse
 abund ant
 Com plex
 Res ults
 Fel ix
 P ool
) ?
land er
dem and
 blu eprint
h all
 L az
 R aspberry
 R adeon
ak is
be y
T Y
w ife
 S ense
 Fl int
ring ton
 Z oo
 opp oses
 circ ulated
 Sur face
 c ros
 Sky pe
Th ird
 sustain ability
 Che v
 land sc
 circ ulating
 â 
 dump ed
 cyber security
 commod ities
 JS ON
__ ___
 oun ce
 Fl ickr
 e Bay
 H ob
Scient ists
 culp rit
 ir rational
t ar
I AL
hel p
 M our
 Gonz alez
old own
 hypoc risy
iv able
 N an
 tur moil
 f ade
 bu ys
 cost ing
 oper a
 Ge off
 Cl ara
 rock y
 le ar
 Rep orter
 rem ed
 t ipping
secut ors
sex ual
 height ened
sm all
 b acon
 18 00
 Prov ince
ans ing
 GO OD
Further more
c rypt
 sc outing
id is
 ash amed
 Fif th
Jan uary
 Chand ler
 bit coins
10 5
R om
J ew
rain e
e ast
 rog ue
 refres hing
i ov
 Sch midt
 A W
c ule
 O L
IC H
H am
 form idable
or r
op ed
 p ine
 loc ks
 ph ases
 P rest
 sound ing
 tr aced
 ar ises
 work load
 stuff ed
tr ue
 clean ed
 10 80
 predict s
 f usion
 Bre aking
Ã ¯
 vir uses
 craft ing
 Ann ual
 veget able
 Saf e
 hom eland
 ec ological
 uns afe
 dimin ished
 kidn apping
 desp air
 reinfor ced
m ith
10 2
 cur s
com b
 Cr us
 Sat an
 NAS CAR
 rehab ilitation
 Sy n
 Z en
r ice
. --
in ion
ã ©
ã ª
 mult inational
 crypt o
 sl ate
 R uth
 gr ains
be fore
 staff er
 195 6
Sp a
avor able
 listen ers
 bl asp
 ch im
G ener
 rational e
 B ie
 mort g
z ip
 constitu ency
 R w
 M ist
 Beng als
Reg ardless
 pro claimed
 Viol ence
 IS O
 reb oot
I ll
 B ath
P an
art en
pict ured
ump ed
p ent
Â Â
oc y
OC K
edd y
 u int
 develop s
 T rent
 Su nder
ã 
 } ,
P ict
 Aust rian
 H ours
 Mem ory
 dat as
 Re ce
pl er
che wan
 poss essed
 k in
 D LC
 Invest ment
 Ref uge
 Ex cept
lin er
 ad vertisements
 N ear
12 8
 P ars
 N ortheast
 creep y
 th riving
 Emb assy
 T ier
 Cl ippers
w ire
 cal culation
ud s
 m ant
 E S
 N R
os er
 S V
ON G
p al
am bo
 D ee
 mod ular
ched el
 V ote
 goal ie
 sett ling
 Se oul
 frequ encies
 N FC
 rem edy
 ur gency
 ì 
 accident al
ident ally
 dismiss al
 p ensions
 Le vin
 Charl ott
 medic ines
 heavy weight
 reprodu ce
Me et
 cost umes
 accomplish ments
if ted
 indu ce
 S leep
 accum ulated
 Res istance
l ier
b ial
 T ay
 Qual ity
 G ru
att led
 artif acts
 depict ing
ff ield
 Kush ner
 suscept ible
 un ins
 R ig
Ðµ Ñ
od s
 p act
 g ays
stand ard
 oper atives
 Post ed
.â )
 ge ography
 film makers
ì §
200 3
 rent ed
 Ad obe
 Kenn eth
 super star
 magn ific
 ethnic ity
 gl ow
 L SD
 P ierce
he e
ster dam
 volunt arily
sh are
 s oda
 F act
 ch amp
 retrie ve
10 3
c ock
 Sc out
m ag
 De V
ex per
ans on
 r app
 autom otive
 l id
h un
he ard
 H ab
 th igh
D ue
 country side
 campaign ed
w ave
 20 30
 Â 
 up wards
 fr amed
 deep est
 d ental
 decl ines
 Not es
 S oph
 In come
F rench
 aw ake
 ver te
 fore see
 react ors
 Rock y
 Under ground
 ( (
 suppl ier
K evin
 conf essed
 stere o
 Be a
 Dev il
em ption
dig it
 gr abbing
st ru
 M ol
 h orn
ocaly ptic
AT A
 ch orus
ic idal
read ing
f ounded
br and
 atroc ities
 p ixels
uk a
um bs
b ag
 affidav it
 Ch avez
 narrat ives
C am
 ox id
 Aud i
 cl ay
 U nd
get own
 commun al
 mar vel
 head set
 4 40
 engine ered
 M oses
 worth while
 dom est
 hop eless
 transform ing
 withd rew
 Dev ils
 iron ic
 compens ate
 J azz
pl aced
 back pack
 Ch ocolate
 Ad mir
 exp on
ess a
 pedest rian
 Y ORK
v on
f u
 Â ·
 dict ator
 mach inery
 undis closed
 P it
 miser able
 ir responsible
N F
11 5
rel igious
z h
 C ous
ra red
 a we
 br ink
 Pl atform
 sell ers
 mechan ic
 spl itting
 planet ary
 trig gers
 remark ed
 18 57
A ction
 Mot ion
pir acy
 myth ology
 ren amed
Ø ±
ì 
P rior
 Web b
r aining
f aced
AN CE
 retro spect
t alk
S earch
 subsid iary
 interrog ation
sc ill
 F ul
ex pl
 reiter ated
c ig
S arah
ed a
vid ia
 streng thening
H i
AP P
 h ottest
ant ine
 Le o
it em
 G ir
ish a
 S tern
 m und
 real ization
 front ier
 E ST
Ch inese
 rep ression
 Rec ently
 aut umn
 spec ulated
 schedul ing
 K obe
 discipl inary
 00 00000
 Custom s
int o
 prol ific
g io
Islam ic
 Su z
 dism ant
 astron omers
es ar
 inter mediate
 acclaim ed
ag ne
 Dis p
 philos ophers
d in
 D ash
R Y
ak o
y ll
ve red
S k
E ric
E st
R o
 C oc
 sh red
 N ice
 dis like
 track er
 hon ors
 Th an
 path ways
 station ed
 hero ic
 19 47
f ashion
 Any thing
 burn s
 p uls
 colon ies
 Bel fast
 reb ound
 gif ted
 Person al
ym ph
ist ical
 Dougl ass
 C ir
 Pir ates
c ity
 Sim ple
ot le
 Sold ier
omet ric
ION S
 submar ine
 H igher
 a isle
 sod ium
M essage
 Bl izzard
ON D
art z
 catast rophe
C apt
 met adata
it us
 Ar s
d rive
oot er
ac s
 I stanbul
 O t
en i
ag i
L ess
 T aking
 last s
 s ins
 ann ot
 pos ing
 inc idence
F ederal
 s arc
 A val
 comment ator
 wh ip
 emer ges
 re imb
 assess ments
 o lig
bour g
l ied
 explos ions
 sm oked
L ocation
 rum ored
 disag reed
 bro ker
m ode
W il
 Market ing
 Philipp ine
 conce al
ul ators
z ai
 toug hest
 st umbled
 sho ppers
 Res earchers
ï¼ 
 Kas ich
IN S
Calif ornia
 overth row
 out spoken
 gr ammar
Cre ate
D ig
av an
C arl
 Mc D
NAS A
im o
 resp ir
 g el
og o
 m aid
 â 
 M ong
 St age
J ose
 b ree
 h ates
oun ge
R ather
akes pe
 fil ib
M ajor
 design ation
 oper ative
F uture
 to mb
 inter val
 c ough
 ur ine
 model ing
duct ed
 organiz er
 pun ched
 unc ont
 Re ader
ern ick
 Sch war
B usiness
 H arden
 diplom at
 j oked
LA Y
 t apes
 elig ibility
 accus ation
rav ity
 E rik
at ical
a unch
 s outheast
 P ale
 K abul
 w it
ad an
 Zimmer man
av ia
ê° 
th y
 [ ]
 Charl eston
t ab
 E gg
i ating
f ed
Redd it
 pe an
 B ass
 am ass
 br ace
 car ved
 m ourn
 Z omb
 st unt
 exc uses
 ( );
 Val ve
 telev ised
 com r
 Leg ion
 ind icted
b ia
 Moh amed
elect ed
 Mah m
 prepar ations
 b ishop
uther ford
enh agen
 att achment
ast ics
person al
Ar ch
 Quest ion
Ñ Ð¸
c irc
 Caval iers
er ie
 predec essors
ump ing
ell i
ad in
W in
c z
 g y
ã «
 An kara
 Sy l
v s
ul ed
f s
 G ust
ri ents
 Re ality
 viol ates
 exist ential
 stri ve
 di ary
isc her
lu ence
 f ills
 ur ges
 protest ed
 19 39
os oph
ody nam
 ske let
 Can ucks
 Mount ains
 aver ages
 A ad
 th y
lant ic
 M utiny
 divor ced
 ro oft
OU T
 Wy oming
 Os borne
 Sh ot
 Les lie
 fant as
 commem or
 C atherine
be h
 conting ent
 D ot
EL D
 Buzz Feed
EC D
vis ors
 aggrav ated
 Trin idad
g ang
av our
 s ized
 A verage
St ream
 prop oses
 S ara
 dr astic
 print s
 system atically
 Like wise
 break out
 schedul es
Le ague
 optim ized
Res p
 A CA
an mar
Ne ither
 prem ie
 spons orship
 lean ing
 H ut
 bub bles
 advert isers
 Altern ative
 perfect ion
 pres ervation
 res olutions
 infer ior
entin el
 esp ionage
 Schne ider
 h ay
 is t
 un in
 Moh ammad
 hes it
IN D
F K
 al ley
 Cong o
oss ip
 ind o
 n avy
 cond om
 H our
b org
 per il
se ller
 Av iation
 grab s
 prohib its
 ge ographic
 M ate
 \ (
 S onic
Ø ³
Cons ider
 mon arch
 persu aded
rac use
com fort
 CD C
 rum or
 G ut
 tum or
 Coun sel
IC A
op al
 conf ess
P rodu
 T ickets
 Mel issa
 ad am
 D OM
 Dw ight
 H arm
 stap le
he ne
G ov
 ir regular
K en
 imag in
ut on
as io
 .... ..
 acc ustomed
 o ct
 exp ired
 M ental
g eneral
 st air
 ret iring
Un iversity
Le vel
 council s
 counsel ing
 T ap
 elect rons
 W ILL
 L anka
 sh am
 gar nered
air d
ld a
Ð½ Ð¾
 g ospel
 tra umatic
 ex terior
ì 
 F T
 inqu iries
f it
 conf inement
B P
 m ourning
 F S
 Ult ra
is ch
ro st
 Charlott esville
 Sy racuse
C ould
 P ine
 fun c
 s ung
 st oring
 Re venue
 pol ite
 tend encies
 bu cks
 a ka
 F AA
 D ucks
 bright ness
 new born
 Vol ume
 mod ifications
te enth
ir teen
auc as
Ne ill
 Jenn ings
all ic
 W izard
 patri ot
 id ol
 f og
or ously
 Armen ian
 B om
at ri
 Comp anies
 O T
 Wag ner
 G addafi
f re
 D uterte
 L em
 N ate
any on
 T aj
 Ph ase
 sk ate
 f ox
 h ats
 cho pped
Â 
 learn s
 success ive
 mon key
 z oo
 download ing
 Nor a
 sur rog
 flo ated
 Plan ning
 C inem
 Sch a
 v ou
if ax
 hint ed
 Ast ron
 psychiat rist
ple asant
 interf aces
D aily
 Ch oice
 E quality
 cont ributes
 adequ ately
 can vas
 ineff ective
 unders c
g ard
cl air
 Minor ity
estab lish
 se gregation
 cyn ical
 telesc ope
im g
 May weather
te chn
ro z
 good bye
 B un
 Stephan ie
 Ed en
 x en
c aps
 B A
r Ã©
 K ra
A ri
ã³ ã
 stat utory
im i
ew ater
 even ly
 K iss
 W ave
 down side
 b ids
 c ove
 Syri ans
 pack et
b order
M rs
 und o
 ha iled
icip ants
 R udd
 sim ulations
 sit uated
 can on
 conc erts
 super vision
 inject ed
 Pop ular
 Friend ly
 weigh s
 reserv ations
 accum ulation
 Lam ar
per ing
 Beh ind
p arents
Author ities
P op
R ock
 d ock
 K T
 Dec l
 sw all
educ ated
 Jo an
-- -----
U r
 P E
 Bened ict
 al uminum
in as
K ING
 She ffield
 run way
 just ices
 pol ished
 equ als
 short ages
ev ents
W ow
b ands
 R ift
 sl iding
 fin anced
 O dd
Read er
 clean up
 Const ruction
 Out side
is ure
 simpl est
 anticip ation
 myth s
 her b
 mad ness
inc lude
List en
 P ixel
 T ank
 st igma
 overt urned
 L ex
 El m
ang ling
 oun ces
 descend ants
 spont aneous
 incap able
 F it
 congest ion
 F en
 fore nsic
re ne
B at
  å
 T i
 Th reat
 bl ues
it ures
 to re
B ern
 S ize
ã  
On line
 My ster
 pen cil
amb led
 Man ufact
S ection
 harm ony
 Step hens
 m ans
Every body
 Any way
 forg ive
 Ill ust
 Fort une
 photograp hed
 g room
old em
 Eth ics
 note book
 cler k
st atus
 s rc
 y a
od ore
ket ch
 athe ists
 sy rup
 zomb ies
 Bar on
 pres erving
et ics
 sub missions
 exagger ated
act ivity
 Per l
F ast
b ons
 notor iously
 e ch
 My th
enn on
 D owntown
 Napole on
G I
or p
bo at
ov ak
akespe are
ical s
ors i
 tr aps
 for ged
S ky
 John ston
 R anch
 on board
 Ev ents
 interact ing
 Book er
 thr one
 D uc
sh aw
 he x
 termin ation
 Dam age
 dr ums
 pod ium
 Oper a
 m arsh
 hook ed
 25 6
 out dated
 profound ly
lu x
 Luck ily
 cher ry
 mis represent
 respect ful
 Off icers
bel ief
 S ke
 physic ist
 R ifle
sc enes
 effic acy
 Whats App
 str at
 M M
g ie
O A
U k
ot he
 Geor getown
or f
ra ve
iss an
 government al
 H erman
 char ming
 hit ter
 ep ile
 l iable
 s add
 firm ware
 Rec ent
 install ment
W ait
g mail
 de ception
 heav ier
 M TV
D eb
 renew al
 9 78
sole te
 innoc ence
 milit ar
 Orig inally
 inspect or
 Non etheless
 M ega
 cruel ty
 Pro du
 weaken ed
 Celt ic
 Pro blem
 D ocker
 G em
 indef initely
 St ur
y et
mans hip
 sab ot
 Sett ings
 dictators hip
R ev
 Emir ates
} ,
ays on
' :
 McG regor
 N W
 Black Berry
C y
 pecul iar
P ORT
un ion
 ne oliberal
E U
V an
 inc ub
M aking
ord ered
rat om
 b arn
 R ising
 desc ended
 shoot ers
 r ude
 Per fect
 L ux
h ops
 L ords
 comfort ably
spe cial
gl obal
b uster
Ã 
 Reg ulations
 AN Y
 Rel ated
 Andrew s
 imp uls
 Fil ms
 Wat ers
 pal m
 C ultural
R ound
 L af
 scan ning
 per former
 incorrect ly
 sal v
v ine
l iter
iv o
De ath
 Tr ain
 res umed
 [ â¦]
F un
mean ing
iv ist
 plum met
 t ub
gr and
or ian
 Saskat chewan
ar ak
 R an
 air ing
pro gress
 Congress man
 ess ays
 Bl ocked
 G ET
f alse
 resist ed
 univers ally
j ournal
 den om
ba um
 fort unes
 Cre ated
oj i
Step hen
 superior ity
 pe as
Gl obal
 Con nor
d ark
ran ch
 Peters burg
 su icides
 E manuel
 P RE
 undermin ing
Ex pl
 m as
 Salv ador
11 2
 dem ographics
 O UT
S u
P F
 b ark
 think ers
F und
az ers
 Con way
 contin uation
 specific ations
 goal t
 Te ams
 collect or
 t ipped
met ry
 su cks
 policy makers
 sm ashed
 Island ers
 thr ill
 w ax
 List en
 arbit ration
 Franc o
 lapt ops
 reserv ation
ef ined
 prost itution
the ir
k owski
 Deb bie
 super natural
 ye ast
 Chap man
att i
 pro claim
 wheel chair
 impe achment
m oney
 Batt alion
 Vi enna
threat ening
 Jav ascript
ed o
id ate
 dis semin
 Cros by
 Pro s
ord e
 Punj ab
 s omeday
 ubiqu itous
 : )
AR K
oldem ort
 Americ as
 p anc
 vers a
 19 17
 Do ing
 und en
 Se vent
 restrict ive
 can cell
 Art icles
 exerc ising
 fun nel
 honest y
 tast ing
he rence
 s acked
 di agram
 w olves
t aking
t ical
 continu ity
 Pers ian
 Writ ing
 jurisd ictions
 sent iments
b usters
 impress ions
10 9
icult ural
 est e
 proport ions
at ra
 R ew
em y
 Lyn n
 Res cue
 phil anthrop
 under went
p rop
 un healthy
 ost ens
 laund ry
 or phan
 R ash
 bigot ry
wh y
 restruct uring
 soc ietal
d ess
t ag
in qu
ax ies
 mod s
L ittle
 rest s
 kill ers
 mem br
 K ris
f orth
 f ried
 repl ies
 mis ery
 st alled
 mon uments
( ):
 Ar cher
 R andom
 inv aded
 A HL
 depend encies
 Sh arp
 thank ed
 RE AD
 Ma ver
 condem ning
 Re bell
 Bar rett
 Field s
Ã± a
if ts
 qu oting
 neighbour ing
 F ry
uff er
ci um
Never theless
 part nered
any e
 b idding
if ty
 freel ance
Invest ig
 pedest rians
 T X
R un
 j ealous
 Gr ad
s kin
need ed
 Inspect or
kins on
i D
 inad vert
e a
 mortg ages
 Sunder land
st ro
U A
th ose
 dis able
 he ars
 E arn
 str ains
 employ ing
 dev ote
 repl aces
 hands ome
b uf
het ics
 par aly
ari us
 m ocked
 Lab s
 spl ash
 Sh arks
 12 3
Donald Trump
 manip ulated
 acceler ation
 F argo
rank ed
F re
 n as
ge ons
 D ifferent
 ex pelled
M ic
 RC MP
 with hold
 dun geon
on so
 Re y
 â 
um en
ut in
 clos et
 pupp et
 pro w
al ine
T ech
 Azer bai
ep ernick
 D ell
m is
ar is
at ts
 D ance
 w aking
G roup
ms on
 st ared
Q Q
 b aff
 S ample
ger ald
 redu nd
int elligence
 ab using
 coll usion
 t aked
 ch lor
 195 5
 youth s
 experiment ing
 sign aling
 Le eds
 G IF
 E lder
 qu ir
 mel ting
 ho ax
 10 6
 L SU
 YOU R
 P izza
 Ar ist
 aspir ations
 or thodox
het amine
umn i
 med d
 cease fire
 hes itate
 Ph arm
 vigil ant
 hel pless
 Grand e
ul atory
O l
ut sche
 ne p
 H av
in vest
rit is
 C anyon
 l ure
 W ass
 C ory
 se ism
 gener als
 che ering
 deal ings
 where by
 tot als
 sh ining
Cl oud
 prep ares
az ingly
 conflic ting
F lor
N FL
 S orry
 Sir i
Sen ate
 L TE
 Comp ilation
 stake holders
ê ²
 CON T
 Mac Book
 S ue
 Hist orical
 I A
 Resp ons
 cock tail
ov able
 thank ful
 rev ol
 att ain
priv ate
K now
 haun ted
 discont in
 ser oton
 Jed i
 A IDS
e ath
 McC oy
 stub born
 polit ic
O ld
 H ik
am ic
D F
K im
r n
ro b
 am en
W ater
 c ues
 e ax
 M illion
 M ets
 serv ant
ail ure
 Te en
s aving
ma res
our cing
 rob bed
 assess ing
Ð¾Ð ´
 rev olt
 depart ed
 19 43
 valid ation
 Elect ions
EN CE
 wid ow
 a ce
 elev ator
 perpet rators
 tiss ues
 r av
Comm on
 imperial ism
 w re
 D uck
con n
 can s
 fraud ulent
 lie utenant
ic ular
 disproportion ately
 right eous
ew orthy
T en
S n
g ro
ow e
N ER
 dilem ma
g as
ott a
at z
 Sh akespeare
real DonaldTrump
 be es
 s igh
 l ions
en ment
 C ec
 co hes
the med
 cor al
 o re
 gen res
 Afric ans
 progress ives
 sl ope
 Ph i
 r ant
 S hen
 sur real
al ong
 Bur ton
 crack ing
 48 4
 ca us
Sec urity
cr ime
us able
 Op ening
 Ø ¹
 pump ing
art icle
 Rel igious
 br ass
 Le ad
Mus ic
set ting
 ev apor
Ã¨ re
 per t
 str anded
 rel ay
ink le
product ive
3 60
Short ly
op ath
ill as
 Fair fax
 Pre p
 Seb astian
h ash
19 99
 thor ium
 B ungie
S ad
 P av
Ä «
 â 
 E ther
 on ion
 not ions
 by te
 New ark
 For ward
 coun ters
 z ip
 und ec
 fl ipped
 train ers
 restrict ing
 fire works
 N are
osp ace
 Or acle
 ru ins
 jur ors
 G in
 Bra ves
 beh old
 el bow
 Cl iff
 pupp y
 tempt ed
 dis charge
 Av iv
 M ug
v able
 M add
 NGO s
iann opoulos
iv ities
 Ni elsen
 W S
 recons ider
 discrim inatory
 l aundering
__ _____
K A
 d ess
 respir atory
p c
ate l
E B
 nep hew
 St ark
S ave
 might y
leg round
 we ights
 draw ings
 cast e
 grad ual
 tor rent
 disrupt ed
er ter
 gig antic
rend ered
 10 7
 intimid ation
 Lie ber
 po orer
qual ified
en ame
 neg lected
 metab olic
uck land
l ated
 d urable
 ext r
 piv otal
 out we
 dep rived
 oversee ing
Pro v
 Cu omo
 rel iably
Can adian
 wor s
Ex p
) );
 rail road
 V P
st ra
 D at
 e b
B er
act ly
 o scill
i ak
c as
i ya
ry s
Å £
 ins ign
 exp ire
 pass er
F riend
 hold ings
 n ails
 cent r
 Ab ove
 C oul
 ind ications
agon al
 draft ing
 Al bum
 f aint
 E asy
 trail ing
 H olt
 label ing
 chall enger
C ustom
 wal lets
 simpl ified
p sych
 sem if
 g ems
 Ray mond
W all
 gl am
 manifest o
 insurg ency
 J ail
Sc roll
st ant
cl amation
g ithub
g old
 Protest ant
 narc iss
ar Ã©
 c it
 nostalg ia
ig ated
ob il
 un manned
av ier
 gra ffiti
 L ar
 Ar g
Ä 
 fam ed
 ] .
 out ward
 po pping
 Gu ards
 Intern al
 rec ap
L oad
S ean
let cher
 guess ed
 iPh ones
 id iot
ii i
 24 0
com pet
 Par rot
t at
Sim ilarly
b ishop
 eth ic
 insult ing
 tong ues
 overd ose
 enfor cing
 Sh am
 dep icts
 gun shot
 m int
Rep ort
 Wind sor
s ince
 N est
 screens hots
r ue
 blat ant
 V C
 plag ued
 unre asonable
es que
 trib unal
  Ñ
 fl ick
 3 20
 S aid
M ag
 Cop enhagen
 C aucas
 un pleasant
-- -------
 hist ories
og ene
ã 
 2 30
 Dep ending
 g amer
 R ole
 P unk
 remember ing
 organiz ational
Ð¾Ð ³
 c apped
 expl ores
 ret ali
 Cle arly
 E cho
 Dev ice
 for c
rop olis
 obst ruction
 infect ious
 robot ics
 Inst all
 homeless ness
 insist ence
 Kat ie
 ang el
 sky rock
udd le
 contrace ption
Ù 
f igure
 v i
 V ers
v d
 J ab
ak in
oy a
 d op
 dead l
so ld
d eath
 N ike
uss y
B orn
 post ure
inc re
a verage
For ce
 front s
 co ached
ã 
 ex ams
op ened
 squ at
 W itch
 supp lying
ld om
 Mart ian
 Tor res
ign ant
 Sant os
 Sp y
 optim ization
idel ity
 flood s
 vill agers
Or gan
 Nic ole
 R unning
 t earing
 exhib ited
pa io
 sur geon
 esc aping
 revers al
 She ikh
erg ic
 pir ates
 Gro ve
 hur ry
 Nic olas
  iv
 Sh ut
 instinct s
 high s
 Colon el
Semit ism
Intern ational
 ha voc
and ra
 S ugar
 volcan ic
 B ri
 Thom son
il ib
C oll
 provoc ative
 de port
 pseud o
W W
S AN
E Y
R B
 expend itures
 Rebell ion
is en
n as
 F i
 was ting
 G ren
 b ully
 comment ing
 on set
 Green e
 appl ause
olic y
 195 1
 A AA
T otal
og ram
 outs k
 l akh
 D ollar
 Griff ith
 Un block
 ep ist
rank ing
 R ol
eff icient
utter stock
 admin ister
 G ospel
hib ition
 heter osexual
 Jama ica
 str ongh
AN C
ather ing
au f
ay ette
e ger
ud o
qu ist
 A V
 Mour inho
 L B
ic hes
fe it
 H amb
r and
 mem es
 He ather
 mark ers
oc ene
 W ald
 pl ight
 F eed
ing es
tr ade
 har med
Ch icago
 celebr ates
 19 36
 blog gers
 adjust ing
cent ric
c uts
 P TS
acc ount
G raph
p ine
com pl
 Key nes
 guitar ist
 Marx ist
 lim b
 Aud io
Act ivity
 Indust ries
 knock out
u ously
 ric her
L uc
ï¼ 
 Holl ande
 tang ible
 Im am
12 1
ist ence
T al
ne ck
 cult urally
hes is
 sp ur
 A ber
 circum cision
 Don ovan
k ok
 al phabet
 Ã® n
 Re becca
F ixed
t z
 R utherford
 I F
 p ess
 Bl ade
 Har old
 capt ive
it ious
 rac ially
 gun men
 dest iny
 IS IL
 Mor an
 Joe y
 F ellow
 C ain
S orry
 spect acle
 mail ing
 Cy cl
 Tr inity
 t abs
B ad
 gl owing
 coll ateral
25 6
 bud dy
 mis con
 Br ing
 Orig in
 Sav age
cap ital
iv or
 G erald
 Phys ical
 tr act
 theoret ically
 decor ated
 conc ussion
 am azed
 anom aly
ib o
estab lished
P riv
æ 
 
 voy age
G ar
j ar
4 50
 S I
 Or b
pher d
en os
 G n
 diff ers
 ch ased
 pr ince
 pop e
 kind ness
 O val
 L omb
To o
 assist ants
 supp ression
P akistan
 v irgin
 initi ate
 Const itutional
G ate
 broadcast s
ond ay
 cl utch
 ser um
 D HS
 p ent
 preced ing
 hal ted
Act ually
 caps ule
 D NS
 f ixture
 sal vation
 pat rons
ol ia
put er
T alk
 OF F
re ally
 D ru
d ead
 unanim ous
 intens ified
wart z
 wild erness
 Inn ovation
ar ium
olith ic
 cor rections
 F X
 â â  â 
nt on
s afe
 Ku wait
 pre g
 Kind le
j ee
 tr ilogy
Jew ish
 Am sterdam
R a
st y
i em
y g
mond s
inc arÃ©
ome z
 ass im
 belie ver
 soc ks
 deb ating
F ort
 there of
 imag inary
 transfer ring
 aw ait
 ext inct
 fall out
 motiv ations
 boost ing
yr r
 Gar ner
 S we
 head phones
crib e
 C opy
 EC B
 f ier
 Reg ist
r ance
 Leban ese
 chance llor
 overl ap
 swift ly
 imp aired
Austral ia
S ize
 g um
 El i
Cle arly
 bl ur
 out doors
 Frame work
link ed
ã ¬
law s
H I
 ing en
 H B
on ial
RE D
é 
 se ated
 disc ern
 p ains
ber ries
Ch arl
 specific ation
 run time
 w ires
 dec omp
 command ing
 s ulf
B rad
 Tre nd
 P ont
ect ure
 deploy ing
 except ionally
 Str ategy
 alert ed
 sle w
 Custom er
 imp ulse
 de gr
 epid em
Start ing
ull ah
 affirm ative
 dem ocrat
 Bour dain
oc ating
is ite
 T yson
r one
 Stock holm
 Pengu ins
 rehe ars
" );
Col or
c f
K O
ER Y
 rev ive
 play ground
ha ar
 b aked
 defe ats
ess ment
 sil icon
 thr iller
 oblig ed
 Can on
AF TA
 municipal ities
st rike
 em peror
 her d
l ower
 C otton
 war p
 law ful
 reconst ruction
Bl ock
 bureaucrat ic
 vib e
 all iances
qu et
 Pod esta
 pharm ac
 C OU
 satur ated
 K ee
ow ler
f y
 T M
 Hog warts
ê¸ °
J S
ap i
m ia
l ar
 Nare ndra
as per
ag le
n om
ru gged
D ark
 sp inal
eral a
r itional
 cond itional
 rest oring
 David son
cl oud
W estern
 ins iders
 t ighter
 Add itional
Ð ¶
 add icted
 sh ores
 E state
 G TA
 g it
 ext ras
 t apping
 C ed
 e greg
 inv oked
 dist orted
Pr int
se ven
 V ista
 Psych ology
Bre aking
 bo asted
 F actory
 Interest ingly
 News letter
ete enth
 compos er
oh yd
 I GN
pos itive
 sympt om
 inv asive
 nit rogen
 succ umb
W are
t ree
l ich
or st
 pe ek
 airst rikes
 bush idÅ
 G S
l ane
con c
 d ur
an alysis
1 19
fashion ed
z on
r ine
 V oldemort
 outsk irts
 t ile
 dec ree
 Com ments
 L akes
 All ied
 pl ague
 not ify
 N eal
 b apt
T ele
 Cons ult
AM Y
 end urance
 sm iles
 opp ressed
 mer ged
 vill ains
 L imb
Ð¾Ð ¹
 f aded
 b olt
 rot ate
 rot ating
 profess ionally
 bo oming
 rum ours
 Ch icken
 m esh
 Lind sey
 disrupt ive
Ø ¨
Go vern
_ {
 Cro at
 Av ailable
 penet ration
 t in
 orb iting
 fear ful
abul ary
 diss atisf
q l
L at
 Pret ty
 Crack ling
re b
 mis guided
re on
 V ernon
are l
 19 14
 B asketball
ef er
 Har b
 My anmar
o i
E ff
her ty
ern ame
 dem ons
 gu iding
 ant it
 M oto
 Islam ists
 Paul o
 g raz
 lim itation
 Sim s
 prop onents
 qual ification
state ment
 experiment ation
 Mart y
Se ason
 brut ally
 S SL
17 0
 Bru ins
 dict ate
S ex
 outs ider
 he ap
 sub ord
 bath rooms
 an th
Ñ Ðº
 Budd h
 Bul let
arn a
bs p
 W elcome
x imately
ter t
 Per u
 over ride
 k et
× 
 m um
' ,'
 Anders en
Qu ick
) [
ev il
 b ishops
 h amm
G EL
az er
 rad i
 I O
  Å
os o
IL E
 M AN
á »
 in on
 ser ge
 5 000
B ank
 B ee
 inc arn
ib ling
 left ist
 unt o
 be verage
 rul ings
 miss es
: --
 w aving
 En joy
 bur nt
 day light
 regul ating
re lease
 T SA
 F alse
ag her
 graph ical
 Pri x
 construct ing
 termin ated
 bl ink
 fulf illed
 presum ed
 11 6
 Z ika
 ev id
 jihad ist
 prev ail
 pl ac
 ske leton
reat ment
 Se at
 Ar lington
 pione er
 J ung
 re write
 Mine craft
 imm ers
As k
 E z
 Strateg ic
 suprem acist
 abrupt ly
 Freder ick
 T ut
 I E
OT A
ack ers
 per vasive
ok s
 G ent
 Cous ins
t ro
 nut rients
 19 10
 Fitz gerald
IS H
 play able
 C hes
L ate
 Â 
 execut ing
 ste er
 sp un
 Int o
 earn est
 comp ression
 lik ing
 Sam an
 Her bert
 I PA
 sc outs
 mut ations
 with stand
 explo iting
 Haw th
wit z
T aylor
 ant iqu
 d ens
employ ment
 World s
 Gall up
 config ured
sm ith
 el usive
 Nob le
 f eder
hard t
od us
L ight
St ay
 Sec urities
 pin point
 V II
 sect arian
ari at
 Antar ctic
 Beaut y
 un official
 envision ed
 Sol id
 M oody
 decentral ized
 Wend y
d ens
 Mon roe
l oo
 l ent
 C I
cycl op
 P G
I r
 B T
e ight
J ud
we lling
et ing
 W ide
ru ed
 sl ash
 vis ions
A bs
 prop s
 Sc ots
Â ½
ã 
sh op
f iction
 F lying
 and roid
 ch illing
 Ter rit
H ouston
 Rec overy
 inter ception
 rem oves
 C BO
 Fre ud
 clar ified
 veget arian
 sin ister
l ake
 Som ali
 gate way
 Short ly
Israel i
 S QL
 discour age
 T ool
cript ions
 pen insula
 proc ure
 be gging
 cos m
n ation
 ob ey
 Valent ine
 K un
c oll
E arth
 Camb od
walk er
ier i
it ic
 P ra
Rub y
 year ly
 e lic
 pass ages
 book ing
 Christ ine
 C ream
 who pping
 dam s
 lat ency
 fr iction
 standard ized
 ver ge
 c ube
 central ized
 rat ios
 US DA
 pet ty
 pair ing
 Ed gar
 Det ails
 Ã  
 decre asing
 Jan et
 phenomen al
 We iner
 authent icity
 D ixon
 lect ures
 re election
G Hz
us ra
 evac uation
 Li u
 div isive
 unl ocked
 Resp onse
 Shan ahan
 aut obi
 undermin ed
Lab our
att a
 linem an
 st are
 Dem and
 Pod cast
R us
ent on
 U V
 surg ical
 t read
 A uckland
20 2
 R ib
 o z
 B ag
 read ings
cl ient
E conom
 special ty
 Act ive
 P urd
 independ ents
 sort ed
 defense man
 cl oses
 r anch
W orks
 Super ior
 emb ro
 plant ing
Ex ample
 install ations
 Cons idering
 bull pen
 te asp
 Ex pect
Sm all
 to x
 mo ons
 num bered
 Az ure
p enter
 Front ier
 Bol ton
 escal ating
 10 8
 live lihood
 distribut ing
ex isting
 k idding
 demol ition
L aughs
Ð½ Ñ
 harm less
 Applic ation
 c emetery
Event ually
ro vers
 T ou
ind ers
ut able
11 3
> <
 under graduate
is ol
 Inf o
 psy chedel
e er
ch in
 le v
 Haw kins
 G aw
 F ury
c ified
 Or ion
 compan ions
 dr ift
 par ole
 pe aked
.â â
 pe aks
 Do ctors
 defensive ly
 work outs
 remind ing
Pl ayer
 ign ores
 R abb
33 3
 p ens
 proceed ing
 sc aled
 Prot ocol
 ped oph
 imper fect
ush ima
d ependent
rec ogn
 pr ud
 Ext reme
 Ch in
h ua
 los ers
st own
 Pet ra
?? ?
 stand off
J udge
 Nin th
 met ropolitan
 unle ashed
 mon keys
â [
! ),
 W yn
 Crit ics
Semit ic
 landl ords
 Swan sea
 resent ment
 night club
 POL IT
od o
 PR O
 Black hawks
 A id
 p es
in x
ri o
 L il
P E
IN K
 qu ake
 As ide
 camp ing
 high ways
 7 50
Â ´
 parent ing
 pred ator
 Un cle
 < <
 he mp
 bur ger
 test ament
 Ben ef
sp ot
 slight est
 assault ing
 person a
ab outs
 err one
 He in
 entit lement
 po ems
Rec ent
 Sir ius
other mal
 H ilton
 As ked
 circ uits
ary a
iss ue
 C afe
 cl ing
 possess ing
 C er
 discount s
 coordin ates
its u
 Writ er
 supp lements
  ï
 cart oons
 H ash
 as semble
 Re pe
etermin ed
W ed
if i
 bar r
 B ug
 un sett
q qa
Court esy
 fr aternity
id ian
 eyeb rows
 b ik
c orn
d ou
g all
 Fe el
 N vidia
 m og
 E c
M Y
 S uff
us a
z ene
g ames
 T ow
 g ast
 W ong
 F ont
com ings
 ac ids
 mass ively
 C lement
 hom age
red its
medi ately
 encour agement
ot ional
 impl ication
 19 37
 Inter state
 cor ros
 long standing
 collabor ate
 instruct or
us ually
 B rom
Î µ
 pro active
 assert ions
ext reme
p oll
 s aga
 d wind
 disc arded
 fr inge
government al
pro bably
 hate ful
 Zion ist
Prof essor
 h iking
ul us
 Her m
 aug mented
 C AR
 Dri ver
 d ictionary
 Sun s
 dist urbed
N umber
 cataly st
AM P
Aud io
 eth anol
ject ion
[...]
