{
  "0": "\u0000",
  "1": "\u0001",
  "2": "\u0002",
  "3": "\u0003",
  "4": "\u0004",
  "5": "\u0005",
  "6": "\u0006",
  "7": "\u0007",
  "8": "\b",
  "9": "\t",
  "10": "\n",
  "11": "\u000b",
  "12": "\f",
  "13": "\r",
  "14": "\u000e",
  "15": "\u000f",
  "16": "\u0010",
  "17": "\u0011",
  "18": "\u0012",
  "19": "\u0013",
  "20": "\u0014",
  "21": "\u0015",
  "22": "\u0016",
  "23": "\u0017",
  "24": "\u0018",
  "25": "\u0019",
  "26": "\u001a",
  "27": "\u001b",
  "28": "\u001c",
  "29": "\u001d",
  "30": "\u001e",
  "31": "\u001f",
  "32": " ",
  "33": "!",
  "34": "\"",
  "35": "#",
  "36": "$",
  "37": "%",
  "38": "&",
  "39": "'",
  "40": "(",
  "41": ")",
  "42": "*",
  "43": "+",
  "44": ",",
  "45": "-",
  "46": ".",
  "47": "/",
  "48": "0",
  "49": "1",
  "50": "2",
  "51": "3",
  "52": "4",
  "53": "5",
  "54": "6",
  "55": "7",
  "56": "8",
  "57": "9",
  "58": ":",
  "59": ";",
  "60": "<",
  "61": "=",
  "62": ">",
  "63": "?",
  "64": "@",
  "65": "A",
  "66": "B",
  "67": "C",
  "68": "D",
  "69": "E",
  "70": "F",
  "71": "G",
  "72": "H",
  "73": "I",
  "74": "J",
  "75": "K",
  "76": "L",
  "77": "M",
  "78": "N",
  "79": "O",
  "80": "P",
  "81": "Q",
  "82": "R",
  "83": "S",
  "84": "T",
  "85": "U",
  "86": "V",
  "87": "W",
  "88": "X",
  "89": "Y",
  "90": "Z",
  "91": "[",
  "92": "\\",
  "93": "]",
  "94": "^",
  "95": "_",
  "96": "`",
  "97": "a",
  "98": "b",
  "99": "c",
  "100": "d",
  "101": "e",
  "102": "f",
  "103": "g",
  "104": "h",
  "105": "i",
  "106": "j",
  "107": "k",
  "108": "l",
  "109": "m",
  "110": "n",
  "111": "o",
  "112": "p",
  "113": "q",
  "114": "r",
  "115": "s",
  "116": "t",
  "117": "u",
  "118": "v",
  "119": "w",
  "120": "x",
  "121": "y",
  "122": "z",
  "123": "{",
  "124": "|",
  "125": "}",
  "126": "~",
  "127": "",
  "128": "�",
  "129": "�",
  "130": "�",
  "131": "�",
  "132": "�",
  "133": "�",
  "134": "�",
  "135": "�",
  "136": "�",
  "137": "�",
  "138": "�",
  "139": "�",
  "140": "�",
  "141": "�",
  "142": "�",
  "143": "�",
  "144": "�",
  "145": "�",
  "146": "�",
  "147": "�",
  "148": "�",
  "149": "�",
  "150": "�",
  "151": "�",
  "152": "�",
  "153": "�",
  "154": "�",
  "155": "�",
  "156": "�",
  "157": "�",
  "158": "�",
  "159": "�",
  "160": "�",
  "161": "�",
  "162": "�",
  "163": "�",
  "164": "�",
  "165": "�",
  "166": "�",
  "167": "�",
  "168": "�",
  "169": "�",
  "170": "�",
  "171": "�",
  "172": "�",
  "173": "�",
  "174": "�",
  "175": "�",
  "176": "�",
  "177": "�",
  "178": "�",
  "179": "�",
  "180": "�",
  "181": "�",
  "182": "�",
  "183": "�",
  "184": "�",
  "185": "�",
  "186": "�",
  "187": "�",
  "188": "�",
  "189": "�",
  "190": "�",
  "191": "�",
  "192": "�",
  "193": "�",
  "194": "�",
  "195": "�",
  "196": "�",
  "197": "�",
  "198": "�",
  "199": "�",
  "200": "�",
  "201": "�",
  "202": "�",
  "203": "�",
  "204": "�",
  "205": "�",
  "206": "�",
  "207": "�",
  "208": "�",
  "209": "�",
  "210": "�",
  "211": "�",
  "212": "�",
  "213": "�",
  "214": "�",
  "215": "�",
  "216": "�",
  "217": "�",
  "218": "�",
  "219": "�",
  "220": "�",
  "221": "�",
  "222": "�",
  "223": "�",
  "224": "�",
  "225": "�",
  "226": "�",
  "227": "�",
  "228": "�",
  "229": "�",
  "230": "�",
  "231": "�",
  "232": "�",
  "233": "�",
  "234": "�",
  "235": "�",
  "236": "�",
  "237": "�",
  "238": "�",
  "239": "�",
  "240": "�",
  "241": "�",
  "242": "�",
  "243": "�",
  "244": "�",
  "245": "�",
  "246": "�",
  "247": "�",
  "248": "�",
  "249": "�",
  "250": "�",
  "251": "�",
  "252": "�",
  "253": "�",
  "254": "�",
  "255": "�",
  "256": "<|endoftext|>",
  "257": " t",
  "258": " a",
  "259": "he",
  "260": "in",
  "261": "re",
  "262": " the",
  "263": "on",
  "264": "er",
  "265": " s",
  "266": " w",
  "267": "at",
  "268": " o",
  "269": "en",
  "270": " c",
  "271": "it",
  "272": "is",
  "273": "an",
  "274": "or",
  "275": " b",
  "276": "es",
  "277": "ed",
  "278": " f",
  "279": "ing",
  "280": " p",
  "281": "ou",
  "282": " an",
  "283": "al",
  "284": " to",
  "285": "ar",
  "286": " m",
  "287": " in",
  "288": " of",
  "289": " h",
  "290": " d",
  "291": "as",
  "292": "�",
  "293": "ic",
  "294": " and",
  "295": " th",
  "296": "le",
  "297": "om",
  "298": "ion",
  "299": "ll",
  "300": "ent",
  "301": " n",
  "302": " l",
  "303": " re",
  "304": "st",
  "305": "ve",
  "306": " e",
  "307": "ly",
  "308": " be",
  "309": " g",
  "310": "ro",
  "311": "id",
  "312": "ac",
  "313": "ut",
  "314": "ot",
  "315": " T",
  "316": " I",
  "317": " that",
  "318": " on",
  "319": "ay",
  "320": " S",
  "321": " is",
  "322": "am",
  "323": "im",
  "324": "et",
  "325": "ad",
  "326": "ow",
  "327": "ig",
  "328": "se",
  "329": " for",
  "330": "’",
  "331": " A",
  "332": "ver",
  "333": "ld",
  "334": "ur",
  "335": "ct",
  "336": " C",
  "337": " u",
  "338": " st",
  "339": " y",
  "340": " it",
  "341": " he",
  "342": "ir",
  "343": "ation",
  "344": "ith",
  "345": " wh",
  "346": " M",
  "347": "ce",
  "348": "ter",
  "349": "ol",
  "350": " we",
  "351": "il",
  "352": " with",
  "353": " as",
  "354": " B",
  "355": "ch",
  "356": "ill",
  "357": "nd",
  "358": " was",
  "359": "ers",
  "360": " P",
  "361": " you",
  "362": "ke",
  "363": " �",
  "364": " con",
  "365": " de",
  "366": " r",
  "367": "if",
  "368": "her",
  "369": "ate",
  "370": " at",
  "371": "ag",
  "372": " W",
  "373": " ha",
  "374": " se",
  "375": " H",
  "376": "ore",
  "377": "ul",
  "378": " pro",
  "379": "pp",
  "380": "ment",
  "381": " 1",
  "382": " D",
  "383": " are",
  "384": "ri",
  "385": "est",
  "386": "us",
  "387": "ist",
  "388": " R",
  "389": " com",
  "390": "and",
  "391": "ain",
  "392": "op",
  "393": " 2",
  "394": " The",
  "395": "igh",
  "396": " (",
  "397": "th",
  "398": "rom",
  "399": "od",
  "400": " ne",
  "401": " F",
  "402": "um",
  "403": "un",
  "404": " ex",
  "405": "”",
  "406": "ab",
  "407": "res",
  "408": " N",
  "409": " not",
  "410": " v",
  "411": "ess",
  "412": " have",
  "413": "ould",
  "414": "ity",
  "415": "em",
  "416": " or",
  "417": "ort",
  "418": " by",
  "419": "os",
  "420": "ant",
  "421": " G",
  "422": " from",
  "423": "ive",
  "424": " al",
  "425": "'s",
  "426": " su",
  "427": "el",
  "428": "art",
  "429": "oc",
  "430": " L",
  "431": " sh",
  "432": " this",
  "433": "nt",
  "434": "qu",
  "435": "ight",
  "436": "ust",
  "437": "00",
  "438": "pe",
  "439": " le",
  "440": "ies",
  "441": "end",
  "442": " ch",
  "443": " sa",
  "444": "out",
  "445": " E",
  "446": "The",
  "447": " ab",
  "448": "ie",
  "449": "ack",
  "450": "all",
  "451": " “",
  "452": "red",
  "453": " J",
  "454": " has",
  "455": " pl",
  "456": "ally",
  "457": " go",
  "458": "ard",
  "459": "ap",
  "460": "ear",
  "461": " his",
  "462": "iv",
  "463": "ome",
  "464": "gh",
  "465": "ost",
  "466": "ast",
  "467": "our",
  "468": " O",
  "469": " tr",
  "470": " j",
  "471": "ak",
  "472": " wor",
  "473": "ud",
  "474": " they",
  "475": " do",
  "476": " but",
  "477": " said",
  "478": "ge",
  "479": " can",
  "480": " will",
  "481": "rou",
  "482": " whe",
  "483": " U",
  "484": " k",
  "485": "ok",
  "486": "ich",
  "487": " all",
  "488": " who",
  "489": "ide",
  "490": " \"",
  "491": "ame",
  "492": " int",
  "493": "ther",
  "494": "ans",
  "495": " out",
  "496": " their",
  "497": "ff",
  "498": "ial",
  "499": "ect",
  "500": "ong",
  "501": "pl",
  "502": "ice",
  "503": "ure",
  "504": "pt",
  "505": " more",
  "506": "age",
  "507": "ions",
  "508": "ous",
  "509": "ike",
  "510": "one",
  "511": "act",
  "512": " me",
  "513": " up",
  "514": "ine",
  "515": " ad",
  "516": " about",
  "517": "ra",
  "518": "ime",
  "519": "ated",
  "520": " were",
  "521": " one",
  "522": "ber",
  "523": "og",
  "524": " us",
  "525": " so",
  "526": "ep",
  "527": " had",
  "528": "ub",
  "529": "are",
  "530": "ia",
  "531": "cc",
  "532": "ue",
  "533": " 20",
  "534": " K",
  "535": " cl",
  "536": " would",
  "537": " im",
  "538": "ind",
  "539": "iz",
  "540": " ag",
  "541": " which",
  "542": "ake",
  "543": "very",
  "544": " te",
  "545": " cont",
  "546": " un",
  "547": " off",
  "548": " been",
  "549": " comp",
  "550": " St",
  "551": "so",
  "552": "au",
  "553": " year",
  "554": "per",
  "555": " Th",
  "556": " en",
  "557": "ign",
  "558": "ew",
  "559": "ip",
  "560": "ary",
  "561": "ace",
  "562": " like",
  "563": "ook",
  "564": "ere",
  "565": "ven",
  "566": "ays",
  "567": " man",
  "568": " inc",
  "569": "ry",
  "570": " pe",
  "571": "ose",
  "572": "able",
  "573": "ite",
  "574": " per",
  "575": " res",
  "576": "ord",
  "577": "ass",
  "578": " sp",
  "579": "mer",
  "580": " other",
  "581": " In",
  "582": " some",
  "583": "ile",
  "584": "ire",
  "585": " 201",
  "586": "ib",
  "587": "ople",
  "588": "ence",
  "589": "ical",
  "590": " new",
  "591": " there",
  "592": " over",
  "593": "ations",
  "594": "ks",
  "595": "ult",
  "596": " dis",
  "597": "ress",
  "598": " also",
  "599": "own",
  "600": " than",
  "601": " ar",
  "602": "ough",
  "603": " bec",
  "604": "int",
  "605": " them",
  "606": "ance",
  "607": "ail",
  "608": "port",
  "609": " when",
  "610": " app",
  "611": "ond",
  "612": "ount",
  "613": "ru",
  "614": " your",
  "615": "ree",
  "616": " part",
  "617": " people",
  "618": " what",
  "619": " qu",
  "620": "fter",
  "621": "orm",
  "622": " sc",
  "623": " Ch",
  "624": "av",
  "625": " Y",
  "626": " just",
  "627": "ase",
  "628": " any",
  "629": " kn",
  "630": " 3",
  "631": " its",
  "632": " time",
  "633": "ach",
  "634": " her",
  "635": " It",
  "636": " V",
  "637": "reat",
  "638": " if",
  "639": " my",
  "640": "ens",
  "641": " rec",
  "642": "ick",
  "643": " get",
  "644": "vel",
  "645": ".”",
  "646": " into",
  "647": "ound",
  "648": "irst",
  "649": " tw",
  "650": " no",
  "651": "ian",
  "652": " work",
  "653": "ction",
  "654": "du",
  "655": " -",
  "656": "ings",
  "657": "ory",
  "658": "lic",
  "659": " play",
  "660": " our",
  "661": "ition",
  "662": "ident",
  "663": "ors",
  "664": " pre",
  "665": "ob",
  "666": "ang",
  "667": "ove",
  "668": "ink",
  "669": "ade",
  "670": "ish",
  "671": "ause",
  "672": "wn",
  "673": "itt",
  "674": "ark",
  "675": "ates",
  "676": "amp",
  "677": " she",
  "678": " ro",
  "679": ",”",
  "680": " co",
  "681": "vers",
  "682": " pol",
  "683": " first",
  "684": " after",
  "685": " how",
  "686": " could",
  "687": "ious",
  "688": "nder",
  "689": "ne",
  "690": " acc",
  "691": " He",
  "692": "ild",
  "693": "'t",
  "694": " 19",
  "695": " him",
  "696": " po",
  "697": "aw",
  "698": "ons",
  "699": " att",
  "700": "hed",
  "701": " fe",
  "702": " only",
  "703": " pr",
  "704": "ict",
  "705": " two",
  "706": "hing",
  "707": "we",
  "708": "“",
  "709": "ov",
  "710": " ser",
  "711": " spe",
  "712": "form",
  "713": " comm",
  "714": ".\"",
  "715": " bl",
  "716": " bet",
  "717": " act",
  "718": "ning",
  "719": " dec",
  "720": " back",
  "721": "ft",
  "722": "te",
  "723": "ces",
  "724": " most",
  "725": "oy",
  "726": "ood",
  "727": " 4",
  "728": " am",
  "729": " did",
  "730": "ck",
  "731": " again",
  "732": "iff",
  "733": "rough",
  "734": "round",
  "735": "ater",
  "736": " under",
  "737": " want",
  "738": "day",
  "739": "ual",
  "740": " –",
  "741": "ise",
  "742": " —",
  "743": "rit",
  "744": " years",
  "745": "sel",
  "746": "ull",
  "747": "..",
  "748": "ents",
  "749": " des",
  "750": " because",
  "751": " now",
  "752": ",\"",
  "753": "tern",
  "754": " even",
  "755": " cons",
  "756": "lud",
  "757": " know",
  "758": "ublic",
  "759": "iss",
  "760": " inv",
  "761": " need",
  "762": "ec",
  "763": "man",
  "764": "old",
  "765": " sec",
  "766": " see",
  "767": " add",
  "768": " ind",
  "769": " We",
  "770": "ments",
  "771": " every",
  "772": "ced",
  "773": " $",
  "774": "fore",
  "775": "uch",
  "776": " 5",
  "777": "urn",
  "778": " make",
  "779": " supp",
  "780": " Un",
  "781": " em",
  "782": "pect",
  "783": " these",
  "784": "oll",
  "785": "ject",
  "786": "ock",
  "787": " where",
  "788": "000",
  "789": " look",
  "790": "ational",
  "791": "ump",
  "792": "In",
  "793": "ason",
  "794": " bu",
  "795": "iew",
  "796": "vern",
  "797": " don",
  "798": " way",
  "799": "xt",
  "800": " right",
  "801": " And",
  "802": "ily",
  "803": " being",
  "804": "Th",
  "805": "ng",
  "806": " ev",
  "807": "les",
  "808": " may",
  "809": "ating",
  "810": "oss",
  "811": " Tr",
  "812": " diff",
  "813": " many",
  "814": " rel",
  "815": " rem",
  "816": " then",
  "817": "row",
  "818": "lect",
  "819": " def",
  "820": "ased",
  "821": " call",
  "822": "ath",
  "823": " think",
  "824": "ied",
  "825": " But",
  "826": "meric",
  "827": "aking",
  "828": " [",
  "829": "ited",
  "830": " last",
  "831": " includ",
  "832": "ont",
  "833": " imp",
  "834": " say",
  "835": " through",
  "836": " should",
  "837": " those",
  "838": "ower",
  "839": "ific",
  "840": "other",
  "841": ").",
  "842": "uring",
  "843": " reg",
  "844": " fl",
  "845": " very",
  "846": "ell",
  "847": " pres",
  "848": "rib",
  "849": " sy",
  "850": " much",
  "851": "arg",
  "852": "ities",
  "853": " br",
  "854": " show",
  "855": " state",
  "856": "ting",
  "857": "ss",
  "858": "hen",
  "859": " This",
  "860": " bel",
  "861": "ved",
  "862": " ph",
  "863": "ty",
  "864": " well",
  "865": "ative",
  "866": "ics",
  "867": "ange",
  "868": " Wh",
  "869": " end",
  "870": " does",
  "871": "und",
  "872": " own",
  "873": " down",
  "874": " ass",
  "875": "als",
  "876": "com",
  "877": "ters",
  "878": "arly",
  "879": "oth",
  "880": " count",
  "881": " mon",
  "882": " Americ",
  "883": " use",
  "884": "ince",
  "885": "ward",
  "886": "omet",
  "887": " before",
  "888": " long",
  "889": " team",
  "890": "up",
  "891": " start",
  "892": "gr",
  "893": " New",
  "894": "ues",
  "895": " govern",
  "896": " report",
  "897": " ke",
  "898": "ible",
  "899": "olog",
  "900": "ener",
  "901": "ife",
  "902": "ts",
  "903": " made",
  "904": "ren",
  "905": "ble",
  "906": " fin",
  "907": "--",
  "908": "oun",
  "909": " 200",
  "910": "ix",
  "911": " sm",
  "912": " world",
  "913": " such",
  "914": " game",
  "915": "erson",
  "916": " going",
  "917": "),",
  "918": " sub",
  "919": " good",
  "920": "ful",
  "921": " hel",
  "922": "It",
  "923": "ism",
  "924": "ek",
  "925": " ac",
  "926": " against",
  "927": " 6",
  "928": "ility",
  "929": "ork",
  "930": "ually",
  "931": " gu",
  "932": "ert",
  "933": "ini",
  "934": " point",
  "935": " sur",
  "936": " stud",
  "937": " eff",
  "938": "ys",
  "939": "gan",
  "940": " ent",
  "941": "its",
  "942": "ists",
  "943": "ier",
  "944": " still",
  "945": " set",
  "946": "ars",
  "947": "ax",
  "948": "ween",
  "949": " lead",
  "950": " help",
  "951": " gr",
  "952": "imes",
  "953": "roup",
  "954": " says",
  "955": "ving",
  "956": " col",
  "957": "ef",
  "958": "stem",
  "959": " ob",
  "960": "—",
  "961": " while",
  "962": "io",
  "963": "alk",
  "964": "ms",
  "965": "illion",
  "966": " produ",
  "967": "self",
  "968": "ank",
  "969": " sim",
  "970": " though",
  "971": " between",
  "972": "cy",
  "973": " take",
  "974": " same",
  "975": "cess",
  "976": " min",
  "977": "ah",
  "978": " differe",
  "979": "ollow",
  "980": " num",
  "981": " str",
  "982": "ures",
  "983": "ames",
  "984": " conf",
  "985": " high",
  "986": " inter",
  "987": "arch",
  "988": "ever",
  "989": " cr",
  "990": " op",
  "991": "air",
  "992": " inst",
  "993": "uss",
  "994": " sign",
  "995": " Re",
  "996": " offic",
  "997": "atch",
  "998": "ool",
  "999": "led",
  "1000": " law",
  "1001": "hip",
  "1002": " disc",
  "1003": "cent",
  "1004": "gg",
  "1005": "ner",
  "1006": " prov",
  "1007": "way",
  "1008": " ins",
  "1009": " ret",
  "1010": "read",
  "1011": "hes",
  "1012": "any",
  "1013": "velop",
  "1014": " government",
  "1015": " somet",
  "1016": " ed",
  "1017": "land",
  "1018": "ution",
  "1019": " med",
  "1020": "We",
  "1021": " three",
  "1022": " ref",
  "1023": "ee",
  "1024": " ter",
  "1025": " trans",
  "1026": " found",
  "1027": "ouse",
  "1028": " run",
  "1029": " around",
  "1030": " here",
  "1031": " 10",
  "1032": " real",
  "1033": " Al",
  "1034": " used",
  "1035": "oot",
  "1036": " mem",
  "1037": "ather",
  "1038": " You",
  "1039": "ave",
  "1040": "ives",
  "1041": "az",
  "1042": "ale",
  "1043": "con",
  "1044": " exp",
  "1045": " system",
  "1046": "alth",
  "1047": "ets",
  "1048": " sl",
  "1049": " group",
  "1050": "ci",
  "1051": "cept",
  "1052": " Ar",
  "1053": " 7",
  "1054": "nin",
  "1055": " really",
  "1056": "ves",
  "1057": " support",
  "1058": " cour",
  "1059": "ense",
  "1060": " Trump",
  "1061": " hand",
  "1062": " great",
  "1063": "ins",
  "1064": "ph",
  "1065": " wom",
  "1066": " mod",
  "1067": " public",
  "1068": " fam",
  "1069": "ying",
  "1070": " spec",
  "1071": " ext",
  "1072": " cap",
  "1073": " cur",
  "1074": " car",
  "1075": " read",
  "1076": "ern",
  "1077": " They",
  "1078": " fact",
  "1079": "pr",
  "1080": "ision",
  "1081": " Cl",
  "1082": "ton",
  "1083": " find",
  "1084": " day",
  "1085": "oh",
  "1086": " exper",
  "1087": " fr",
  "1088": " happ",
  "1089": "ular",
  "1090": "aj",
  "1091": " both",
  "1092": " month",
  "1093": "irect",
  "1094": " during",
  "1095": " Com",
  "1096": " det",
  "1097": "ines",
  "1098": " rep",
  "1099": "ices",
  "1100": " Is",
  "1101": " Sh",
  "1102": " told",
  "1103": " develop",
  "1104": "uth",
  "1105": " big",
  "1106": "ered",
  "1107": " follow",
  "1108": "the",
  "1109": " As",
  "1110": " iss",
  "1111": " cre",
  "1112": "ex",
  "1113": " person",
  "1114": "ivers",
  "1115": " since",
  "1116": " cent",
  "1117": "min",
  "1118": "ording",
  "1119": " war",
  "1120": "akes",
  "1121": " 0",
  "1122": " week",
  "1123": "ared",
  "1124": "ric",
  "1125": "ages",
  "1126": " 8",
  "1127": " few",
  "1128": "ically",
  "1129": " polit",
  "1130": " belie",
  "1131": "med",
  "1132": ".[",
  "1133": " Le",
  "1134": " leg",
  "1135": " gener",
  "1136": "ash",
  "1137": "anc",
  "1138": " expl",
  "1139": " lot",
  "1140": "bers",
  "1141": " contin",
  "1142": "ention",
  "1143": "ness",
  "1144": " prot",
  "1145": "get",
  "1146": "iet",
  "1147": " too",
  "1148": "der",
  "1149": " put",
  "1150": "rent",
  "1151": " soc",
  "1152": "orn",
  "1153": " If",
  "1154": "Wh",
  "1155": " requ",
  "1156": " opp",
  "1157": " another",
  "1158": " 9",
  "1159": " resp",
  "1160": " something",
  "1161": "ized",
  "1162": " different",
  "1163": "chool",
  "1164": "att",
  "1165": " cle",
  "1166": " inf",
  "1167": " pass",
  "1168": " loc",
  "1169": "ata",
  "1170": " second",
  "1171": " life",
  "1172": " plan",
  "1173": "view",
  "1174": " met",
  "1175": " De",
  "1176": " invest",
  "1177": "ody",
  "1178": " far",
  "1179": " fil",
  "1180": "ross",
  "1181": " head",
  "1182": " child",
  "1183": " char",
  "1184": "thing",
  "1185": "iness",
  "1186": "ience",
  "1187": " che",
  "1188": " commun",
  "1189": "erest",
  "1190": " rele",
  "1191": " power",
  "1192": "ik",
  "1193": " never",
  "1194": " things",
  "1195": " bus",
  "1196": "arl",
  "1197": " poss",
  "1198": "ize",
  "1199": " camp",
  "1200": " bo",
  "1201": "ield",
  "1202": "uc",
  "1203": " dep",
  "1204": "ute",
  "1205": "ret",
  "1206": "ants",
  "1207": " might",
  "1208": " adv",
  "1209": "ient",
  "1210": " ask",
  "1211": " got",
  "1212": " each",
  "1213": " quest",
  "1214": " ‘",
  "1215": " vot",
  "1216": "This",
  "1217": " art",
  "1218": " best",
  "1219": " next",
  "1220": " For",
  "1221": " mark",
  "1222": "cl",
  "1223": " Fr",
  "1224": " dem",
  "1225": " allow",
  "1226": "...",
  "1227": " cor",
  "1228": " come",
  "1229": "20",
  "1230": " '",
  "1231": " That",
  "1232": " Se",
  "1233": " seem",
  "1234": "ittle",
  "1235": " feel",
  "1236": "nce",
  "1237": " percent",
  "1238": " An",
  "1239": " wr",
  "1240": "ital",
  "1241": "son",
  "1242": "ten",
  "1243": " incre",
  "1244": " post",
  "1245": "rat",
  "1246": "ple",
  "1247": " home",
  "1248": "ug",
  "1249": " .",
  "1250": " av",
  "1251": " dist",
  "1252": " open",
  "1253": "erv",
  "1254": " care",
  "1255": "gram",
  "1256": "ired",
  "1257": " US",
  "1258": " contro",
  "1259": "less",
  "1260": " pri",
  "1261": " hard",
  "1262": "chn",
  "1263": " Rep",
  "1264": "osed",
  "1265": " result",
  "1266": " Pro",
  "1267": " season",
  "1268": "ral",
  "1269": " direct",
  "1270": "__",
  "1271": " Bl",
  "1272": "ately",
  "1273": " hum",
  "1274": " place",
  "1275": "gy",
  "1276": " number",
  "1277": " build",
  "1278": " without",
  "1279": "ama",
  "1280": " four",
  "1281": " inform",
  "1282": " including",
  "1283": " top",
  "1284": " million",
  "1285": "co",
  "1286": "conom",
  "1287": " import",
  "1288": " comple",
  "1289": " ide",
  "1290": "riend",
  "1291": " recent",
  "1292": "aim",
  "1293": "line",
  "1294": "ably",
  "1295": " proble",
  "1296": " tri",
  "1297": " let",
  "1298": " country",
  "1299": "ways",
  "1300": "ished",
  "1301": "But",
  "1302": " stand",
  "1303": " el",
  "1304": " better",
  "1305": "arn",
  "1306": "ained",
  "1307": " gl",
  "1308": "ead",
  "1309": " interest",
  "1310": "tt",
  "1311": "ration",
  "1312": " less",
  "1313": "oney",
  "1314": "ract",
  "1315": " mov",
  "1316": "ling",
  "1317": " Ind",
  "1318": " partic",
  "1319": " attack",
  "1320": " little",
  "1321": " bro",
  "1322": "app",
  "1323": " appro",
  "1324": " beh",
  "1325": " mil",
  "1326": " called",
  "1327": " didn",
  "1328": " turn",
  "1329": " rest",
  "1330": " dr",
  "1331": " case",
  "1332": "ised",
  "1333": "ains",
  "1334": "ode",
  "1335": " pop",
  "1336": " move",
  "1337": "rem",
  "1338": " effect",
  "1339": " pay",
  "1340": "ajor",
  "1341": " Z",
  "1342": " full",
  "1343": "ina",
  "1344": " keep",
  "1345": " left",
  "1346": " prev",
  "1347": " ann",
  "1348": " serv",
  "1349": " news",
  "1350": "ency",
  "1351": " conc",
  "1352": "10",
  "1353": " program",
  "1354": "uro",
  "1355": " There",
  "1356": "ann",
  "1357": "ering",
  "1358": "ature",
  "1359": " --",
  "1360": " 12",
  "1361": " test",
  "1362": "inal",
  "1363": " main",
  "1364": "leg",
  "1365": " using",
  "1366": "ology",
  "1367": " win",
  "1368": " form",
  "1369": "He",
  "1370": " pos",
  "1371": " val",
  "1372": " American",
  "1373": " level",
  "1374": " fun",
  "1375": "be",
  "1376": "ott",
  "1377": " school",
  "1378": " econom",
  "1379": "ertain",
  "1380": "iving",
  "1381": " So",
  "1382": " police",
  "1383": "arge",
  "1384": " women",
  "1385": "ined",
  "1386": "ploy",
  "1387": "iver",
  "1388": " =",
  "1389": "'re",
  "1390": " list",
  "1391": " book",
  "1392": " small",
  "1393": " eas",
  "1394": "uck",
  "1395": "ready",
  "1396": " data",
  "1397": " United",
  "1398": " Ph",
  "1399": "rap",
  "1400": "ohn",
  "1401": "used",
  "1402": " hist",
  "1403": " Q",
  "1404": " rece",
  "1405": " current",
  "1406": " health",
  "1407": "ided",
  "1408": "ird",
  "1409": "orth",
  "1410": " process",
  "1411": "//",
  "1412": " bre",
  "1413": " change",
  "1414": " company",
  "1415": " president",
  "1416": " 18",
  "1417": " techn",
  "1418": "ger",
  "1419": "reen",
  "1420": "ruct",
  "1421": " business",
  "1422": "ron",
  "1423": " always",
  "1424": " why",
  "1425": " sol",
  "1426": " mat",
  "1427": " thing",
  "1428": " past",
  "1429": " How",
  "1430": " already",
  "1431": "aining",
  "1432": " able",
  "1433": " prom",
  "1434": "ards",
  "1435": "stand",
  "1436": "wit",
  "1437": " later",
  "1438": " project",
  "1439": " rese",
  "1440": " organ",
  "1441": " chang",
  "1442": "aign",
  "1443": " prof",
  "1444": " unt",
  "1445": " story",
  "1446": "ases",
  "1447": " dri",
  "1448": " job",
  "1449": "aff",
  "1450": " expect",
  "1451": " Ob",
  "1452": " Be",
  "1453": " class",
  "1454": " major",
  "1455": "outh",
  "1456": " away",
  "1457": " claim",
  "1458": "urs",
  "1459": " She",
  "1460": " official",
  "1461": " money",
  "1462": "ample",
  "1463": "ural",
  "1464": " free",
  "1465": " ty",
  "1466": " vis",
  "1467": " talk",
  "1468": "ured",
  "1469": " information",
  "1470": "iven",
  "1471": "ury",
  "1472": " cost",
  "1473": "here",
  "1474": " pat",
  "1475": " ele",
  "1476": " design",
  "1477": "iversity",
  "1478": "side",
  "1479": " old",
  "1480": "ption",
  "1481": " view",
  "1482": "acy",
  "1483": " kill",
  "1484": " city",
  "1485": "to",
  "1486": " stre",
  "1487": "ley",
  "1488": " doesn",
  "1489": " important",
  "1490": " least",
  "1491": "ending",
  "1492": " mar",
  "1493": "sc",
  "1494": " aff",
  "1495": " came",
  "1496": " happen",
  "1497": " men",
  "1498": " est",
  "1499": "50",
  "1500": "rist",
  "1501": " campaign",
  "1502": " Ad",
  "1503": "els",
  "1504": " days",
  "1505": "ians",
  "1506": "uthor",
  "1507": " oper",
  "1508": " must",
  "1509": "ides",
  "1510": "alf",
  "1511": "urity",
  "1512": "ccess",
  "1513": "resident",
  "1514": " grow",
  "1515": " sk",
  "1516": "ney",
  "1517": " family",
  "1518": " hop",
  "1519": " friend",
  "1520": "eral",
  "1521": " tax",
  "1522": "ted",
  "1523": " record",
  "1524": " making",
  "1525": " tell",
  "1526": " enough",
  "1527": "ission",
  "1528": "St",
  "1529": " Mar",
  "1530": "ior",
  "1531": " kind",
  "1532": " var",
  "1533": " Sp",
  "1534": " const",
  "1535": "ider",
  "1536": " elect",
  "1537": "ising",
  "1538": " vide",
  "1539": " sit",
  "1540": "ality",
  "1541": " Go",
  "1542": " large",
  "1543": "pped",
  "1544": "oad",
  "1545": "arent",
  "1546": "bs",
  "1547": "ush",
  "1548": " polic",
  "1549": " took",
  "1550": " name",
  "1551": "ror",
  "1552": " deal",
  "1553": "ified",
  "1554": "ued",
  "1555": " John",
  "1556": "augh",
  "1557": " political",
  "1558": " Republic",
  "1559": " es",
  "1560": "ox",
  "1561": " air",
  "1562": "ived",
  "1563": "19",
  "1564": " edit",
  "1565": "work",
  "1566": " until",
  "1567": " del",
  "1568": "As",
  "1569": "ane",
  "1570": "enn",
  "1571": "by",
  "1572": " ve",
  "1573": "ocrat",
  "1574": " games",
  "1575": "ional",
  "1576": " working",
  "1577": "If",
  "1578": " line",
  "1579": "…",
  "1580": "iol",
  "1581": " become",
  "1582": " Can",
  "1583": " according",
  "1584": " deb",
  "1585": "ries",
  "1586": "---",
  "1587": "ded",
  "1588": " mean",
  "1589": "ER",
  "1590": "ister",
  "1591": " former",
  "1592": " ever",
  "1593": "ony",
  "1594": " Sc",
  "1595": "ember",
  "1596": " Dem",
  "1597": "aps",
  "1598": " actually",
  "1599": " return",
  "1600": "ator",
  "1601": " often",
  "1602": " bas",
  "1603": " won",
  "1604": "ison",
  "1605": "year",
  "1606": " intern",
  "1607": " human",
  "1608": " Pl",
  "1609": " times",
  "1610": "ization",
  "1611": "iqu",
  "1612": " Mc",
  "1613": " fund",
  "1614": " give",
  "1615": "most",
  "1616": "ware",
  "1617": " fore",
  "1618": " players",
  "1619": "eng",
  "1620": "aring",
  "1621": " All",
  "1622": " sing",
  "1623": "icle",
  "1624": " sever",
  "1625": "wh",
  "1626": "rop",
  "1627": "ither",
  "1628": "sh",
  "1629": " Comm",
  "1630": " order",
  "1631": " Russ",
  "1632": " media",
  "1633": "ague",
  "1634": " seen",
  "1635": "ball",
  "1636": " word",
  "1637": " doing",
  "1638": "uture",
  "1639": "for",
  "1640": " charac",
  "1641": " May",
  "1642": " bit",
  "1643": "---",
  "1644": " At",
  "1645": "There",
  "1646": "raft",
  "1647": " la",
  "1648": " dev",
  "1649": " social",
  "1650": " appear",
  "1651": " market",
  "1652": " night",
  "1653": " young",
  "1654": "oint",
  "1655": "ium",
  "1656": " children",
  "1657": " crit",
  "1658": " ,",
  "1659": " control",
  "1660": " having",
  "1661": " ra",
  "1662": " President",
  "1663": " early",
  "1664": " fac",
  "1665": "ched",
  "1666": " sure",
  "1667": " went",
  "1668": " perform",
  "1669": "idd",
  "1670": " five",
  "1671": "ories",
  "1672": " several",
  "1673": " today",
  "1674": "iam",
  "1675": "aken",
  "1676": " York",
  "1677": " beg",
  "1678": " Or",
  "1679": "iber",
  "1680": "iously",
  "1681": "br",
  "1682": " Sy",
  "1683": " Con",
  "1684": " press",
  "1685": " event",
  "1686": "ene",
  "1687": "ands",
  "1688": " arg",
  "1689": " 15",
  "1690": "let",
  "1691": " Euro",
  "1692": " avail",
  "1693": " States",
  "1694": " pot",
  "1695": " occ",
  "1696": "11",
  "1697": " success",
  "1698": " prop",
  "1699": "vert",
  "1700": " whether",
  "1701": "une",
  "1702": " example",
  "1703": " 199",
  "1704": "artment",
  "1705": "idence",
  "1706": " along",
  "1707": " question",
  "1708": "ats",
  "1709": " No",
  "1710": " likely",
  "1711": "uff",
  "1712": " milit",
  "1713": "inc",
  "1714": " equ",
  "1715": " invol",
  "1716": " months",
  "1717": " water",
  "1718": " members",
  "1719": "mber",
  "1720": "ster",
  "1721": "ots",
  "1722": " sex",
  "1723": " short",
  "1724": " fight",
  "1725": " within",
  "1726": " vers",
  "1727": " fail",
  "1728": " done",
  "1729": " certain",
  "1730": " among",
  "1731": "And",
  "1732": " hour",
  "1733": " meet",
  "1734": "empt",
  "1735": " once",
  "1736": "ivid",
  "1737": "ially",
  "1738": " Br",
  "1739": "back",
  "1740": "ubl",
  "1741": " ant",
  "1742": " understand",
  "1743": " Col",
  "1744": "ortun",
  "1745": " thought",
  "1746": " side",
  "1747": " desc",
  "1748": "iting",
  "1749": "urch",
  "1750": " means",
  "1751": "nect",
  "1752": "lf",
  "1753": " priv",
  "1754": " future",
  "1755": " across",
  "1756": " eng",
  "1757": " viol",
  "1758": " local",
  "1759": "ential",
  "1760": " course",
  "1761": "ggest",
  "1762": " product",
  "1763": " 11",
  "1764": "rew",
  "1765": " #",
  "1766": " investig",
  "1767": "ones",
  "1768": " hold",
  "1769": "ulation",
  "1770": "ler",
  "1771": "verage",
  "1772": "ended",
  "1773": " cho",
  "1774": " Obama",
  "1775": " known",
  "1776": " Mr",
  "1777": " reason",
  "1778": "gress",
  "1779": "ourn",
  "1780": "imate",
  "1781": " writ",
  "1782": " &",
  "1783": " On",
  "1784": "my",
  "1785": " activ",
  "1786": "book",
  "1787": " possible",
  "1788": " protect",
  "1789": " State",
  "1790": " suggest",
  "1791": "itive",
  "1792": " available",
  "1793": " problem",
  "1794": "�",
  "1795": "oci",
  "1796": " When",
  "1797": " non",
  "1798": "aged",
  "1799": " community",
  "1800": " yet",
  "1801": " asked",
  "1802": " light",
  "1803": " House",
  "1804": " video",
  "1805": " 2016",
  "1806": " orig",
  "1807": " makes",
  "1808": " author",
  "1809": "arm",
  "1810": "ede",
  "1811": " creat",
  "1812": " getting",
  "1813": " cut",
  "1814": "ensive",
  "1815": " believe",
  "1816": " cond",
  "1817": "not",
  "1818": "ederal",
  "1819": " given",
  "1820": " prob",
  "1821": " Europe",
  "1822": " 30",
  "1823": " ben",
  "1824": " reported",
  "1825": "urther",
  "1826": "ald",
  "1827": " others",
  "1828": "ober",
  "1829": "ging",
  "1830": "itions",
  "1831": "iety",
  "1832": " Christ",
  "1833": " net",
  "1834": " land",
  "1835": " ca",
  "1836": " Cent",
  "1837": "orld",
  "1838": "You",
  "1839": " Co",
  "1840": "ashing",
  "1841": " Fl",
  "1842": " mus",
  "1843": " i",
  "1844": "uly",
  "1845": "por",
  "1846": " announ",
  "1847": " Te",
  "1848": " strong",
  "1849": " ]",
  "1850": " death",
  "1851": "ances",
  "1852": " lim",
  "1853": " national",
  "1854": "iron",
  "1855": " Democrat",
  "1856": "12",
  "1857": " started",
  "1858": " 2014",
  "1859": " ago",
  "1860": " X",
  "1861": " ident",
  "1862": " sent",
  "1863": "aster",
  "1864": "ored",
  "1865": "rest",
  "1866": " half",
  "1867": " Am",
  "1868": "'ve",
  "1869": " employ",
  "1870": " 2015",
  "1871": " issue",
  "1872": " par",
  "1873": " mom",
  "1874": " hig",
  "1875": " close",
  "1876": " trying",
  "1877": "30",
  "1878": " access",
  "1879": " following",
  "1880": "hers",
  "1881": " University",
  "1882": " love",
  "1883": " history",
  "1884": " party",
  "1885": "AT",
  "1886": "orts",
  "1887": "ilar",
  "1888": " based",
  "1889": " saf",
  "1890": " comes",
  "1891": " Sen",
  "1892": " America",
  "1893": ".,",
  "1894": " sour",
  "1895": "For",
  "1896": "ination",
  "1897": "selves",
  "1898": " almost",
  "1899": " foc",
  "1900": "ana",
  "1901": "–",
  "1902": " series",
  "1903": " indust",
  "1904": " low",
  "1905": "resent",
  "1906": "ividual",
  "1907": "ument",
  "1908": " toget",
  "1909": " together",
  "1910": " idea",
  "1911": "use",
  "1912": "ability",
  "1913": "itional",
  "1914": " looking",
  "1915": " 16",
  "1916": " �",
  "1917": " account",
  "1918": "ograp",
  "1919": " six",
  "1920": " One",
  "1921": "utes",
  "1922": "of",
  "1923": "though",
  "1924": "ream",
  "1925": " added",
  "1926": " experience",
  "1927": "ales",
  "1928": "rict",
  "1929": " isn",
  "1930": " impro",
  "1931": " anything",
  "1932": "erence",
  "1933": "ails",
  "1934": "ief",
  "1935": "ote",
  "1936": " saying",
  "1937": "ring",
  "1938": " Min",
  "1939": "ustom",
  "1940": " clear",
  "1941": "ien",
  "1942": "aper",
  "1943": "witter",
  "1944": "IN",
  "1945": " er",
  "1946": "eb",
  "1947": " trad",
  "1948": " mor",
  "1949": "reed",
  "1950": "unch",
  "1951": " Af",
  "1952": "pro",
  "1953": "irc",
  "1954": "cer",
  "1955": " fav",
  "1956": "ev",
  "1957": " Pr",
  "1958": "ged",
  "1959": "sy",
  "1960": " anal",
  "1961": "aid",
  "1962": " area",
  "1963": " rul",
  "1964": " pract",
  "1965": "minist",
  "1966": "15",
  "1967": " complete",
  "1968": " /",
  "1969": " 14",
  "1970": "rown",
  "1971": " miss",
  "1972": " phot",
  "1973": " What",
  "1974": " face",
  "1975": "'m",
  "1976": " live",
  "1977": " present",
  "1978": "ris",
  "1979": " near",
  "1980": " court",
  "1981": " Ex",
  "1982": "play",
  "1983": "raw",
  "1984": " Eng",
  "1985": " individual",
  "1986": " compet",
  "1987": " vict",
  "1988": " film",
  "1989": " bill",
  "1990": " cult",
  "1991": "ows",
  "1992": " Canad",
  "1993": " single",
  "1994": "wards",
  "1995": " ris",
  "1996": " taken",
  "1997": "osp",
  "1998": "rug",
  "1999": " threat",
  "2000": " black",
  "2001": " Har",
  "2002": " mind",
  "2003": "go",
  "2004": " bad",
  "2005": " try",
  "2006": " rather",
  "2007": " entire",
  "2008": " mult",
  "2009": " Pol",
  "2010": " aut",
  "2011": " City",
  "2012": " colle",
  "2013": "cially",
  "2014": " proper",
  "2015": " War",
  "2016": "ai",
  "2017": " behind",
  "2018": " z",
  "2019": " 17",
  "2020": " military",
  "2021": " wanted",
  "2022": "erman",
  "2023": "uge",
  "2024": " Brit",
  "2025": " publ",
  "2026": "On",
  "2027": " concern",
  "2028": "What",
  "2029": "ids",
  "2030": " study",
  "2031": " Im",
  "2032": " quick",
  "2033": " North",
  "2034": "inton",
  "2035": "ators",
  "2036": " tot",
  "2037": " sum",
  "2038": " Cal",
  "2039": "par",
  "2040": " redu",
  "2041": " discuss",
  "2042": "atic",
  "2043": "nes",
  "2044": "off",
  "2045": " security",
  "2046": "af",
  "2047": " fall",
  "2048": " Don",
  "2049": "ON",
  "2050": " Gr",
  "2051": "rael",
  "2052": " player",
  "2053": " mess",
  "2054": " special",
  "2055": " policy",
  "2056": " foot",
  "2057": "An",
  "2058": " Sec",
  "2059": " points",
  "2060": " pret",
  "2061": " bring",
  "2062": "elt",
  "2063": "arter",
  "2064": " research",
  "2065": "When",
  "2066": " 13",
  "2067": " probably",
  "2068": " attempt",
  "2069": " To",
  "2070": " comb",
  "2071": "ashington",
  "2072": "ply",
  "2073": "lling",
  "2074": " pick",
  "2075": " Dep",
  "2076": " compan",
  "2077": " house",
  "2078": "ches",
  "2079": "rote",
  "2080": " someone",
  "2081": "lish",
  "2082": " taking",
  "2083": " key",
  "2084": " cou",
  "2085": "icult",
  "2086": " field",
  "2087": "irl",
  "2088": "RE",
  "2089": "16",
  "2090": " wa",
  "2091": " benef",
  "2092": "reme",
  "2093": "over",
  "2094": " imm",
  "2095": "AN",
  "2096": " Aust",
  "2097": " body",
  "2098": "ttp",
  "2099": "ify",
  "2100": " targ",
  "2101": " connect",
  "2102": " conv",
  "2103": " nothing",
  "2104": " similar",
  "2105": " coun",
  "2106": " front",
  "2107": " coming",
  "2108": " rights",
  "2109": "cing",
  "2110": "viron",
  "2111": " meas",
  "2112": " food",
  "2113": " jo",
  "2114": " signific",
  "2115": "ming",
  "2116": ".)",
  "2117": "So",
  "2118": " further",
  "2119": " else",
  "2120": " describ",
  "2121": " World",
  "2122": " space",
  "2123": " sw",
  "2124": " National",
  "2125": " lab",
  "2126": " ey",
  "2127": "IS",
  "2128": " either",
  "2129": " exist",
  "2130": " service",
  "2131": " learn",
  "2132": "ried",
  "2133": "yn",
  "2134": "�",
  "2135": " decision",
  "2136": " wrote",
  "2137": "amed",
  "2138": "Ad",
  "2139": " however",
  "2140": "arth",
  "2141": "___",
  "2142": "ww",
  "2143": "aces",
  "2144": " begin",
  "2145": "ault",
  "2146": "ully",
  "2147": " watch",
  "2148": "asing",
  "2149": "itted",
  "2150": " repl",
  "2151": " create",
  "2152": "That",
  "2153": "head",
  "2154": " 2013",
  "2155": " third",
  "2156": " With",
  "2157": " whole",
  "2158": " issues",
  "2159": "ively",
  "2160": " |",
  "2161": " ener",
  "2162": "://",
  "2163": " Washington",
  "2164": " relations",
  "2165": " sus",
  "2166": " +",
  "2167": " Man",
  "2168": " hit",
  "2169": "14",
  "2170": "olution",
  "2171": " enc",
  "2172": " chall",
  "2173": "ung",
  "2174": " released",
  "2175": " feat",
  "2176": " leaders",
  "2177": "oon",
  "2178": " mass",
  "2179": " compl",
  "2180": " step",
  "2181": " room",
  "2182": "pping",
  "2183": "rodu",
  "2184": " tra",
  "2185": " companies",
  "2186": " Gu",
  "2187": " doc",
  "2188": " seems",
  "2189": " stop",
  "2190": " Clinton",
  "2191": " 25",
  "2192": " Dav",
  "2193": "ently",
  "2194": "pite",
  "2195": " due",
  "2196": " opt",
  "2197": " dam",
  "2198": "aul",
  "2199": "ape",
  "2200": " Ed",
  "2201": "lam",
  "2202": " :",
  "2203": " custom",
  "2204": " cand",
  "2205": " federal",
  "2206": " fire",
  "2207": " fig",
  "2208": " super",
  "2209": " Israel",
  "2210": " everything",
  "2211": " outside",
  "2212": " began",
  "2213": " Jan",
  "2214": " dou",
  "2215": " Inst",
  "2216": " final",
  "2217": " However",
  "2218": " character",
  "2219": "ran",
  "2220": "now",
  "2221": "amer",
  "2222": " break",
  "2223": " development",
  "2224": " init",
  "2225": " self",
  "2226": "umb",
  "2227": "reg",
  "2228": " amount",
  "2229": "eal",
  "2230": "arlier",
  "2231": " matter",
  "2232": "sw",
  "2233": " Bar",
  "2234": "ades",
  "2235": " Part",
  "2236": "mb",
  "2237": " itself",
  "2238": " position",
  "2239": " tre",
  "2240": " general",
  "2241": " stri",
  "2242": " gun",
  "2243": "ibility",
  "2244": " South",
  "2245": " Ge",
  "2246": "lement",
  "2247": " treat",
  "2248": " continue",
  "2249": "pecially",
  "2250": "anks",
  "2251": "ivil",
  "2252": " states",
  "2253": "ender",
  "2254": "___",
  "2255": " exec",
  "2256": "lu",
  "2257": "AR",
  "2258": " Med",
  "2259": "uation",
  "2260": " sound",
  "2261": " statement",
  "2262": "iday",
  "2263": " 2012",
  "2264": " became",
  "2265": "ograph",
  "2266": " himself",
  "2267": "ili",
  "2268": "lim",
  "2269": " role",
  "2270": "attle",
  "2271": " neg",
  "2272": " Intern",
  "2273": " stat",
  "2274": " students",
  "2275": "sec",
  "2276": "ery",
  "2277": " Su",
  "2278": " officials",
  "2279": " 2017",
  "2280": " wasn",
  "2281": "vironment",
  "2282": " themselves",
  "2283": " office",
  "2284": " ball",
  "2285": "ilt",
  "2286": " inj",
  "2287": "like",
  "2288": "�",
  "2289": "acebook",
  "2290": " provide",
  "2291": " woman",
  "2292": " agree",
  "2293": " action",
  "2294": "Ch",
  "2295": " red",
  "2296": "ogn",
  "2297": " larg",
  "2298": " significant",
  "2299": " running",
  "2300": "obal",
  "2301": "BC",
  "2302": " difficult",
  "2303": " specific",
  "2304": " profess",
  "2305": " hours",
  "2306": " played",
  "2307": " deep",
  "2308": " capt",
  "2309": " phys",
  "2310": " building",
  "2311": " administ",
  "2312": "18",
  "2313": "aced",
  "2314": " ground",
  "2315": " lat",
  "2316": " true",
  "2317": "irt",
  "2318": " simply",
  "2319": " interview",
  "2320": " playing",
  "2321": " cop",
  "2322": " charg",
  "2323": " 100",
  "2324": " represent",
  "2325": " dom",
  "2326": "13",
  "2327": " Just",
  "2328": " saw",
  "2329": " above",
  "2330": " common",
  "2331": "ournal",
  "2332": "body",
  "2333": "right",
  "2334": " below",
  "2335": " App",
  "2336": " ap",
  "2337": " mag",
  "2338": " countries",
  "2339": "'ll",
  "2340": "oid",
  "2341": "iddle",
  "2342": " Res",
  "2343": " energy",
  "2344": " evidence",
  "2345": "ask",
  "2346": "atur",
  "2347": "angu",
  "2348": "eks",
  "2349": " drug",
  "2350": " sense",
  "2351": " shows",
  "2352": " groups",
  "2353": " respons",
  "2354": " friends",
  "2355": "iod",
  "2356": " white",
  "2357": " pretty",
  "2358": " needs",
  "2359": "time",
  "2360": " lost",
  "2361": " exc",
  "2362": " everyone",
  "2363": "é",
  "2364": " Ab",
  "2365": " 50",
  "2366": " track",
  "2367": " Ass",
  "2368": " tem",
  "2369": "ique",
  "2370": " dest",
  "2371": " version",
  "2372": "ij",
  "2373": " typ",
  "2374": " China",
  "2375": " address",
  "2376": " His",
  "2377": " bar",
  "2378": " Mus",
  "2379": "ift",
  "2380": "ser",
  "2381": " )",
  "2382": " value",
  "2383": "ached",
  "2384": "17",
  "2385": " recently",
  "2386": " needed",
  "2387": " pain",
  "2388": " rad",
  "2389": "yle",
  "2390": " forward",
  "2391": " Car",
  "2392": " 198",
  "2393": " West",
  "2394": " changes",
  "2395": " candid",
  "2396": " music",
  "2397": " hom",
  "2398": " di",
  "2399": " release",
  "2400": "ogle",
  "2401": " ep",
  "2402": " include",
  "2403": "ccording",
  "2404": "omm",
  "2405": " gen",
  "2406": " alleg",
  "2407": "ribut",
  "2408": "oke",
  "2409": " quite",
  "2410": " late",
  "2411": "isc",
  "2412": " tit",
  "2413": " industry",
  "2414": " election",
  "2415": "istic",
  "2416": " circ",
  "2417": "ned",
  "2418": " mot",
  "2419": "eg",
  "2420": " online",
  "2421": " White",
  "2422": " instead",
  "2423": " After",
  "2424": "den",
  "2425": "ele",
  "2426": " German",
  "2427": " site",
  "2428": "oring",
  "2429": " weeks",
  "2430": "arc",
  "2431": "ST",
  "2432": "epend",
  "2433": " deter",
  "2434": " anim",
  "2435": " moment",
  "2436": "osing",
  "2437": " accept",
  "2438": "ental",
  "2439": " host",
  "2440": " jud",
  "2441": " legal",
  "2442": "ights",
  "2443": " shoot",
  "2444": " opportun",
  "2445": " vote",
  "2446": " Twitter",
  "2447": "itting",
  "2448": "eed",
  "2449": "ients",
  "2450": " abs",
  "2451": " ple",
  "2452": "Al",
  "2453": " especially",
  "2454": "where",
  "2455": " wrong",
  "2456": " relig",
  "2457": " parent",
  "2458": " goal",
  "2459": "How",
  "2460": " pie",
  "2461": " suff",
  "2462": " decl",
  "2463": "bo",
  "2464": "ival",
  "2465": " webs",
  "2466": " My",
  "2467": " Not",
  "2468": " soon",
  "2469": "apt",
  "2470": " 24",
  "2471": " object",
  "2472": " pred",
  "2473": " Cong",
  "2474": " economic",
  "2475": " longer",
  "2476": " Republican",
  "2477": " higher",
  "2478": "medi",
  "2479": " hope",
  "2480": " block",
  "2481": "ularly",
  "2482": "ees",
  "2483": "ager",
  "2484": " educ",
  "2485": " Will",
  "2486": " held",
  "2487": "ham",
  "2488": "irm",
  "2489": " walk",
  "2490": " period",
  "2491": "**",
  "2492": " Aug",
  "2493": " Dr",
  "2494": " billion",
  "2495": " focus",
  "2496": "oph",
  "2497": "They",
  "2498": " technology",
  "2499": " consum",
  "2500": " News",
  "2501": "asons",
  "2502": " review",
  "2503": "lt",
  "2504": " code",
  "2505": " laws",
  "2506": "ript",
  "2507": " Sept",
  "2508": "oe",
  "2509": " works",
  "2510": " stay",
  "2511": " share",
  "2512": "cial",
  "2513": " Department",
  "2514": " Oct",
  "2515": "onse",
  "2516": " target",
  "2517": "ray",
  "2518": " Mich",
  "2519": " check",
  "2520": "iding",
  "2521": " These",
  "2522": " consider",
  "2523": " lo",
  "2524": " March",
  "2525": "duct",
  "2526": "hod",
  "2527": " stru",
  "2528": " led",
  "2529": " personal",
  "2530": "cle",
  "2531": " hy",
  "2532": "overed",
  "2533": "ole",
  "2534": " reve",
  "2535": " results",
  "2536": " anyone",
  "2537": " vol",
  "2538": " Austral",
  "2539": " age",
  "2540": " dead",
  "2541": "ude",
  "2542": " words",
  "2543": " minutes",
  "2544": " sold",
  "2545": " den",
  "2546": " potential",
  "2547": "cil",
  "2548": " Ste",
  "2549": " earlier",
  "2550": " contract",
  "2551": " wind",
  "2552": "key",
  "2553": "hern",
  "2554": "rel",
  "2555": " Sm",
  "2556": " favor",
  "2557": " base",
  "2558": "ateg",
  "2559": " July",
  "2560": " total",
  "2561": " services",
  "2562": " rate",
  "2563": " applic",
  "2564": "pril",
  "2565": "�",
  "2566": " prim",
  "2567": " risk",
  "2568": " �",
  "2569": " necess",
  "2570": "alt",
  "2571": "aging",
  "2572": "action",
  "2573": " June",
  "2574": "hel",
  "2575": " force",
  "2576": " popular",
  "2577": "ilities",
  "2578": " impact",
  "2579": " Facebook",
  "2580": " scient",
  "2581": "uary",
  "2582": "isl",
  "2583": " article",
  "2584": " En",
  "2585": "haps",
  "2586": " speak",
  "2587": " rev",
  "2588": " Mond",
  "2589": "AS",
  "2590": "anger",
  "2591": "ourt",
  "2592": " ways",
  "2593": " created",
  "2594": "iter",
  "2595": "ends",
  "2596": " <",
  "2597": "uel",
  "2598": " aud",
  "2599": "icro",
  "2600": " surpr",
  "2601": " problems",
  "2602": "fect",
  "2603": " God",
  "2604": " Red",
  "2605": "aut",
  "2606": " 2011",
  "2607": " cannot",
  "2608": "EN",
  "2609": " anti",
  "2610": "fer",
  "2611": " upd",
  "2612": " respect",
  "2613": " expected",
  "2614": " coll",
  "2615": " shot",
  "2616": " answ",
  "2617": "itution",
  "2618": " questions",
  "2619": "25",
  "2620": "iple",
  "2621": " club",
  "2622": "Ph",
  "2623": " private",
  "2624": "apan",
  "2625": " express",
  "2626": " increase",
  "2627": " involved",
  "2628": " Congress",
  "2629": "val",
  "2630": " cred",
  "2631": "ples",
  "2632": "itten",
  "2633": " received",
  "2634": "itiz",
  "2635": "reet",
  "2636": " function",
  "2637": " easy",
  "2638": "oto",
  "2639": " Syri",
  "2640": "ancial",
  "2641": " environment",
  "2642": " comment",
  "2643": "cast",
  "2644": "ctor",
  "2645": " content",
  "2646": " subject",
  "2647": " comput",
  "2648": " mater",
  "2649": "aving",
  "2650": " langu",
  "2651": "ams",
  "2652": " Pe",
  "2653": " Hill",
  "2654": " port",
  "2655": " Monday",
  "2656": "OR",
  "2657": " price",
  "2658": " announced",
  "2659": " pack",
  "2660": " tou",
  "2661": " relationship",
  "2662": " users",
  "2663": "che",
  "2664": " exact",
  "2665": " broad",
  "2666": " heart",
  "2667": "atives",
  "2668": " pur",
  "2669": " staff",
  "2670": " Do",
  "2671": " civil",
  "2672": "put",
  "2673": " sen",
  "2674": " San",
  "2675": " nearly",
  "2676": "ittee",
  "2677": " response",
  "2678": " original",
  "2679": " Calif",
  "2680": " execut",
  "2681": "ule",
  "2682": " reports",
  "2683": "atural",
  "2684": "lled",
  "2685": " living",
  "2686": " cases",
  "2687": " Count",
  "2688": " Friday",
  "2689": "lex",
  "2690": "ires",
  "2691": " April",
  "2692": " arrest",
  "2693": "ites",
  "2694": " mother",
  "2695": "ips",
  "2696": "uesday",
  "2697": " cal",
  "2698": "ops",
  "2699": "hood",
  "2700": " collect",
  "2701": "onst",
  "2702": " inside",
  "2703": " oil",
  "2704": "okes",
  "2705": " terms",
  "2706": " worked",
  "2707": "ests",
  "2708": " Wed",
  "2709": " store",
  "2710": " TV",
  "2711": " becom",
  "2712": " nation",
  "2713": " Pal",
  "2714": " type",
  "2715": " div",
  "2716": " {",
  "2717": " squ",
  "2718": "mon",
  "2719": "ael",
  "2720": "mp",
  "2721": "At",
  "2722": "rought",
  "2723": " respond",
  "2724": "eter",
  "2725": " fans",
  "2726": "ellig",
  "2727": " girl",
  "2728": "60",
  "2729": " round",
  "2730": "ought",
  "2731": " average",
  "2732": " Now",
  "2733": " 197",
  "2734": " ur",
  "2735": " immedi",
  "2736": " soft",
  "2737": " teams",
  "2738": "org",
  "2739": " lack",
  "2740": "omb",
  "2741": " Sund",
  "2742": " Russia",
  "2743": " published",
  "2744": "joy",
  "2745": " international",
  "2746": " killed",
  "2747": " takes",
  "2748": "\".",
  "2749": "oor",
  "2750": "bit",
  "2751": " worth",
  "2752": "ech",
  "2753": "ext",
  "2754": " Americans",
  "2755": "izing",
  "2756": " Tuesday",
  "2757": " 40",
  "2758": " estab",
  "2759": "istan",
  "2760": "ctions",
  "2761": " 2010",
  "2762": "To",
  "2763": " network",
  "2764": " Islam",
  "2765": " terror",
  "2766": " Afric",
  "2767": " workers",
  "2768": " ability",
  "2769": " chance",
  "2770": "nesday",
  "2771": " gave",
  "2772": " defin",
  "2773": " cy",
  "2774": " associ",
  "2775": " arri",
  "2776": "vertise",
  "2777": " While",
  "2778": " adm",
  "2779": " British",
  "2780": " Ang",
  "2781": " Google",
  "2782": " director",
  "2783": " career",
  "2784": " cell",
  "2785": " whose",
  "2786": " mid",
  "2787": " decided",
  "2788": "ese",
  "2789": " leave",
  "2790": "rain",
  "2791": "ises",
  "2792": " numbers",
  "2793": "ornia",
  "2794": "icated",
  "2795": "oved",
  "2796": " weap",
  "2797": " fem",
  "2798": " happened",
  "2799": "ological",
  "2800": "clus",
  "2801": " emer",
  "2802": " buy",
  "2803": "ners",
  "2804": "based",
  "2805": " capital",
  "2806": " Japan",
  "2807": " affect",
  "2808": "ky",
  "2809": " model",
  "2810": " source",
  "2811": "aily",
  "2812": " et",
  "2813": " bur",
  "2814": " @",
  "2815": " goes",
  "2816": " road",
  "2817": " Nove",
  "2818": "unt",
  "2819": " Some",
  "2820": " lives",
  "2821": " Act",
  "2822": "One",
  "2823": " log",
  "2824": " Off",
  "2825": " influ",
  "2826": " turned",
  "2827": " Per",
  "2828": " tal",
  "2829": " plans",
  "2830": " match",
  "2831": "aur",
  "2832": "bl",
  "2833": " currently",
  "2834": " recogn",
  "2835": " global",
  "2836": "ursday",
  "2837": " approach",
  "2838": " Wednesday",
  "2839": " phone",
  "2840": " material",
  "2841": " ste",
  "2842": " require",
  "2843": " 22",
  "2844": "osition",
  "2845": " foreign",
  "2846": " By",
  "2847": " David",
  "2848": " September",
  "2849": " El",
  "2850": " offer",
  "2851": " situation",
  "2852": " administration",
  "2853": " thous",
  "2854": " events",
  "2855": "order",
  "2856": " mis",
  "2857": " Cor",
  "2858": "bor",
  "2859": " Sch",
  "2860": "fully",
  "2861": " regard",
  "2862": "ills",
  "2863": " introdu",
  "2864": " January",
  "2865": " Ag",
  "2866": "hem",
  "2867": " Bro",
  "2868": " couple",
  "2869": " hon",
  "2870": " Gl",
  "2871": " lower",
  "2872": " trade",
  "2873": "ino",
  "2874": "oo",
  "2875": " Paul",
  "2876": " August",
  "2877": " loss",
  "2878": " Court",
  "2879": " felt",
  "2880": " pict",
  "2881": "ume",
  "2882": "set",
  "2883": " boy",
  "2884": " improve",
  "2885": " member",
  "2886": " ill",
  "2887": " 21",
  "2888": "lev",
  "2889": "oud",
  "2890": " method",
  "2891": " bank",
  "2892": " huge",
  "2893": " repe",
  "2894": " pull",
  "2895": " website",
  "2896": " race",
  "2897": " tool",
  "2898": "AC",
  "2899": " father",
  "2900": " Sunday",
  "2901": " Me",
  "2902": " California",
  "2903": " secret",
  "2904": " struct",
  "2905": " fre",
  "2906": " page",
  "2907": "load",
  "2908": "rect",
  "2909": " quickly",
  "2910": " legisl",
  "2911": " wide",
  "2912": " simple",
  "2913": " meeting",
  "2914": " heard",
  "2915": " performance",
  "2916": "ety",
  "2917": " knew",
  "2918": " Thursday",
  "2919": "orters",
  "2920": "estern",
  "2921": " Feb",
  "2922": " financial",
  "2923": " dig",
  "2924": " movement",
  "2925": " travel",
  "2926": "ruction",
  "2927": " areas",
  "2928": " tried",
  "2929": " via",
  "2930": " text",
  "2931": " November",
  "2932": " cover",
  "2933": "”.",
  "2934": " pers",
  "2935": "ened",
  "2936": "40",
  "2937": " norm",
  "2938": "sych",
  "2939": "ening",
  "2940": " reach",
  "2941": "uses",
  "2942": " town",
  "2943": " behav",
  "2944": " ord",
  "2945": "atory",
  "2946": " economy",
  "2947": "aker",
  "2948": " reveal",
  "2949": " poll",
  "2950": " Center",
  "2951": " enjoy",
  "2952": "gest",
  "2953": " production",
  "2954": " built",
  "2955": "Sh",
  "2956": " allowed",
  "2957": " hands",
  "2958": " particip",
  "2959": " included",
  "2960": "ification",
  "2961": "chie",
  "2962": " fear",
  "2963": "...",
  "2964": " separ",
  "2965": ");",
  "2966": " board",
  "2967": " wants",
  "2968": "'d",
  "2969": " victim",
  "2970": "down",
  "2971": "lin",
  "2972": "urd",
  "2973": " fell",
  "2974": "iction",
  "2975": " particular",
  "2976": " 23",
  "2977": " email",
  "2978": " visit",
  "2979": " brought",
  "2980": "force",
  "2981": " http",
  "2982": " previous",
  "2983": " Black",
  "2984": "face",
  "2985": " Post",
  "2986": " aren",
  "2987": " cause",
  "2988": " morning",
  "2989": "uk",
  "2990": "ceed",
  "2991": "After",
  "2992": " size",
  "2993": " attention",
  "2994": "raz",
  "2995": " hot",
  "2996": "idered",
  "2997": " star",
  "2998": "With",
  "2999": " spent",
  "3000": " veh",
  "3001": " Senate",
  "3002": " latest",
  "3003": " ens",
  "3004": "avy",
  "3005": " paper",
  "3006": " mention",
  "3007": " October",
  "3008": "?”",
  "3009": " perfect",
  "3010": " forces",
  "3011": "ES",
  "3012": "99",
  "3013": "ession",
  "3014": " Sw",
  "3015": " Canada",
  "3016": " Qu",
  "3017": "iant",
  "3018": " neigh",
  "3019": " engine",
  "3020": " training",
  "3021": "uf",
  "3022": "о",
  "3023": "IT",
  "3024": "ibly",
  "3025": "undred",
  "3026": "While",
  "3027": " demand",
  "3028": "ondon",
  "3029": " Tex",
  "3030": "ences",
  "3031": " 2008",
  "3032": " population",
  "3033": "arily",
  "3034": "ston",
  "3035": "ille",
  "3036": "agement",
  "3037": " link",
  "3038": "alled",
  "3039": "\",",
  "3040": " looks",
  "3041": " leader",
  "3042": "iers",
  "3043": " Jew",
  "3044": "000",
  "3045": "fl",
  "3046": "ledge",
  "3047": " Par",
  "3048": "cember",
  "3049": "aturday",
  "3050": " levels",
  "3051": " Russian",
  "3052": " rac",
  "3053": "sequ",
  "3054": " bi",
  "3055": " wond",
  "3056": "yond",
  "3057": "hold",
  "3058": "het",
  "3059": " Park",
  "3060": " progress",
  "3061": "icles",
  "3062": "ett",
  "3063": " citiz",
  "3064": " independ",
  "3065": " exam",
  "3066": " European",
  "3067": " gets",
  "3068": " fair",
  "3069": " various",
  "3070": " growth",
  "3071": "ps",
  "3072": " fast",
  "3073": " box",
  "3074": " Times",
  "3075": " coach",
  "3076": " India",
  "3077": "ma",
  "3078": "AL",
  "3079": " contact",
  "3080": " talking",
  "3081": " vo",
  "3082": " Cont",
  "3083": " Party",
  "3084": "200",
  "3085": "ecause",
  "3086": "aries",
  "3087": "rim",
  "3088": " Her",
  "3089": " bud",
  "3090": " considered",
  "3091": " }",
  "3092": " search",
  "3093": "idents",
  "3094": " sort",
  "3095": " strugg",
  "3096": " doll",
  "3097": " League",
  "3098": " County",
  "3099": " medical",
  "3100": " und",
  "3101": " image",
  "3102": "ope",
  "3103": "inks",
  "3104": " hor",
  "3105": " investigation",
  "3106": " addition",
  "3107": "uit",
  "3108": "ED",
  "3109": "ground",
  "3110": " parents",
  "3111": " language",
  "3112": " sett",
  "3113": " IS",
  "3114": " sens",
  "3115": " rules",
  "3116": "Tr",
  "3117": "ico",
  "3118": "vent",
  "3119": "pir",
  "3120": " prison",
  "3121": "bed",
  "3122": "ani",
  "3123": " range",
  "3124": "atform",
  "3125": "wo",
  "3126": " speed",
  "3127": " ess",
  "3128": " Iran",
  "3129": " reb",
  "3130": "field",
  "3131": " Street",
  "3132": "ysis",
  "3133": " conduct",
  "3134": "ny",
  "3135": "uments",
  "3136": "elligence",
  "3137": "omp",
  "3138": " Kore",
  "3139": " critic",
  "3140": "raq",
  "3141": "come",
  "3142": "igr",
  "3143": "unk",
  "3144": "eared",
  "3145": "aph",
  "3146": " features",
  "3147": " son",
  "3148": "zz",
  "3149": "eth",
  "3150": " written",
  "3151": "IC",
  "3152": " serious",
  "3153": "idge",
  "3154": " Pat",
  "3155": " slow",
  "3156": " increasing",
  "3157": " bott",
  "3158": " Mark",
  "3159": "vey",
  "3160": " liber",
  "3161": " Saturday",
  "3162": "aming",
  "3163": " December",
  "3164": " stuff",
  "3165": " sexual",
  "3166": " achie",
  "3167": "ication",
  "3168": " Muslim",
  "3169": "ining",
  "3170": " society",
  "3171": " 28",
  "3172": "ze",
  "3173": " extreme",
  "3174": " attacks",
  "3175": " prep",
  "3176": " seven",
  "3177": "light",
  "3178": " modern",
  "3179": "cies",
  "3180": " song",
  "3181": " jobs",
  "3182": " upon",
  "3183": " eight",
  "3184": " document",
  "3185": " prevent",
  "3186": "imately",
  "3187": "isions",
  "3188": " middle",
  "3189": " spokes",
  "3190": "е",
  "3191": " London",
  "3192": " hear",
  "3193": " More",
  "3194": " guy",
  "3195": " journal",
  "3196": "vertisement",
  "3197": "ida",
  "3198": " seek",
  "3199": " systems",
  "3200": " UK",
  "3201": "abor",
  "3202": " particularly",
  "3203": " stories",
  "3204": "FL",
  "3205": "Im",
  "3206": " doub",
  "3207": " card",
  "3208": "rench",
  "3209": " hous",
  "3210": " draw",
  "3211": " term",
  "3212": "urt",
  "3213": " despite",
  "3214": " opportunity",
  "3215": " extra",
  "3216": " inn",
  "3217": "erc",
  "3218": " message",
  "3219": "oman",
  "3220": " Iraq",
  "3221": " dro",
  "3222": "anced",
  "3223": " sn",
  "3224": " required",
  "3225": "ruary",
  "3226": " obv",
  "3227": "OP",
  "3228": "entially",
  "3229": " mach",
  "3230": " defense",
  "3231": " biggest",
  "3232": " summer",
  "3233": " resour",
  "3234": "room",
  "3235": " blood",
  "3236": "­",
  "3237": " prior",
  "3238": "eff",
  "3239": " regul",
  "3240": " 26",
  "3241": "fort",
  "3242": " majority",
  "3243": " costs",
  "3244": " cross",
  "3245": "atter",
  "3246": "icks",
  "3247": " effort",
  "3248": " violence",
  "3249": " Donald",
  "3250": " completely",
  "3251": " products",
  "3252": "ament",
  "3253": "ges",
  "3254": " pen",
  "3255": " quarter",
  "3256": "itch",
  "3257": " table",
  "3258": " carry",
  "3259": "illed",
  "3260": " McC",
  "3261": " imag",
  "3262": " hundred",
  "3263": " natural",
  "3264": " aw",
  "3265": " surv",
  "3266": " culture",
  "3267": " died",
  "3268": " Em",
  "3269": "ago",
  "3270": "akers",
  "3271": "aves",
  "3272": " East",
  "3273": "nces",
  "3274": " remain",
  "3275": "rast",
  "3276": " occur",
  "3277": " interesting",
  "3278": "asc",
  "3279": "lear",
  "3280": "ishing",
  "3281": " reading",
  "3282": "She",
  "3283": " ult",
  "3284": " histor",
  "3285": " looked",
  "3286": " gas",
  "3287": " ...",
  "3288": " Net",
  "3289": " mob",
  "3290": " certainly",
  "3291": "lying",
  "3292": "reedom",
  "3293": " convers",
  "3294": " showed",
  "3295": " described",
  "3296": " rout",
  "3297": " officers",
  "3298": " Mor",
  "3299": " leading",
  "3300": " answer",
  "3301": " 27",
  "3302": " ones",
  "3303": " exactly",
  "3304": " region",
  "3305": " claims",
  "3306": " paid",
  "3307": "ford",
  "3308": " lay",
  "3309": "aught",
  "3310": "inally",
  "3311": " increased",
  "3312": " except",
  "3313": "aly",
  "3314": " finally",
  "3315": " Int",
  "3316": " quality",
  "3317": " Jack",
  "3318": " sometimes",
  "3319": "uing",
  "3320": " conserv",
  "3321": " changed",
  "3322": "22",
  "3323": " climate",
  "3324": " football",
  "3325": " continued",
  "3326": "oses",
  "3327": " camer",
  "3328": "utions",
  "3329": " Republicans",
  "3330": "ension",
  "3331": " starting",
  "3332": " practice",
  "3333": " science",
  "3334": " Spe",
  "3335": " education",
  "3336": " crim",
  "3337": " Texas",
  "3338": " Coun",
  "3339": " experien",
  "3340": "ously",
  "3341": "tr",
  "3342": " named",
  "3343": " Sand",
  "3344": " writing",
  "3345": " comments",
  "3346": "orge",
  "3347": "ospital",
  "3348": " write",
  "3349": "ibr",
  "3350": "enge",
  "3351": " growing",
  "3352": " giving",
  "3353": " Ke",
  "3354": " wouldn",
  "3355": " Indian",
  "3356": " standard",
  "3357": " assist",
  "3358": " tro",
  "3359": "ara",
  "3360": " remains",
  "3361": " poor",
  "3362": " Soc",
  "3363": " 2009",
  "3364": "HE",
  "3365": " user",
  "3366": " screen",
  "3367": " failed",
  "3368": " £",
  "3369": "ari",
  "3370": "inese",
  "3371": " Cons",
  "3372": "yl",
  "3373": " provided",
  "3374": " *",
  "3375": "arr",
  "3376": " parts",
  "3377": "ports",
  "3378": " path",
  "3379": " danger",
  "3380": "oul",
  "3381": "using",
  "3382": " purch",
  "3383": " thinking",
  "3384": " multiple",
  "3385": " request",
  "3386": "No",
  "3387": " Bill",
  "3388": " movie",
  "3389": "iment",
  "3390": " James",
  "3391": " chief",
  "3392": "tain",
  "3393": " demonst",
  "3394": " unf",
  "3395": "AM",
  "3396": " platform",
  "3397": " effects",
  "3398": " …",
  "3399": "inary",
  "3400": " guys",
  "3401": " Even",
  "3402": " league",
  "3403": "][",
  "3404": "ables",
  "3405": " Democratic",
  "3406": " English",
  "3407": " purp",
  "3408": " February",
  "3409": "oper",
  "3410": "isi",
  "3411": "coin",
  "3412": " kids",
  "3413": " damage",
  "3414": " rob",
  "3415": " alone",
  "3416": " center",
  "3417": "mit",
  "3418": " (@",
  "3419": " cele",
  "3420": " brain",
  "3421": " couldn",
  "3422": " reality",
  "3423": " throughout",
  "3424": "eneral",
  "3425": " details",
  "3426": " ban",
  "3427": " King",
  "3428": " although",
  "3429": "urning",
  "3430": "23",
  "3431": " thousands",
  "3432": " Mon",
  "3433": "urance",
  "3434": " researc",
  "3435": " directly",
  "3436": " pan",
  "3437": " voters",
  "3438": " file",
  "3439": " includes",
  "3440": " consist",
  "3441": "amb",
  "3442": " Michael",
  "3443": " books",
  "3444": " towards",
  "3445": " touch",
  "3446": " Des",
  "3447": " safe",
  "3448": "OT",
  "3449": "24",
  "3450": " additional",
  "3451": " subst",
  "3452": "rs",
  "3453": " ready",
  "3454": " fix",
  "3455": " beyond",
  "3456": "pper",
  "3457": "itness",
  "3458": " usually",
  "3459": " ahead",
  "3460": " Serv",
  "3461": "itute",
  "3462": " passed",
  "3463": " perhaps",
  "3464": "BI",
  "3465": "■",
  "3466": " date",
  "3467": "ampions",
  "3468": " implement",
  "3469": " immediately",
  "3470": " efforts",
  "3471": " swe",
  "3472": "ban",
  "3473": " epis",
  "3474": " avoid",
  "3475": " mill",
  "3476": " dark",
  "3477": "hib",
  "3478": "adem",
  "3479": "na",
  "3480": " counter",
  "3481": " concept",
  "3482": " remember",
  "3483": " item",
  "3484": " recomm",
  "3485": " debate",
  "3486": " calls",
  "3487": " il",
  "3488": " toward",
  "3489": " earn",
  "3490": " title",
  "3491": " score",
  "3492": "astic",
  "3493": "ingin",
  "3494": "anch",
  "3495": " select",
  "3496": "hest",
  "3497": "Cl",
  "3498": " piece",
  "3499": "wise",
  "3500": " letter",
  "3501": " sat",
  "3502": " sell",
  "3503": " safety",
  "3504": " gone",
  "3505": " Democrats",
  "3506": " clean",
  "3507": " choice",
  "3508": " ver",
  "3509": " sle",
  "3510": " meaning",
  "3511": "cient",
  "3512": " option",
  "3513": "raight",
  "3514": " beginning",
  "3515": " scene",
  "3516": " relative",
  "3517": "Now",
  "3518": "OS",
  "3519": "ications",
  "3520": "egr",
  "3521": " cast",
  "3522": " reasons",
  "3523": "rupt",
  "3524": " conditions",
  "3525": "ression",
  "3526": " appears",
  "3527": " opin",
  "3528": "а",
  "3529": "rief",
  "3530": "ha",
  "3531": " helped",
  "3532": "All",
  "3533": " launch",
  "3534": " agency",
  "3535": " Minister",
  "3536": " psych",
  "3537": " disapp",
  "3538": "aches",
  "3539": " Chinese",
  "3540": "inated",
  "3541": " designed",
  "3542": " Tur",
  "3543": " dog",
  "3544": " difference",
  "3545": "atever",
  "3546": " wife",
  "3547": " x",
  "3548": " receive",
  "3549": " ten",
  "3550": " Ser",
  "3551": " Green",
  "3552": "roy",
  "3553": " century",
  "3554": " throw",
  "3555": "==",
  "3556": "AD",
  "3557": " officer",
  "3558": " color",
  "3559": " college",
  "3560": " moved",
  "3561": " 60",
  "3562": "oes",
  "3563": " Rober",
  "3564": " Associ",
  "3565": " property",
  "3566": " dise",
  "3567": " challeng",
  "3568": " figure",
  "3569": " William",
  "3570": "irth",
  "3571": " deg",
  "3572": "men",
  "3573": "riage",
  "3574": " speech",
  "3575": " physical",
  "3576": "omen",
  "3577": " ign",
  "3578": "ean",
  "3579": "ilies",
  "3580": " First",
  "3581": "uclear",
  "3582": " Ne",
  "3583": " pressure",
  "3584": " clos",
  "3585": " Bo",
  "3586": " Day",
  "3587": " aim",
  "3588": " ut",
  "3589": " compared",
  "3590": " maybe",
  "3591": " suspect",
  "3592": " sil",
  "3593": " copy",
  "3594": "ube",
  "3595": " corpor",
  "3596": "imum",
  "3597": "berg",
  "3598": "ivity",
  "3599": "sp",
  "3600": "ux",
  "3601": "By",
  "3602": " complex",
  "3603": " sal",
  "3604": " Of",
  "3605": " Rich",
  "3606": " Then",
  "3607": " 29",
  "3608": " Mex",
  "3609": "icient",
  "3610": "arian",
  "3611": " software",
  "3612": " income",
  "3613": " student",
  "3614": "new",
  "3615": "AP",
  "3616": " nature",
  "3617": " Che",
  "3618": "aughter",
  "3619": " eyes",
  "3620": "airs",
  "3621": " myself",
  "3622": "iles",
  "3623": " encour",
  "3624": "venue",
  "3625": " smart",
  "3626": "?\"",
  "3627": " crow",
  "3628": "Is",
  "3629": " alleged",
  "3630": "itor",
  "3631": " arch",
  "3632": " device",
  "3633": " rock",
  "3634": " fan",
  "3635": "80",
  "3636": " necessary",
  "3637": "iable",
  "3638": " happy",
  "3639": "ufact",
  "3640": "US",
  "3641": " park",
  "3642": "olute",
  "3643": " characters",
  "3644": " organization",
  "3645": " �",
  "3646": " cool",
  "3647": " moving",
  "3648": " largest",
  "3649": " Play",
  "3650": " followed",
  "3651": " estim",
  "3652": " politics",
  "3653": " actions",
  "3654": "My",
  "3655": "ocked",
  "3656": " powerful",
  "3657": "just",
  "3658": " prem",
  "3659": "agon",
  "3660": " meant",
  "3661": " Val",
  "3662": "wood",
  "3663": " treatment",
  "3664": "Re",
  "3665": " spending",
  "3666": " aware",
  "3667": " web",
  "3668": "resh",
  "3669": " wall",
  "3670": " blog",
  "3671": " analysis",
  "3672": "ero",
  "3673": " Mart",
  "3674": " tour",
  "3675": " feed",
  "3676": "iring",
  "3677": "arning",
  "3678": " positive",
  "3679": " nom",
  "3680": " citizens",
  "3681": " shown",
  "3682": " display",
  "3683": " esc",
  "3684": " candidate",
  "3685": " yourself",
  "3686": " twe",
  "3687": "enty",
  "3688": "yan",
  "3689": " limited",
  "3690": " stage",
  "3691": "ota",
  "3692": " II",
  "3693": " budget",
  "3694": "osh",
  "3695": "erve",
  "3696": " sales",
  "3697": "Advertisement",
  "3698": "urg",
  "3699": "inn",
  "3700": " yes",
  "3701": "more",
  "3702": " prec",
  "3703": " schools",
  "3704": " band",
  "3705": " charge",
  "3706": " computer",
  "3707": "uty",
  "3708": "itation",
  "3709": " French",
  "3710": " contribut",
  "3711": "orks",
  "3712": "add",
  "3713": " draft",
  "3714": " mix",
  "3715": " refer",
  "3716": " Angel",
  "3717": " forced",
  "3718": " conference",
  "3719": "orney",
  "3720": "orter",
  "3721": " measure",
  "3722": "igration",
  "3723": " drive",
  "3724": " bal",
  "3725": " Sim",
  "3726": " easily",
  "3727": " eventually",
  "3728": " presidential",
  "3729": " correct",
  "3730": "pre",
  "3731": " Tor",
  "3732": " overall",
  "3733": " straight",
  "3734": "ken",
  "3735": " religious",
  "3736": "iny",
  "3737": " Super",
  "3738": " appeared",
  "3739": " truth",
  "3740": " note",
  "3741": " Wind",
  "3742": " Jer",
  "3743": " Here",
  "3744": "According",
  "3745": "change",
  "3746": " cat",
  "3747": " pus",
  "3748": " autom",
  "3749": " confir",
  "3750": " allows",
  "3751": " families",
  "3752": " executive",
  "3753": " Australia",
  "3754": "New",
  "3755": " rap",
  "3756": " ang",
  "3757": " expand",
  "3758": " customers",
  "3759": " unique",
  "3760": " virt",
  "3761": " individuals",
  "3762": " disp",
  "3763": " streng",
  "3764": " crime",
  "3765": " feature",
  "3766": " Smith",
  "3767": " cris",
  "3768": " illeg",
  "3769": " detail",
  "3770": " battle",
  "3771": "ressed",
  "3772": " Ben",
  "3773": " Air",
  "3774": "):",
  "3775": "bum",
  "3776": " decades",
  "3777": " frequ",
  "3778": " drop",
  "3779": " firm",
  "3780": " emb",
  "3781": " developed",
  "3782": " command",
  "3783": " La",
  "3784": " attract",
  "3785": " seemed",
  "3786": " advant",
  "3787": " challenge",
  "3788": " continues",
  "3789": " signed",
  "3790": " brother",
  "3791": " predict",
  "3792": "ville",
  "3793": "rated",
  "3794": " Syria",
  "3795": "45",
  "3796": " lif",
  "3797": " rates",
  "3798": " grad",
  "3799": " knows",
  "3800": " lines",
  "3801": "craft",
  "3802": " Apple",
  "3803": " Council",
  "3804": " International",
  "3805": "olic",
  "3806": " benefits",
  "3807": "aint",
  "3808": "IA",
  "3809": " rare",
  "3810": "Un",
  "3811": " successful",
  "3812": " kept",
  "3813": " Police",
  "3814": "27",
  "3815": " nice",
  "3816": " central",
  "3817": " knowledge",
  "3818": "lease",
  "3819": " Comp",
  "3820": " sto",
  "3821": " har",
  "3822": " apparent",
  "3823": " reached",
  "3824": " goals",
  "3825": " reform",
  "3826": " 196",
  "3827": "26",
  "3828": "ares",
  "3829": " promot",
  "3830": "Some",
  "3831": " Internet",
  "3832": " manager",
  "3833": "chan",
  "3834": " lic",
  "3835": " Earth",
  "3836": " analy",
  "3837": " spot",
  "3838": " gives",
  "3839": "ength",
  "3840": " uses",
  "3841": " mist",
  "3842": "band",
  "3843": "Don",
  "3844": " previously",
  "3845": " indic",
  "3846": "ET",
  "3847": " trust",
  "3848": " minor",
  "3849": "35",
  "3850": " noted",
  "3851": " Christian",
  "3852": "term",
  "3853": "nown",
  "3854": " vac",
  "3855": "itely",
  "3856": " highly",
  "3857": "while",
  "3858": " manufact",
  "3859": " feet",
  "3860": " ideas",
  "3861": " cities",
  "3862": "ki",
  "3863": " 00",
  "3864": " studies",
  "3865": "ado",
  "3866": " fully",
  "3867": " susp",
  "3868": " door",
  "3869": "net",
  "3870": " Up",
  "3871": " Star",
  "3872": "antly",
  "3873": " shooting",
  "3874": " reflect",
  "3875": " Bel",
  "3876": " beaut",
  "3877": "icago",
  "3878": "oti",
  "3879": " From",
  "3880": " projects",
  "3881": " Flor",
  "3882": " organiz",
  "3883": " emot",
  "3884": "iance",
  "3885": "iverse",
  "3886": " senior",
  "3887": " incident",
  "3888": "part",
  "3889": " Cup",
  "3890": " Govern",
  "3891": "Be",
  "3892": " calling",
  "3893": " programs",
  "3894": "wide",
  "3895": " Mac",
  "3896": " raised",
  "3897": "sey",
  "3898": " weapons",
  "3899": "BA",
  "3900": " altern",
  "3901": " greater",
  "3902": " larger",
  "3903": " save",
  "3904": "board",
  "3905": " peace",
  "3906": " favorite",
  "3907": " Tom",
  "3908": " gold",
  "3909": "mar",
  "3910": "Ar",
  "3911": "onents",
  "3912": " nuclear",
  "3913": " related",
  "3914": " Franc",
  "3915": " caused",
  "3916": "onent",
  "3917": " School",
  "3918": "ounds",
  "3919": " places",
  "3920": "aith",
  "3921": " owners",
  "3922": "cul",
  "3923": " intelligence",
  "3924": " traff",
  "3925": "roll",
  "3926": " eth",
  "3927": " Rec",
  "3928": " fighting",
  "3929": " researchers",
  "3930": "28",
  "3931": "29",
  "3932": " primary",
  "3933": " voice",
  "3934": " George",
  "3935": " status",
  "3936": " patients",
  "3937": " employees",
  "3938": " Ant",
  "3939": " regular",
  "3940": " criminal",
  "3941": "oles",
  "3942": " General",
  "3943": "ipp",
  "3944": "rol",
  "3945": " fine",
  "3946": " eye",
  "3947": " Brown",
  "3948": "iced",
  "3949": " send",
  "3950": "itude",
  "3951": " green",
  "3952": " rule",
  "3953": " clearly",
  "3954": " rise",
  "3955": "CC",
  "3956": " prices",
  "3957": " Every",
  "3958": " liter",
  "3959": "Not",
  "3960": " 2007",
  "3961": "see",
  "3962": "icit",
  "3963": " Def",
  "3964": " Rob",
  "3965": " High",
  "3966": " push",
  "3967": " arm",
  "3968": " resources",
  "3969": "encies",
  "3970": "box",
  "3971": " spread",
  "3972": "sis",
  "3973": " female",
  "3974": "secut",
  "3975": "bon",
  "3976": "ica",
  "3977": "ingly",
  "3978": "uana",
  "3979": "owers",
  "3980": " Union",
  "3981": "oday",
  "3982": "aud",
  "3983": "usion",
  "3984": " crisis",
  "3985": "ya",
  "3986": " wait",
  "3987": " perm",
  "3988": " Bay",
  "3989": " sources",
  "3990": " creating",
  "3991": " haven",
  "3992": " Dis",
  "3993": " supposed",
  "3994": " activity",
  "3995": "lection",
  "3996": "iders",
  "3997": " Met",
  "3998": "ID",
  "3999": " shut",
  "4000": "OM",
  "4001": "ocks",
  "4002": " district",
  "4003": "ategy",
  "4004": " claimed",
  "4005": "igned",
  "4006": "iled",
  "4007": " funding",
  "4008": " crowd",
  "4009": "que",
  "4010": " charges",
  "4011": "21",
  "4012": " style",
  "4013": " conflic",
  "4014": " spir",
  "4015": " Lou",
  "4016": "vere",
  "4017": " pun",
  "4018": " policies",
  "4019": "ifying",
  "4020": " parties",
  "4021": ".'",
  "4022": " Sun",
  "4023": " telev",
  "4024": " laun",
  "4025": " Reg",
  "4026": " spend",
  "4027": " integr",
  "4028": " names",
  "4029": " Gold",
  "4030": " lik",
  "4031": "EO",
  "4032": " slight",
  "4033": "spect",
  "4034": "ijuana",
  "4035": " seeing",
  "4036": " normal",
  "4037": "EC",
  "4038": " agreement",
  "4039": " traditional",
  "4040": " hospital",
  "4041": " basic",
  "4042": " album",
  "4043": "ona",
  "4044": " believed",
  "4045": " ended",
  "4046": " wonder",
  "4047": "dd",
  "4048": " offered",
  "4049": " grand",
  "4050": " happens",
  "4051": " obser",
  "4052": "earch",
  "4053": " Florida",
  "4054": "500",
  "4055": " impl",
  "4056": "ection",
  "4057": " acqu",
  "4058": " options",
  "4059": "ipped",
  "4060": " minister",
  "4061": "Sc",
  "4062": " birth",
  "4063": "90",
  "4064": " whom",
  "4065": " beat",
  "4066": " marriage",
  "4067": " adop",
  "4068": " Chicago",
  "4069": " jump",
  "4070": "dom",
  "4071": " propos",
  "4072": " print",
  "4073": "aked",
  "4074": " scen",
  "4075": " Germany",
  "4076": " adding",
  "4077": "mark",
  "4078": " Scott",
  "4079": "SA",
  "4080": " street",
  "4081": " Bre",
  "4082": " qual",
  "4083": "ING",
  "4084": " insurance",
  "4085": "inger",
  "4086": " trou",
  "4087": " AP",
  "4088": " Arab",
  "4089": " assault",
  "4090": "ags",
  "4091": " revealed",
  "4092": " Ber",
  "4093": " leaving",
  "4094": " Most",
  "4095": " rank",
  "4096": " ensure",
  "4097": " willing",
  "4098": "www",
  "4099": "70",
  "4100": " uns",
  "4101": " According",
  "4102": " 2006",
  "4103": " arrested",
  "4104": " Hillary",
  "4105": "roid",
  "4106": " section",
  "4107": "100",
  "4108": " ir",
  "4109": " brief",
  "4110": " credit",
  "4111": " appl",
  "4112": ".’",
  "4113": " unc",
  "4114": " determin",
  "4115": " records",
  "4116": " mostly",
  "4117": "upp",
  "4118": "uman",
  "4119": " Trans",
  "4120": " enforce",
  "4121": " wat",
  "4122": " freedom",
  "4123": " Oh",
  "4124": " station",
  "4125": " authorities",
  "4126": " behavior",
  "4127": "”,",
  "4128": " cry",
  "4129": "OU",
  "4130": " mount",
  "4131": " Health",
  "4132": " Alex",
  "4133": " massive",
  "4134": " temper",
  "4135": " miles",
  "4136": "aby",
  "4137": "EL",
  "4138": " absolute",
  "4139": " produce",
  "4140": "istry",
  "4141": " Port",
  "4142": " actual",
  "4143": " pattern",
  "4144": " concerns",
  "4145": " enem",
  "4146": " tend",
  "4147": " wild",
  "4148": "pri",
  "4149": " >",
  "4150": " values",
  "4151": " England",
  "4152": " Mo",
  "4153": " born",
  "4154": " fat",
  "4155": " drink",
  "4156": "acing",
  "4157": " application",
  "4158": "alse",
  "4159": "Pro",
  "4160": " commer",
  "4161": " plant",
  "4162": "pen",
  "4163": " Cr",
  "4164": "Here",
  "4165": " posted",
  "4166": " Johnson",
  "4167": " offers",
  "4168": " advoc",
  "4169": " celebr",
  "4170": "orial",
  "4171": "ront",
  "4172": " whatever",
  "4173": " Let",
  "4174": "cience",
  "4175": " mechan",
  "4176": "cher",
  "4177": " Secret",
  "4178": "ribution",
  "4179": " male",
  "4180": " runs",
  "4181": " weekend",
  "4182": " feeling",
  "4183": " picture",
  "4184": " produced",
  "4185": " choose",
  "4186": " kick",
  "4187": " independent",
  "4188": " train",
  "4189": " Mag",
  "4190": "rian",
  "4191": " Well",
  "4192": "soft",
  "4193": " learned",
  "4194": " theory",
  "4195": " commit",
  "4196": " belief",
  "4197": " showing",
  "4198": " dire",
  "4199": "gen",
  "4200": "ription",
  "4201": " Why",
  "4202": "Image",
  "4203": " adult",
  "4204": " weight",
  "4205": " mer",
  "4206": "uild",
  "4207": " critical",
  "4208": " coverage",
  "4209": " lawy",
  "4210": "Bl",
  "4211": "outhern",
  "4212": " images",
  "4213": " dollars",
  "4214": " teac",
  "4215": " debt",
  "4216": " enter",
  "4217": "и",
  "4218": " negoti",
  "4219": " cars",
  "4220": " Press",
  "4221": "uries",
  "4222": " legislation",
  "4223": "33",
  "4224": "arliam",
  "4225": " initial",
  "4226": " mur",
  "4227": " Sam",
  "4228": " residents",
  "4229": " Western",
  "4230": " Ham",
  "4231": " strategy",
  "4232": " occas",
  "4233": " judge",
  "4234": " EU",
  "4235": "rav",
  "4236": " proposed",
  "4237": " novel",
  "4238": "estic",
  "4239": " lose",
  "4240": " mission",
  "4241": " NFL",
  "4242": " dream",
  "4243": " benefit",
  "4244": " Law",
  "4245": " condition",
  "4246": " Wall",
  "4247": "ram",
  "4248": " fit",
  "4249": " digital",
  "4250": "ented",
  "4251": " France",
  "4252": "orthern",
  "4253": "ada",
  "4254": " influence",
  "4255": "icial",
  "4256": " advantage",
  "4257": " etc",
  "4258": "irg",
  "4259": " daily",
  "4260": " establish",
  "4261": "bert",
  "4262": " restrict",
  "4263": " devices",
  "4264": "mine",
  "4265": " protest",
  "4266": "ords",
  "4267": " Our",
  "4268": " brand",
  "4269": "cell",
  "4270": " Get",
  "4271": " confirmed",
  "4272": " operations",
  "4273": " Phil",
  "4274": "arliament",
  "4275": " responsible",
  "4276": "illing",
  "4277": " replace",
  "4278": "ugg",
  "4279": " camera",
  "4280": " cru",
  "4281": "ghan",
  "4282": " solution",
  "4283": " chem",
  "4284": " vill",
  "4285": "BS",
  "4286": " Committee",
  "4287": " learning",
  "4288": " provides",
  "4289": " charged",
  "4290": " Stud",
  "4291": "http",
  "4292": " effective",
  "4293": " asking",
  "4294": "ae",
  "4295": "icians",
  "4296": " map",
  "4297": " People",
  "4298": "oms",
  "4299": " opening",
  "4300": "However",
  "4301": " explained",
  "4302": " Mike",
  "4303": " highest",
  "4304": " chair",
  "4305": "Ex",
  "4306": "rial",
  "4307": "These",
  "4308": " generally",
  "4309": " =>",
  "4310": " basis",
  "4311": " trial",
  "4312": " hundreds",
  "4313": "umn",
  "4314": " 31",
  "4315": "point",
  "4316": " agreed",
  "4317": " opinion",
  "4318": " install",
  "4319": " types",
  "4320": "ears",
  "4321": "ocr",
  "4322": "т",
  "4323": " announce",
  "4324": "azing",
  "4325": "iller",
  "4326": " Lab",
  "4327": " worse",
  "4328": " interested",
  "4329": "za",
  "4330": " defend",
  "4331": " Mil",
  "4332": " heavy",
  "4333": " Great",
  "4334": " Mad",
  "4335": "no",
  "4336": " communities",
  "4337": " electric",
  "4338": " Mal",
  "4339": " 35",
  "4340": "rate",
  "4341": " partners",
  "4342": " easier",
  "4343": "iling",
  "4344": " negative",
  "4345": " reject",
  "4346": " onto",
  "4347": " ge",
  "4348": " disease",
  "4349": " victory",
  "4350": " Ro",
  "4351": " associated",
  "4352": " Francis",
  "4353": "ey",
  "4354": "ipe",
  "4355": " border",
  "4356": "rig",
  "4357": " Ter",
  "4358": "ties",
  "4359": " bottom",
  "4360": " Justice",
  "4361": " putting",
  "4362": " television",
  "4363": "ortunately",
  "4364": " Found",
  "4365": " understanding",
  "4366": " double",
  "4367": " housing",
  "4368": " hero",
  "4369": " marijuana",
  "4370": "omas",
  "4371": "coming",
  "4372": " earth",
  "4373": " limit",
  "4374": "ading",
  "4375": "44",
  "4376": " rat",
  "4377": " becomes",
  "4378": " fresh",
  "4379": " accused",
  "4380": "cont",
  "4381": " Bush",
  "4382": " Korea",
  "4383": " Office",
  "4384": " episode",
  "4385": " sleep",
  "4386": " core",
  "4387": "ography",
  "4388": "Con",
  "4389": "Get",
  "4390": "ios",
  "4391": " internet",
  "4392": " memory",
  "4393": " Div",
  "4394": "icip",
  "4395": "witch",
  "4396": " becoming",
  "4397": " controvers",
  "4398": " gay",
  "4399": " frame",
  "4400": " PC",
  "4401": " Jim",
  "4402": " opposition",
  "4403": " solid",
  "4404": " scientists",
  "4405": " millions",
  "4406": "IL",
  "4407": " strik",
  "4408": "level",
  "4409": "ste",
  "4410": " Because",
  "4411": " Other",
  "4412": " defe",
  "4413": " wealth",
  "4414": " investment",
  "4415": " reduce",
  "4416": " Los",
  "4417": " location",
  "4418": " competition",
  "4419": " extremely",
  "4420": " Liber",
  "4421": " thus",
  "4422": "win",
  "4423": " nine",
  "4424": "iliar",
  "4425": " winning",
  "4426": " labor",
  "4427": " surround",
  "4428": " Islamic",
  "4429": " Canadian",
  "4430": " Bit",
  "4431": " opened",
  "4432": " tick",
  "4433": " served",
  "4434": "andom",
  "4435": "scrib",
  "4436": " 90",
  "4437": " incred",
  "4438": " Que",
  "4439": " mobile",
  "4440": "ours",
  "4441": " assum",
  "4442": "akistan",
  "4443": "oly",
  "4444": " Many",
  "4445": " bed",
  "4446": " join",
  "4447": "vest",
  "4448": "iful",
  "4449": "olf",
  "4450": " destroy",
  "4451": "miss",
  "4452": " audience",
  "4453": "ih",
  "4454": "ici",
  "4455": " machine",
  "4456": "GB",
  "4457": " north",
  "4458": " active",
  "4459": "icrosoft",
  "4460": " max",
  "4461": " supporters",
  "4462": "lant",
  "4463": " separate",
  "4464": "36",
  "4465": " issued",
  "4466": " achieve",
  "4467": "32",
  "4468": " restaur",
  "4469": " Art",
  "4470": "iation",
  "4471": "vention",
  "4472": "rey",
  "4473": " ded",
  "4474": "well",
  "4475": " shared",
  "4476": " drugs",
  "4477": "known",
  "4478": " resist",
  "4479": " Institute",
  "4480": "•",
  "4481": " decade",
  "4482": " explain",
  "4483": "FC",
  "4484": " harm",
  "4485": " illegal",
  "4486": " purpose",
  "4487": " faith",
  "4488": " watching",
  "4489": " sites",
  "4490": " spoke",
  "4491": " UN",
  "4492": " 70",
  "4493": " Mod",
  "4494": " south",
  "4495": " Jones",
  "4496": " Hall",
  "4497": " views",
  "4498": " department",
  "4499": "lished",
  "4500": " comfort",
  "4501": "istics",
  "4502": "irgin",
  "4503": " 80",
  "4504": " church",
  "4505": " Del",
  "4506": "ym",
  "4507": "aks",
  "4508": "igrants",
  "4509": " ship",
  "4510": " ran",
  "4511": " Commission",
  "4512": "edy",
  "4513": " management",
  "4514": "ouston",
  "4515": " Windows",
  "4516": "acity",
  "4517": " Since",
  "4518": "works",
  "4519": "imb",
  "4520": "█",
  "4521": "ario",
  "4522": " existing",
  "4523": " Security",
  "4524": " professional",
  "4525": " floor",
  "4526": " Uk",
  "4527": " aspect",
  "4528": " transport",
  "4529": " Robert",
  "4530": "ady",
  "4531": " Miss",
  "4532": " doubt",
  "4533": "ius",
  "4534": "ulf",
  "4535": " purs",
  "4536": " Palest",
  "4537": " serve",
  "4538": " FBI",
  "4539": " background",
  "4540": " finding",
  "4541": " returned",
  "4542": " Att",
  "4543": " neighbor",
  "4544": " spl",
  "4545": " cash",
  "4546": " Chris",
  "4547": "atically",
  "4548": "NN",
  "4549": "asy",
  "4550": "inate",
  "4551": "azon",
  "4552": " generation",
  "4553": " hearing",
  "4554": " trend",
  "4555": " kid",
  "4556": "resp",
  "4557": "spe",
  "4558": " leadership",
  "4559": " Angeles",
  "4560": "Americ",
  "4561": " unlike",
  "4562": "going",
  "4563": " plays",
  "4564": " transfer",
  "4565": " categ",
  "4566": "house",
  "4567": " concerned",
  "4568": " surface",
  "4569": " definitely",
  "4570": " driving",
  "4571": " witness",
  "4572": " Afghan",
  "4573": " structure",
  "4574": " documents",
  "4575": " argument",
  "4576": "ctors",
  "4577": " injury",
  "4578": "lands",
  "4579": "annel",
  "4580": "с",
  "4581": " guard",
  "4582": " launched",
  "4583": " sports",
  "4584": " Your",
  "4585": " load",
  "4586": "rick",
  "4587": " Like",
  "4588": " bomb",
  "4589": " African",
  "4590": " dangerous",
  "4591": "PS",
  "4592": " cards",
  "4593": "odes",
  "4594": " farm",
  "4595": " teach",
  "4596": "Mr",
  "4597": " vs",
  "4598": "DA",
  "4599": " afford",
  "4600": " Sup",
  "4601": " fuel",
  "4602": "gl",
  "4603": " Big",
  "4604": "ampionship",
  "4605": " decisions",
  "4606": " Sanders",
  "4607": "zen",
  "4608": " discovered",
  "4609": "ait",
  "4610": " coal",
  "4611": "eah",
  "4612": " vehicle",
  "4613": "which",
  "4614": " caught",
  "4615": "ulated",
  "4616": " ;",
  "4617": "38",
  "4618": " Rom",
  "4619": " Dist",
  "4620": " micro",
  "4621": " Commun",
  "4622": " appeal",
  "4623": " items",
  "4624": " committee",
  "4625": "eline",
  "4626": " direction",
  "4627": "icy",
  "4628": " blue",
  "4629": " refere",
  "4630": "!!",
  "4631": " photo",
  "4632": " sun",
  "4633": " telling",
  "4634": " que",
  "4635": " murder",
  "4636": " testing",
  "4637": " Church",
  "4638": "met",
  "4639": "anted",
  "4640": " Africa",
  "4641": " nor",
  "4642": " holding",
  "4643": "OL",
  "4644": "ference",
  "4645": "inct",
  "4646": "rd",
  "4647": " san",
  "4648": " largely",
  "4649": "ibrary",
  "4650": " supported",
  "4651": " traffic",
  "4652": "orrow",
  "4653": " react",
  "4654": " wel",
  "4655": " Rock",
  "4656": " notice",
  "4657": " amb",
  "4658": " closed",
  "4659": " Wil",
  "4660": "andon",
  "4661": " candidates",
  "4662": "oyal",
  "4663": " repeated",
  "4664": " daughter",
  "4665": " Bank",
  "4666": " suggested",
  "4667": " radio",
  "4668": "arant",
  "4669": "but",
  "4670": "rad",
  "4671": " measures",
  "4672": " Mexico",
  "4673": "49",
  "4674": " worst",
  "4675": " Jewish",
  "4676": " Mat",
  "4677": "serv",
  "4678": " believes",
  "4679": " context",
  "4680": " die",
  "4681": " scale",
  "4682": " conservative",
  "4683": " Inc",
  "4684": "75",
  "4685": " Louis",
  "4686": " commercial",
  "4687": " tools",
  "4688": "agn",
  "4689": " Carol",
  "4690": " girls",
  "4691": " notes",
  "4692": " allowing",
  "4693": " Tre",
  "4694": " planet",
  "4695": " Sl",
  "4696": " smaller",
  "4697": " Cap",
  "4698": " Ir",
  "4699": " older",
  "4700": " THE",
  "4701": " Pre",
  "4702": "lor",
  "4703": "ander",
  "4704": "mail",
  "4705": " entirely",
  "4706": " victims",
  "4707": " strength",
  "4708": " animals",
  "4709": "enses",
  "4710": " Ac",
  "4711": "overy",
  "4712": " waiting",
  "4713": "phone",
  "4714": "equ",
  "4715": " Pakistan",
  "4716": " graph",
  "4717": " exerc",
  "4718": " Jud",
  "4719": " interests",
  "4720": " deliver",
  "4721": " compar",
  "4722": " requires",
  "4723": "р",
  "4724": " guess",
  "4725": "�",
  "4726": " survey",
  "4727": " Are",
  "4728": " raise",
  "4729": " der",
  "4730": " Over",
  "4731": " unit",
  "4732": "how",
  "4733": "tered",
  "4734": " activities",
  "4735": "izes",
  "4736": "itable",
  "4737": "Our",
  "4738": " eat",
  "4739": " Association",
  "4740": " fourth",
  "4741": " Game",
  "4742": "season",
  "4743": " mentioned",
  "4744": " 195",
  "4745": "PA",
  "4746": " businesses",
  "4747": " 127",
  "4748": " hack",
  "4749": " false",
  "4750": "igan",
  "4751": " cook",
  "4752": " length",
  "4753": "owl",
  "4754": "iest",
  "4755": "!”",
  "4756": "isf",
  "4757": " task",
  "4758": " consequ",
  "4759": " cancer",
  "4760": " Step",
  "4761": " truly",
  "4762": " instance",
  "4763": " trip",
  "4764": " joined",
  "4765": " Direct",
  "4766": " Ukrain",
  "4767": " species",
  "4768": " attend",
  "4769": "do",
  "4770": " Fore",
  "4771": " stated",
  "4772": "nel",
  "4773": " Ev",
  "4774": " hair",
  "4775": "48",
  "4776": " Kh",
  "4777": " managed",
  "4778": " placed",
  "4779": "night",
  "4780": "ception",
  "4781": "inter",
  "4782": " Instead",
  "4783": "hens",
  "4784": " please",
  "4785": "***",
  "4786": " enforcement",
  "4787": "anging",
  "4788": " annual",
  "4789": " Houston",
  "4790": " models",
  "4791": " exchange",
  "4792": " Jeff",
  "4793": " Supreme",
  "4794": "kins",
  "4795": " focused",
  "4796": " Ver",
  "4797": " driver",
  "4798": " rough",
  "4799": "gers",
  "4800": " strateg",
  "4801": "oted",
  "4802": " Jose",
  "4803": " pet",
  "4804": " removed",
  "4805": " Army",
  "4806": " Jes",
  "4807": "gency",
  "4808": " stopped",
  "4809": " accur",
  "4810": " Japanese",
  "4811": " Pri",
  "4812": " //",
  "4813": " gain",
  "4814": " Ty",
  "4815": " planning",
  "4816": "cknow",
  "4817": " mental",
  "4818": "ulate",
  "4819": "range",
  "4820": " Mer",
  "4821": " assess",
  "4822": "ighter",
  "4823": "ossible",
  "4824": " initi",
  "4825": " hus",
  "4826": " Sil",
  "4827": " phil",
  "4828": " detect",
  "4829": "semb",
  "4830": " stock",
  "4831": "icon",
  "4832": " ice",
  "4833": "lege",
  "4834": " GOP",
  "4835": " spokesman",
  "4836": "EM",
  "4837": "onto",
  "4838": "ocracy",
  "4839": "ructure",
  "4840": " established",
  "4841": " failure",
  "4842": " conversation",
  "4843": " beer",
  "4844": " bul",
  "4845": " hasn",
  "4846": " catch",
  "4847": " Fin",
  "4848": " contain",
  "4849": " 2005",
  "4850": " setting",
  "4851": " missing",
  "4852": "‘",
  "4853": "aren",
  "4854": "uct",
  "4855": " committed",
  "4856": "anda",
  "4857": "CH",
  "4858": "More",
  "4859": " defensive",
  "4860": " recommend",
  "4861": " Rub",
  "4862": " CEO",
  "4863": " arrived",
  "4864": " fant",
  "4865": "outs",
  "4866": " offensive",
  "4867": "azine",
  "4868": "37",
  "4869": " Pet",
  "4870": " appropri",
  "4871": "itz",
  "4872": " Add",
  "4873": " providing",
  "4874": " download",
  "4875": "ancy",
  "4876": " conclud",
  "4877": "ano",
  "4878": "uke",
  "4879": " presence",
  "4880": " sch",
  "4881": " tells",
  "4882": " Although",
  "4883": " introduced",
  "4884": " 2018",
  "4885": " taxes",
  "4886": "ronic",
  "4887": "lig",
  "4888": " tough",
  "4889": "hi",
  "4890": "Trump",
  "4891": " sequ",
  "4892": "NA",
  "4893": "urb",
  "4894": "Read",
  "4895": " familiar",
  "4896": " construction",
  "4897": " hate",
  "4898": " finished",
  "4899": " newsp",
  "4900": " killing",
  "4901": "place",
  "4902": "uzz",
  "4903": " Britain",
  "4904": " useful",
  "4905": "wing",
  "4906": " partner",
  "4907": " univers",
  "4908": "isation",
  "4909": " obvious",
  "4910": " protection",
  "4911": "cks",
  "4912": "ribute",
  "4913": "awn",
  "4914": "stream",
  "4915": " Yes",
  "4916": "uters",
  "4917": " circum",
  "4918": "tained",
  "4919": " exclus",
  "4920": "real",
  "4921": " sust",
  "4922": " keeping",
  "4923": " gender",
  "4924": "о�",
  "4925": " window",
  "4926": " update",
  "4927": " Group",
  "4928": " aggress",
  "4929": " justice",
  "4930": " identity",
  "4931": "RA",
  "4932": " veter",
  "4933": " discussion",
  "4934": " stick",
  "4935": " tim",
  "4936": " relatively",
  "4937": " sud",
  "4938": " suggests",
  "4939": "olly",
  "4940": " seconds",
  "4941": "hedul",
  "4942": "itutional",
  "4943": " otherwise",
  "4944": ",'",
  "4945": " Fox",
  "4946": " Tim",
  "4947": " acknow",
  "4948": "odies",
  "4949": "ource",
  "4950": " Thomas",
  "4951": " cuts",
  "4952": "what",
  "4953": " Israeli",
  "4954": "formation",
  "4955": " skills",
  "4956": "apped",
  "4957": " abuse",
  "4958": " transl",
  "4959": " Microsoft",
  "4960": " Service",
  "4961": " amazing",
  "4962": " click",
  "4963": " Leg",
  "4964": " homes",
  "4965": "vant",
  "4966": "ola",
  "4967": " thanks",
  "4968": " speaking",
  "4969": "me",
  "4970": " therefore",
  "4971": " Virgin",
  "4972": "vis",
  "4973": "anned",
  "4974": "aded",
  "4975": " connection",
  "4976": " organizations",
  "4977": " supply",
  "4978": " prefer",
  "4979": "HL",
  "4980": " union",
  "4981": " healthy",
  "4982": " identified",
  "4983": " depend",
  "4984": " Richard",
  "4985": " units",
  "4986": "á",
  "4987": " Photo",
  "4988": " Ryan",
  "4989": " decide",
  "4990": " Prof",
  "4991": " wish",
  "4992": " 45",
  "4993": "eless",
  "4994": "ocal",
  "4995": " Char",
  "4996": " server",
  "4997": "ka",
  "4998": " possibly",
  "4999": "onym",
  "5000": " bigger",
  "5001": "rees",
  "5002": " developers",
  "5003": " sides",
  "5004": " elements",
  "5005": "prof",
  "5006": "ups",
  "5007": " photos",
  "5008": "with",
  "5009": "AA",
  "5010": " award",
  "5011": " yards",
  "5012": " operation",
  "5013": " pair",
  "5014": "agues",
  "5015": " occup",
  "5016": "47",
  "5017": " Mont",
  "5018": "isted",
  "5019": " Const",
  "5020": " Nor",
  "5021": " solar",
  "5022": " Research",
  "5023": " Joe",
  "5024": "bre",
  "5025": " Central",
  "5026": " files",
  "5027": " slightly",
  "5028": "ansion",
  "5029": " feels",
  "5030": " Sub",
  "5031": "ancing",
  "5032": "ynam",
  "5033": " 2000",
  "5034": "ologies",
  "5035": " Mars",
  "5036": " religion",
  "5037": " none",
  "5038": " paying",
  "5039": " remind",
  "5040": " figures",
  "5041": " sudden",
  "5042": "Photo",
  "5043": " dropped",
  "5044": "osure",
  "5045": " steps",
  "5046": " owner",
  "5047": " cells",
  "5048": " Team",
  "5049": "Why",
  "5050": "arks",
  "5051": " tweet",
  "5052": " Sur",
  "5053": " starts",
  "5054": "SP",
  "5055": "Last",
  "5056": "icide",
  "5057": " worry",
  "5058": " Mos",
  "5059": " Jon",
  "5060": "makers",
  "5061": "ucky",
  "5062": " prospect",
  "5063": " Medic",
  "5064": " 32",
  "5065": " Images",
  "5066": " conflict",
  "5067": "olit",
  "5068": " domestic",
  "5069": " academ",
  "5070": " sport",
  "5071": " collection",
  "5072": "verse",
  "5073": " Frank",
  "5074": "related",
  "5075": "osen",
  "5076": " multi",
  "5077": " refuge",
  "5078": " Two",
  "5079": "ula",
  "5080": " error",
  "5081": " Secretary",
  "5082": "oston",
  "5083": "imal",
  "5084": " helping",
  "5085": " princ",
  "5086": " variety",
  "5087": "].",
  "5088": " changing",
  "5089": " scientific",
  "5090": " Sal",
  "5091": " degree",
  "5092": " Government",
  "5093": "39",
  "5094": "aven",
  "5095": " strike",
  "5096": "Pl",
  "5097": " Prime",
  "5098": "ava",
  "5099": " appoint",
  "5100": "mas",
  "5101": " fellow",
  "5102": " immigration",
  "5103": " pil",
  "5104": " carried",
  "5105": " mere",
  "5106": "gypt",
  "5107": "gar",
  "5108": " Their",
  "5109": " Gree",
  "5110": "idering",
  "5111": " spirit",
  "5112": "pm",
  "5113": " fif",
  "5114": " planned",
  "5115": "Go",
  "5116": " commission",
  "5117": " husband",
  "5118": " Den",
  "5119": " Ari",
  "5120": "46",
  "5121": " ath",
  "5122": " Lee",
  "5123": " Web",
  "5124": " Android",
  "5125": "01",
  "5126": " accounts",
  "5127": " Mur",
  "5128": " heat",
  "5129": " equip",
  "5130": " balance",
  "5131": " appre",
  "5132": " happening",
  "5133": " River",
  "5134": " Det",
  "5135": "ipping",
  "5136": " Out",
  "5137": " filed",
  "5138": " professor",
  "5139": "kin",
  "5140": "erous",
  "5141": " Mary",
  "5142": " apparently",
  "5143": " regarding",
  "5144": "acks",
  "5145": " Last",
  "5146": " weak",
  "5147": " honest",
  "5148": " Toronto",
  "5149": " spect",
  "5150": "rency",
  "5151": " Australian",
  "5152": " Inter",
  "5153": " banks",
  "5154": " Pac",
  "5155": "ulner",
  "5156": " applications",
  "5157": " Atlant",
  "5158": " Division",
  "5159": " increasingly",
  "5160": " Time",
  "5161": " mut",
  "5162": "sen",
  "5163": " talks",
  "5164": " funds",
  "5165": "ket",
  "5166": " schedul",
  "5167": " vehicles",
  "5168": " tests",
  "5169": " teen",
  "5170": "itect",
  "5171": " roll",
  "5172": "Des",
  "5173": "uate",
  "5174": " corner",
  "5175": " army",
  "5176": "ashed",
  "5177": "ht",
  "5178": "udd",
  "5179": "ala",
  "5180": "coh",
  "5181": " deploy",
  "5182": " Also",
  "5183": " Camp",
  "5184": " markets",
  "5185": "bour",
  "5186": "Le",
  "5187": " Amazon",
  "5188": "roud",
  "5189": "cious",
  "5190": " philos",
  "5191": " ST",
  "5192": " lived",
  "5193": " 36",
  "5194": "ocol",
  "5195": " fle",
  "5196": "hand",
  "5197": " rich",
  "5198": " Good",
  "5199": " tast",
  "5200": " Martin",
  "5201": " hyp",
  "5202": " Foundation",
  "5203": " twice",
  "5204": " skin",
  "5205": "icted",
  "5206": " Bur",
  "5207": "ias",
  "5208": " Cath",
  "5209": "endment",
  "5210": "31",
  "5211": "illa",
  "5212": "gn",
  "5213": " troops",
  "5214": " tack",
  "5215": "isher",
  "5216": " apply",
  "5217": " Us",
  "5218": " vast",
  "5219": " Power",
  "5220": " soldiers",
  "5221": " occurred",
  "5222": " regist",
  "5223": "rastructure",
  "5224": " environmental",
  "5225": "alls",
  "5226": " standing",
  "5227": " tight",
  "5228": " sounds",
  "5229": " Dec",
  "5230": " flight",
  "5231": " helps",
  "5232": " developing",
  "5233": " scr",
  "5234": " sitting",
  "5235": " ■",
  "5236": " fol",
  "5237": "apers",
  "5238": " streets",
  "5239": " losing",
  "5240": "ayer",
  "5241": "Ab",
  "5242": " shall",
  "5243": " clin",
  "5244": " innov",
  "5245": " vision",
  "5246": " writer",
  "5247": "uster",
  "5248": " batter",
  "5249": " turns",
  "5250": " random",
  "5251": "ader",
  "5252": "under",
  "5253": " imagine",
  "5254": " Fire",
  "5255": " impossible",
  "5256": " experts",
  "5257": "ores",
  "5258": "IV",
  "5259": " neighborhood",
  "5260": " ultimately",
  "5261": "ION",
  "5262": " potentially",
  "5263": " interact",
  "5264": "UT",
  "5265": " �",
  "5266": " �",
  "5267": " authority",
  "5268": " convention",
  "5269": " attorney",
  "5270": " MP",
  "5271": "ils",
  "5272": " greatest",
  "5273": "anche",
  "5274": " Those",
  "5275": " Under",
  "5276": "\":",
  "5277": " humans",
  "5278": " ce",
  "5279": "oving",
  "5280": " beautiful",
  "5281": " absolutely",
  "5282": " standards",
  "5283": " seeking",
  "5284": " Francisco",
  "5285": "55",
  "5286": " presented",
  "5287": " dat",
  "5288": " pieces",
  "5289": " guarant",
  "5290": "run",
  "5291": " forms",
  "5292": " faster",
  "5293": " NBA",
  "5294": " expensive",
  "5295": "ruit",
  "5296": " Put",
  "5297": "From",
  "5298": " stars",
  "5299": " territ",
  "5300": " refused",
  "5301": "oom",
  "5302": " cold",
  "5303": "iser",
  "5304": " signs",
  "5305": "�█",
  "5306": "█�",
  "5307": " pit",
  "5308": " operating",
  "5309": " capacity",
  "5310": "state",
  "5311": " alternative",
  "5312": " 2004",
  "5313": " rid",
  "5314": " youth",
  "5315": " covered",
  "5316": "gu",
  "5317": "ressive",
  "5318": " equipment",
  "5319": "atures",
  "5320": " apart",
  "5321": " brow",
  "5322": "van",
  "5323": " crew",
  "5324": " Nov",
  "5325": "othes",
  "5326": " voted",
  "5327": " Jo",
  "5328": " odd",
  "5329": " coast",
  "5330": " possibility",
  "5331": "och",
  "5332": " broken",
  "5333": " sea",
  "5334": " script",
  "5335": "Of",
  "5336": "adium",
  "5337": " Carolina",
  "5338": "!\"",
  "5339": " determine",
  "5340": "ashion",
  "5341": " LA",
  "5342": "abb",
  "5343": "etic",
  "5344": " retail",
  "5345": " adjust",
  "5346": " perspect",
  "5347": "Even",
  "5348": " elections",
  "5349": " unless",
  "5350": " responsibility",
  "5351": " famous",
  "5352": "ros",
  "5353": " nar",
  "5354": "IP",
  "5355": " arms",
  "5356": "ighters",
  "5357": " seasons",
  "5358": " corporate",
  "5359": "issions",
  "5360": " hurt",
  "5361": " revolution",
  "5362": "fe",
  "5363": "idden",
  "5364": " closer",
  "5365": "Just",
  "5366": "enced",
  "5367": " Jackson",
  "5368": " stress",
  "5369": " proposal",
  "5370": " IN",
  "5371": " internal",
  "5372": " trail",
  "5373": " expressed",
  "5374": "lets",
  "5375": "IM",
  "5376": "rible",
  "5377": " seat",
  "5378": " din",
  "5379": " Sol",
  "5380": " estimated",
  "5381": " surprise",
  "5382": " Public",
  "5383": " Hy",
  "5384": " College",
  "5385": " animal",
  "5386": "terday",
  "5387": "cean",
  "5388": " Boston",
  "5389": " pointed",
  "5390": " indeed",
  "5391": "OW",
  "5392": "icate",
  "5393": "SS",
  "5394": "()",
  "5395": " percentage",
  "5396": " Syrian",
  "5397": " Williams",
  "5398": " carbon",
  "5399": " Guard",
  "5400": " ruling",
  "5401": " schem",
  "5402": " hun",
  "5403": "person",
  "5404": "34",
  "5405": "ato",
  "5406": " rent",
  "5407": " conclus",
  "5408": "otic",
  "5409": " gar",
  "5410": "astern",
  "5411": " vulner",
  "5412": " appearance",
  "5413": " weapon",
  "5414": " Bitcoin",
  "5415": " sector",
  "5416": "lymp",
  "5417": " Once",
  "5418": " ton",
  "5419": " Egypt",
  "5420": " governments",
  "5421": " Bern",
  "5422": " Journal",
  "5423": "stein",
  "5424": "phas",
  "5425": " motiv",
  "5426": " factors",
  "5427": " Sant",
  "5428": " specifically",
  "5429": " trig",
  "5430": "date",
  "5431": " rapid",
  "5432": " expert",
  "5433": " bringing",
  "5434": " District",
  "5435": "TA",
  "5436": " distance",
  "5437": " Conserv",
  "5438": " prove",
  "5439": " Daily",
  "5440": "ureau",
  "5441": " agencies",
  "5442": " 500",
  "5443": "edia",
  "5444": " baby",
  "5445": " videos",
  "5446": " insp",
  "5447": " heav",
  "5448": " herself",
  "5449": " sale",
  "5450": " located",
  "5451": "pret",
  "5452": " Book",
  "5453": " selling",
  "5454": "03",
  "5455": "Every",
  "5456": " instit",
  "5457": " plenty",
  "5458": "cohol",
  "5459": " cultural",
  "5460": " intended",
  "5461": "noon",
  "5462": " grew",
  "5463": "Sp",
  "5464": " infrastructure",
  "5465": " AM",
  "5466": " experiment",
  "5467": " agent",
  "5468": " Mel",
  "5469": "ller",
  "5470": "road",
  "5471": "look",
  "5472": " marg",
  "5473": "cel",
  "5474": " reaction",
  "5475": "Let",
  "5476": " revenue",
  "5477": "Up",
  "5478": " subs",
  "5479": "II",
  "5480": " stret",
  "5481": " elim",
  "5482": " argued",
  "5483": " jail",
  "5484": " dim",
  "5485": " Virginia",
  "5486": " handle",
  "5487": " maintain",
  "5488": " determined",
  "5489": "rier",
  "5490": " Road",
  "5491": " bought",
  "5492": " methods",
  "5493": " Tra",
  "5494": " offering",
  "5495": " significantly",
  "5496": " copyright",
  "5497": " fired",
  "5498": " dram",
  "5499": "arp",
  "5500": " visual",
  "5501": " Steve",
  "5502": " remained",
  "5503": " flow",
  "5504": " votes",
  "5505": " equal",
  "5506": " elected",
  "5507": "CL",
  "5508": "eder",
  "5509": " university",
  "5510": " era",
  "5511": "uration",
  "5512": "Since",
  "5513": " breat",
  "5514": " Middle",
  "5515": "IG",
  "5516": " Federal",
  "5517": "mosp",
  "5518": " satisf",
  "5519": " secure",
  "5520": " finish",
  "5521": " ast",
  "5522": " Afghanistan",
  "5523": " wood",
  "5524": "lines",
  "5525": "angers",
  "5526": "anish",
  "5527": " consult",
  "5528": " regime",
  "5529": "essions",
  "5530": " weren",
  "5531": "esters",
  "5532": " wearing",
  "5533": " council",
  "5534": " boost",
  "5535": " chemical",
  "5536": " USA",
  "5537": " criticism",
  "5538": "orage",
  "5539": " prosecut",
  "5540": " column",
  "5541": " upgr",
  "5542": " bound",
  "5543": " completed",
  "5544": " experienced",
  "5545": " positions",
  "5546": "standing",
  "5547": " obviously",
  "5548": "iat",
  "5549": " remove",
  "5550": " Mass",
  "5551": " Bet",
  "5552": "TV",
  "5553": " films",
  "5554": " broke",
  "5555": " conducted",
  "5556": " Olymp",
  "5557": " Bob",
  "5558": " concent",
  "5559": "life",
  "5560": " appreci",
  "5561": " Island",
  "5562": " advance",
  "5563": " surprising",
  "5564": " affected",
  "5565": "uts",
  "5566": " combat",
  "5567": " cas",
  "5568": "First",
  "5569": "ocking",
  "5570": "obe",
  "5571": " Chief",
  "5572": " turning",
  "5573": " Please",
  "5574": "mm",
  "5575": "65",
  "5576": " quant",
  "5577": " Social",
  "5578": " involve",
  "5579": "free",
  "5580": "inating",
  "5581": " symb",
  "5582": " caption",
  "5583": " Ohio",
  "5584": "la",
  "5585": " During",
  "5586": " differences",
  "5587": "ulations",
  "5588": " tact",
  "5589": " tele",
  "5590": " basically",
  "5591": " Any",
  "5592": " Wood",
  "5593": "class",
  "5594": " privacy",
  "5595": " prime",
  "5596": " Ron",
  "5597": " switch",
  "5598": "ellow",
  "5599": " pulled",
  "5600": " recorded",
  "5601": " Space",
  "5602": "ita",
  "5603": " seriously",
  "5604": " passing",
  "5605": "lyn",
  "5606": " glass",
  "5607": "reens",
  "5608": " shape",
  "5609": " advert",
  "5610": " fly",
  "5611": " cann",
  "5612": "н",
  "5613": " Free",
  "5614": " accident",
  "5615": " Paris",
  "5616": " treated",
  "5617": "onom",
  "5618": "DP",
  "5619": " remaining",
  "5620": "Do",
  "5621": " belong",
  "5622": " Sing",
  "5623": " ends",
  "5624": " facing",
  "5625": " rain",
  "5626": " reduced",
  "5627": " aircraft",
  "5628": " excited",
  "5629": " spring",
  "5630": " Both",
  "5631": " explo",
  "5632": " attempts",
  "5633": " married",
  "5634": "employ",
  "5635": " thank",
  "5636": "olved",
  "5637": " Media",
  "5638": " widely",
  "5639": " prepared",
  "5640": " Haw",
  "5641": " plus",
  "5642": " originally",
  "5643": " Lat",
  "5644": "ENT",
  "5645": " surve",
  "5646": " AN",
  "5647": " afternoon",
  "5648": " talked",
  "5649": "gment",
  "5650": " opportunities",
  "5651": " bodies",
  "5652": " collabor",
  "5653": "ivered",
  "5654": " suppl",
  "5655": "useum",
  "5656": " opposed",
  "5657": "Pe",
  "5658": " dismiss",
  "5659": "05",
  "5660": "yr",
  "5661": " storm",
  "5662": "rawn",
  "5663": " hopes",
  "5664": " zone",
  "5665": "aped",
  "5666": " element",
  "5667": " Color",
  "5668": "ensions",
  "5669": " pages",
  "5670": " considering",
  "5671": " supporting",
  "5672": "avor",
  "5673": "oking",
  "5674": "Ind",
  "5675": " mal",
  "5676": "aine",
  "5677": " minute",
  "5678": " reference",
  "5679": " identify",
  "5680": " Fer",
  "5681": " Rem",
  "5682": " master",
  "5683": " batt",
  "5684": "His",
  "5685": "porary",
  "5686": " Rod",
  "5687": "Well",
  "5688": "�",
  "5689": "Another",
  "5690": " contrast",
  "5691": " Rel",
  "5692": " diss",
  "5693": " Who",
  "5694": " proceed",
  "5695": "ternal",
  "5696": "that",
  "5697": " broadcast",
  "5698": " frust",
  "5699": "aniel",
  "5700": " evening",
  "5701": " purchase",
  "5702": " liberal",
  "5703": " giant",
  "5704": "nam",
  "5705": " Phot",
  "5706": " Blue",
  "5707": " vir",
  "5708": " Gal",
  "5709": " Human",
  "5710": " Labour",
  "5711": " ske",
  "5712": "arts",
  "5713": " optim",
  "5714": " explos",
  "5715": " Matt",
  "5716": "erved",
  "5717": "osite",
  "5718": "anged",
  "5719": " consumers",
  "5720": "ourney",
  "5721": " lots",
  "5722": " Stan",
  "5723": "rog",
  "5724": " 1990",
  "5725": " leads",
  "5726": " transition",
  "5727": " listen",
  "5728": " politicians",
  "5729": " reporters",
  "5730": " cloud",
  "5731": " shift",
  "5732": " challenges",
  "5733": " emp",
  "5734": "war",
  "5735": " Force",
  "5736": " Project",
  "5737": " denied",
  "5738": " Show",
  "5739": "ortion",
  "5740": " Science",
  "5741": " Peter",
  "5742": " ment",
  "5743": "abilities",
  "5744": "Tube",
  "5745": "42",
  "5746": " voting",
  "5747": " crimes",
  "5748": "ompl",
  "5749": " lit",
  "5750": " picked",
  "5751": " sad",
  "5752": "usiness",
  "5753": "host",
  "5754": "ampion",
  "5755": " craft",
  "5756": " Capt",
  "5757": " See",
  "5758": " struggle",
  "5759": " sem",
  "5760": "ras",
  "5761": " severe",
  "5762": "oral",
  "5763": "rie",
  "5764": " Muslims",
  "5765": "aled",
  "5766": " combined",
  "5767": "LS",
  "5768": "pass",
  "5769": " creation",
  "5770": " unable",
  "5771": " PM",
  "5772": " agents",
  "5773": " faces",
  "5774": " Sher",
  "5775": "urrent",
  "5776": "ml",
  "5777": "reland",
  "5778": " writes",
  "5779": " proud",
  "5780": " playoff",
  "5781": "vin",
  "5782": "mates",
  "5783": " guns",
  "5784": " declared",
  "5785": " Jesus",
  "5786": " declined",
  "5787": "ruption",
  "5788": "ownt",
  "5789": " package",
  "5790": " Dou",
  "5791": " minimum",
  "5792": " NAS",
  "5793": "mond",
  "5794": " moral",
  "5795": " Cru",
  "5796": " fra",
  "5797": " factor",
  "5798": "hered",
  "5799": "razy",
  "5800": "],",
  "5801": "Oh",
  "5802": " panel",
  "5803": " shouldn",
  "5804": "hy",
  "5805": " mode",
  "5806": " Prot",
  "5807": "respond",
  "5808": " Michigan",
  "5809": "aling",
  "5810": " doctor",
  "5811": " emergency",
  "5812": " id",
  "5813": "nergy",
  "5814": " violent",
  "5815": " thr",
  "5816": " matters",
  "5817": " fish",
  "5818": "ounded",
  "5819": " Ok",
  "5820": " suffered",
  "5821": " SC",
  "5822": " quiet",
  "5823": "ucks",
  "5824": " client",
  "5825": " admitted",
  "5826": "olt",
  "5827": " approved",
  "5828": " 48",
  "5829": "plom",
  "5830": " Spr",
  "5831": " Andrew",
  "5832": " loved",
  "5833": " perspective",
  "5834": " disappoint",
  "5835": " Rad",
  "5836": " proced",
  "5837": " injured",
  "5838": " crack",
  "5839": "asure",
  "5840": " coff",
  "5841": " construct",
  "5842": "zer",
  "5843": " hol",
  "5844": " Mem",
  "5845": " argue",
  "5846": " ordered",
  "5847": " Turkey",
  "5848": "ributed",
  "5849": " injuries",
  "5850": " circumst",
  "5851": "PD",
  "5852": " ongoing",
  "5853": "amin",
  "5854": "64",
  "5855": " plants",
  "5856": " Today",
  "5857": " 37",
  "5858": "cons",
  "5859": " 38",
  "5860": " delivered",
  "5861": " quarterback",
  "5862": " CNN",
  "5863": " Squ",
  "5864": "care",
  "5865": "nell",
  "5866": "lo",
  "5867": " substant",
  "5868": " franch",
  "5869": " aid",
  "5870": " technical",
  "5871": " Lake",
  "5872": " trouble",
  "5873": " Open",
  "5874": " responded",
  "5875": "aints",
  "5876": "Rep",
  "5877": " mort",
  "5878": " apps",
  "5879": "pet",
  "5880": " walking",
  "5881": "Am",
  "5882": " missed",
  "5883": " Scot",
  "5884": "can",
  "5885": " Jul",
  "5886": "evin",
  "5887": " appropriate",
  "5888": " numerous",
  "5889": "De",
  "5890": " burn",
  "5891": " activists",
  "5892": " typically",
  "5893": " mir",
  "5894": " lob",
  "5895": " calcul",
  "5896": " readers",
  "5897": " stands",
  "5898": " renew",
  "5899": " tourn",
  "5900": "acr",
  "5901": " delay",
  "5902": " emphas",
  "5903": " suit",
  "5904": "enture",
  "5905": " Yet",
  "5906": " discrim",
  "5907": " capable",
  "5908": " updates",
  "5909": "isters",
  "5910": " talent",
  "5911": " thoughts",
  "5912": " Saud",
  "5913": " confidence",
  "5914": " RE",
  "5915": "Over",
  "5916": " offense",
  "5917": " architect",
  "5918": " Tal",
  "5919": "ogue",
  "5920": " forg",
  "5921": "elly",
  "5922": "idel",
  "5923": " newspaper",
  "5924": " tradition",
  "5925": " enemy",
  "5926": "allas",
  "5927": "amm",
  "5928": "col",
  "5929": "oty",
  "5930": " institutions",
  "5931": " Charl",
  "5932": " materials",
  "5933": " subsequ",
  "5934": ",’",
  "5935": " findings",
  "5936": " AT",
  "5937": " depart",
  "5938": " gra",
  "5939": " excell",
  "5940": "ó",
  "5941": " confident",
  "5942": " sets",
  "5943": " listed",
  "5944": " reportedly",
  "5945": "hab",
  "5946": "iger",
  "5947": " secretary",
  "5948": " advice",
  "5949": "oves",
  "5950": " connected",
  "5951": "===",
  "5952": "LE",
  "5953": "dule",
  "5954": " increases",
  "5955": " bull",
  "5956": " BBC",
  "5957": "%)",
  "5958": " weather",
  "5959": " Harry",
  "5960": " default",
  "5961": " session",
  "5962": "ilty",
  "5963": " editor",
  "5964": " accompl",
  "5965": " everybody",
  "5966": " Seattle",
  "5967": " Grand",
  "5968": " prompt",
  "5969": " Christmas",
  "5970": "ilit",
  "5971": "ishes",
  "5972": " explains",
  "5973": " pitch",
  "5974": " Ma",
  "5975": "rid",
  "5976": " rot",
  "5977": "asp",
  "5978": " filled",
  "5979": " alcohol",
  "5980": " forget",
  "5981": "During",
  "5982": " Week",
  "5983": " Georg",
  "5984": " expansion",
  "5985": " protests",
  "5986": " tun",
  "5987": " centre",
  "5988": "athan",
  "5989": " atmosp",
  "5990": " entertain",
  "5991": " rail",
  "5992": " Follow",
  "5993": "unte",
  "5994": " transform",
  "5995": "oken",
  "5996": " tech",
  "5997": " Rev",
  "5998": " Techn",
  "5999": "li",
  "6000": " practices",
  "6001": " threats",
  "6002": "called",
  "6003": "abled",
  "6004": "abin",
  "6005": "í",
  "6006": " hell",
  "6007": " messages",
  "6008": " route",
  "6009": "ache",
  "6010": " eval",
  "6011": " Sum",
  "6012": " iPh",
  "6013": " flood",
  "6014": " Ireland",
  "6015": " Id",
  "6016": " prin",
  "6017": " mand",
  "6018": "bur",
  "6019": " statements",
  "6020": "apter",
  "6021": "arden",
  "6022": "illy",
  "6023": " Read",
  "6024": "razil",
  "6025": " Sign",
  "6026": " wear",
  "6027": "adow",
  "6028": " Director",
  "6029": "PR",
  "6030": "43",
  "6031": " Roman",
  "6032": "American",
  "6033": "uls",
  "6034": "uations",
  "6035": " Penn",
  "6036": " 2001",
  "6037": "inals",
  "6038": " Columb",
  "6039": "95",
  "6040": " buildings",
  "6041": " behavi",
  "6042": " patient",
  "6043": " effectively",
  "6044": "sex",
  "6045": "enda",
  "6046": " Av",
  "6047": " publicly",
  "6048": " household",
  "6049": " reporting",
  "6050": " virtual",
  "6051": "apping",
  "6052": " Gen",
  "6053": " basket",
  "6054": "unction",
  "6055": " Jews",
  "6056": " advanced",
  "6057": " sam",
  "6058": " coord",
  "6059": "02",
  "6060": "rant",
  "6061": "eds",
  "6062": " discl",
  "6063": "ga",
  "6064": " valid",
  "6065": " powers",
  "6066": "41",
  "6067": "resents",
  "6068": "sts",
  "6069": " bond",
  "6070": " cooper",
  "6071": "ooth",
  "6072": " confirm",
  "6073": "OD",
  "6074": " sym",
  "6075": " label",
  "6076": " Fe",
  "6077": " facts",
  "6078": "inent",
  "6079": "=\"",
  "6080": " Prem",
  "6081": "Other",
  "6082": " af",
  "6083": " announcement",
  "6084": " lawsuit",
  "6085": " Lib",
  "6086": " rein",
  "6087": " incor",
  "6088": " examples",
  "6089": "estival",
  "6090": " 2003",
  "6091": "uous",
  "6092": " nations",
  "6093": " scheduled",
  "6094": "Follow",
  "6095": " emails",
  "6096": "App",
  "6097": "hedule",
  "6098": " spons",
  "6099": " legit",
  "6100": " Lin",
  "6101": "oen",
  "6102": " realize",
  "6103": " auth",
  "6104": " Ukraine",
  "6105": "ionally",
  "6106": " edge",
  "6107": " initially",
  "6108": " Rights",
  "6109": "aza",
  "6110": " causes",
  "6111": "amental",
  "6112": "arry",
  "6113": "inian",
  "6114": " rising",
  "6115": "rum",
  "6116": " objects",
  "6117": "enger",
  "6118": " networks",
  "6119": " IP",
  "6120": " pictures",
  "6121": " Sports",
  "6122": " Year",
  "6123": " instruct",
  "6124": " stores",
  "6125": "ERS",
  "6126": " neither",
  "6127": "cos",
  "6128": " athlet",
  "6129": "Many",
  "6130": " allegations",
  "6131": "iot",
  "6132": " governor",
  "6133": " classes",
  "6134": "agers",
  "6135": "TC",
  "6136": " manufacture",
  "6137": "anes",
  "6138": " sought",
  "6139": " follows",
  "6140": "MA",
  "6141": " perman",
  "6142": " Hen",
  "6143": " trib",
  "6144": "water",
  "6145": " deaths",
  "6146": " ourselves",
  "6147": " restaurant",
  "6148": " exercise",
  "6149": "edd",
  "6150": " magazine",
  "6151": " van",
  "6152": " god",
  "6153": " ISIS",
  "6154": " highlight",
  "6155": " suc",
  "6156": " surprised",
  "6157": " boys",
  "6158": "oma",
  "6159": "tion",
  "6160": " applied",
  "6161": " remark",
  "6162": " entry",
  "6163": " accepted",
  "6164": "ansas",
  "6165": "essor",
  "6166": "esome",
  "6167": " 49",
  "6168": " cart",
  "6169": " bright",
  "6170": " terrorist",
  "6171": "uy",
  "6172": "zona",
  "6173": " Watch",
  "6174": "alty",
  "6175": " armed",
  "6176": " younger",
  "6177": " combination",
  "6178": " movies",
  "6179": " approx",
  "6180": " bike",
  "6181": "ocratic",
  "6182": "ador",
  "6183": " dynam",
  "6184": " philosoph",
  "6185": " Ill",
  "6186": " shots",
  "6187": "orders",
  "6188": "Res",
  "6189": " lawyer",
  "6190": " native",
  "6191": " Wal",
  "6192": " Barack",
  "6193": " fort",
  "6194": " YouTube",
  "6195": " 300",
  "6196": " explan",
  "6197": " myster",
  "6198": " Second",
  "6199": "game",
  "6200": " pool",
  "6201": " enh",
  "6202": "long",
  "6203": "scribe",
  "6204": " begins",
  "6205": " radical",
  "6206": "arters",
  "6207": " nearby",
  "6208": " discussed",
  "6209": "aylor",
  "6210": " 33",
  "6211": " decre",
  "6212": " OF",
  "6213": " vari",
  "6214": " debut",
  "6215": " gather",
  "6216": " breaking",
  "6217": " contains",
  "6218": " Image",
  "6219": "hetic",
  "6220": "Most",
  "6221": " Work",
  "6222": " Back",
  "6223": " grab",
  "6224": " yesterday",
  "6225": "top",
  "6226": "Although",
  "6227": " prohib",
  "6228": " Club",
  "6229": "icing",
  "6230": " pure",
  "6231": " bag",
  "6232": "57",
  "6233": " Only",
  "6234": " articles",
  "6235": " alt",
  "6236": "usal",
  "6237": " subm",
  "6238": " button",
  "6239": " heads",
  "6240": "ulture",
  "6241": " diagn",
  "6242": " withd",
  "6243": " totally",
  "6244": " flo",
  "6245": " ing",
  "6246": " fashion",
  "6247": " Another",
  "6248": "Spe",
  "6249": " colleagues",
  "6250": ",[",
  "6251": " performed",
  "6252": "west",
  "6253": "orry",
  "6254": " desire",
  "6255": "irty",
  "6256": " linked",
  "6257": "law",
  "6258": " bare",
  "6259": "===",
  "6260": " artist",
  "6261": " Catholic",
  "6262": "stood",
  "6263": " democracy",
  "6264": " thinks",
  "6265": "Cont",
  "6266": " TO",
  "6267": " motor",
  "6268": " essentially",
  "6269": " pra",
  "6270": "ali",
  "6271": " moves",
  "6272": " receiving",
  "6273": "66",
  "6274": " anywhere",
  "6275": " diplom",
  "6276": " schol",
  "6277": " Aff",
  "6278": " System",
  "6279": " warned",
  "6280": " Vict",
  "6281": " tow",
  "6282": " temperature",
  "6283": "UR",
  "6284": " adds",
  "6285": " metal",
  "6286": " necessarily",
  "6287": " leaves",
  "6288": "iami",
  "6289": "erry",
  "6290": " vacc",
  "6291": " Old",
  "6292": " experiences",
  "6293": " consistent",
  "6294": " succeed",
  "6295": "phy",
  "6296": "ideo",
  "6297": " entered",
  "6298": " roughly",
  "6299": "awa",
  "6300": " warning",
  "6301": " abandon",
  "6302": " Walk",
  "6303": " faced",
  "6304": "onna",
  "6305": " improved",
  "6306": " existence",
  "6307": " historical",
  "6308": " Cle",
  "6309": "ollywood",
  "6310": "acle",
  "6311": "ician",
  "6312": "See",
  "6313": "whel",
  "6314": " blow",
  "6315": " parliament",
  "6316": " interpret",
  "6317": " Men",
  "6318": " dial",
  "6319": " resolution",
  "6320": " journey",
  "6321": "FP",
  "6322": " immigrants",
  "6323": "greg",
  "6324": " 34",
  "6325": " links",
  "6326": " holds",
  "6327": " ride",
  "6328": " sav",
  "6329": " guilty",
  "6330": " represents",
  "6331": " Brazil",
  "6332": "twitter",
  "6333": "May",
  "6334": " input",
  "6335": "Qu",
  "6336": " stream",
  "6337": " warm",
  "6338": " Develop",
  "6339": " Valley",
  "6340": " 1980",
  "6341": " hat",
  "6342": " phen",
  "6343": " Kenn",
  "6344": "ship",
  "6345": " pushed",
  "6346": " Cast",
  "6347": " fewer",
  "6348": " harder",
  "6349": " cert",
  "6350": "icious",
  "6351": " Life",
  "6352": " Board",
  "6353": "fortunately",
  "6354": " targets",
  "6355": " Ken",
  "6356": " Whe",
  "6357": " consequences",
  "6358": " creative",
  "6359": " fairly",
  "6360": "nan",
  "6361": " returns",
  "6362": " Ms",
  "6363": " targeted",
  "6364": " classic",
  "6365": " island",
  "6366": "rich",
  "6367": " correspond",
  "6368": "oked",
  "6369": " rally",
  "6370": "Then",
  "6371": " Cub",
  "6372": " doctors",
  "6373": " stood",
  "6374": " brings",
  "6375": " joint",
  "6376": " Hist",
  "6377": " currency",
  "6378": "Yes",
  "6379": " Die",
  "6380": "68",
  "6381": " bon",
  "6382": " lie",
  "6383": " row",
  "6384": "ua",
  "6385": " Exp",
  "6386": "rip",
  "6387": "En",
  "6388": " Plan",
  "6389": " investors",
  "6390": " Romney",
  "6391": "xy",
  "6392": "iques",
  "6393": " knowing",
  "6394": " Miller",
  "6395": "',",
  "6396": " manner",
  "6397": " intention",
  "6398": " Asia",
  "6399": "word",
  "6400": "Can",
  "6401": " vice",
  "6402": " wins",
  "6403": "gent",
  "6404": " heavily",
  "6405": " fill",
  "6406": "TS",
  "6407": " strange",
  "6408": " scored",
  "6409": " Games",
  "6410": "ocation",
  "6411": " facility",
  "6412": " shop",
  "6413": " datab",
  "6414": " relationships",
  "6415": " storage",
  "6416": "ette",
  "6417": " west",
  "6418": " hoping",
  "6419": "08",
  "6420": "cho",
  "6421": "ulous",
  "6422": "born",
  "6423": " earned",
  "6424": " subsid",
  "6425": " formed",
  "6426": " hardware",
  "6427": " replaced",
  "6428": " squad",
  "6429": " customer",
  "6430": "orse",
  "6431": "Se",
  "6432": "ami",
  "6433": "ORE",
  "6434": " Each",
  "6435": " hotel",
  "6436": " nav",
  "6437": " depth",
  "6438": " drivers",
  "6439": " allegedly",
  "6440": "comm",
  "6441": " Arizona",
  "6442": " egg",
  "6443": "oster",
  "6444": " reput",
  "6445": " Carl",
  "6446": " tree",
  "6447": " confront",
  "6448": " favour",
  "6449": "Pol",
  "6450": "andal",
  "6451": " consumer",
  "6452": " circumstances",
  "6453": " Saudi",
  "6454": " moments",
  "6455": "igure",
  "6456": " mouth",
  "6457": " Its",
  "6458": " experim",
  "6459": "sembly",
  "6460": "oming",
  "6461": " sister",
  "6462": " closely",
  "6463": "ensus",
  "6464": " rum",
  "6465": " Vol",
  "6466": "LA",
  "6467": "78",
  "6468": " importance",
  "6469": " shif",
  "6470": " ancient",
  "6471": " Sar",
  "6472": " infl",
  "6473": "ologist",
  "6474": "foot",
  "6475": " Van",
  "6476": "illance",
  "6477": " Maybe",
  "6478": " Sky",
  "6479": " frequently",
  "6480": " protesters",
  "6481": " Fil",
  "6482": " opposite",
  "6483": " unlikely",
  "6484": " functions",
  "6485": " Gar",
  "6486": " attacked",
  "6487": " defined",
  "6488": " Colorado",
  "6489": " excellent",
  "6490": " unus",
  "6491": " https",
  "6492": " hur",
  "6493": "Donald",
  "6494": " dedicated",
  "6495": " lock",
  "6496": " Eric",
  "6497": " emotional",
  "6498": " library",
  "6499": " Pacific",
  "6500": "acc",
  "6501": " somewhat",
  "6502": " matches",
  "6503": " Irish",
  "6504": " mainstream",
  "6505": " Jr",
  "6506": "def",
  "6507": "erences",
  "6508": " fraud",
  "6509": " regulations",
  "6510": " crazy",
  "6511": " sharing",
  "6512": " songs",
  "6513": " chain",
  "6514": " Top",
  "6515": " monit",
  "6516": " neut",
  "6517": " Swed",
  "6518": "ellect",
  "6519": " flag",
  "6520": " watched",
  "6521": "duc",
  "6522": " cheap",
  "6523": " waste",
  "6524": " Elect",
  "6525": " extent",
  "6526": "you",
  "6527": " Wild",
  "6528": " eating",
  "6529": " marketing",
  "6530": " Energy",
  "6531": " pushing",
  "6532": " essential",
  "6533": " universe",
  "6534": " observ",
  "6535": " 75",
  "6536": " wal",
  "6537": " pled",
  "6538": "rence",
  "6539": " versions",
  "6540": " fundamental",
  "6541": " Ol",
  "6542": " Polit",
  "6543": " carrying",
  "6544": " split",
  "6545": "chen",
  "6546": " decline",
  "6547": " alongside",
  "6548": " acknowled",
  "6549": " Putin",
  "6550": " congress",
  "6551": " diet",
  "6552": " intent",
  "6553": " plane",
  "6554": "ockey",
  "6555": " wave",
  "6556": "People",
  "6557": " signing",
  "6558": " grown",
  "6559": "apse",
  "6560": "iana",
  "6561": "str",
  "6562": "ii",
  "6563": " walked",
  "6564": " contest",
  "6565": " err",
  "6566": " Ell",
  "6567": " iPhone",
  "6568": " Davis",
  "6569": "hus",
  "6570": " resident",
  "6571": " unknown",
  "6572": " lies",
  "6573": " detailed",
  "6574": " sees",
  "6575": "ati",
  "6576": " discover",
  "6577": " square",
  "6578": " Mount",
  "6579": "esc",
  "6580": " newslet",
  "6581": "erves",
  "6582": " bat",
  "6583": "roit",
  "6584": " Class",
  "6585": " cycle",
  "6586": " causing",
  "6587": " kit",
  "6588": "uated",
  "6589": "ometimes",
  "6590": " buying",
  "6591": "iveness",
  "6592": " embr",
  "6593": " describe",
  "6594": "irds",
  "6595": " Dallas",
  "6596": " Ital",
  "6597": " GM",
  "6598": "kel",
  "6599": " east",
  "6600": " zero",
  "6601": "ns",
  "6602": " Sov",
  "6603": " empt",
  "6604": " schedule",
  "6605": "ographic",
  "6606": " distribution",
  "6607": " medic",
  "6608": "opy",
  "6609": " Brook",
  "6610": "efully",
  "6611": " 65",
  "6612": " NY",
  "6613": " trick",
  "6614": " evolution",
  "6615": "Two",
  "6616": "ican",
  "6617": " owned",
  "6618": " commitment",
  "6619": " downt",
  "6620": "raham",
  "6621": "woman",
  "6622": " laugh",
  "6623": "iciency",
  "6624": " suicide",
  "6625": " motion",
  "6626": " resc",
  "6627": " flat",
  "6628": " channel",
  "6629": " isol",
  "6630": "ensity",
  "6631": " acts",
  "6632": " realized",
  "6633": " adults",
  "6634": " industrial",
  "6635": "aze",
  "6636": " franchise",
  "6637": " deals",
  "6638": "IR",
  "6639": " Miami",
  "6640": " promise",
  "6641": " Card",
  "6642": "IF",
  "6643": " Young",
  "6644": "va",
  "6645": "alo",
  "6646": " hall",
  "6647": " reward",
  "6648": " featured",
  "6649": " simpl",
  "6650": " opponent",
  "6651": "CE",
  "6652": "ora",
  "6653": " sending",
  "6654": " Charles",
  "6655": " volunte",
  "6656": "ugh",
  "6657": "л",
  "6658": " Hol",
  "6659": "acking",
  "6660": " Right",
  "6661": " liqu",
  "6662": "chers",
  "6663": " struck",
  "6664": "amily",
  "6665": " chairman",
  "6666": " meat",
  "6667": " posts",
  "6668": "asts",
  "6669": " relevant",
  "6670": " Brad",
  "6671": "GG",
  "6672": " sky",
  "6673": " Korean",
  "6674": " defeat",
  "6675": "77",
  "6676": "ayers",
  "6677": " teachers",
  "6678": "utch",
  "6679": " Wat",
  "6680": " conver",
  "6681": " inspired",
  "6682": " dealing",
  "6683": " manage",
  "6684": " tiny",
  "6685": "acter",
  "6686": " controls",
  "6687": " observed",
  "6688": "sole",
  "6689": " snow",
  "6690": " controversial",
  "6691": " comfortable",
  "6692": " Wilson",
  "6693": " Ram",
  "6694": " illust",
  "6695": " upcoming",
  "6696": " battery",
  "6697": " tom",
  "6698": " Mot",
  "6699": " Far",
  "6700": "uan",
  "6701": " immediate",
  "6702": "nic",
  "6703": " Again",
  "6704": " narrow",
  "6705": " Str",
  "6706": " exciting",
  "6707": " tested",
  "6708": " competitive",
  "6709": "bel",
  "6710": "BO",
  "6711": "uable",
  "6712": "boy",
  "6713": " wake",
  "6714": " kinds",
  "6715": "iki",
  "6716": " properties",
  "6717": "***",
  "6718": " Aut",
  "6719": " Kim",
  "6720": "Or",
  "6721": " passion",
  "6722": "mem",
  "6723": " suffering",
  "6724": " Lord",
  "6725": " sick",
  "6726": " attempted",
  "6727": " expression",
  "6728": " efficient",
  "6729": " Hel",
  "6730": " flu",
  "6731": "inations",
  "6732": " sho",
  "6733": "’.",
  "6734": " Cy",
  "6735": " authors",
  "6736": " bug",
  "6737": "inson",
  "6738": " Fre",
  "6739": "ocket",
  "6740": " anyway",
  "6741": " termin",
  "6742": " symbol",
  "6743": "obile",
  "6744": "rome",
  "6745": " View",
  "6746": "ppo",
  "6747": " northern",
  "6748": "ether",
  "6749": " explore",
  "6750": " repeatedly",
  "6751": "Despite",
  "6752": " Kevin",
  "6753": "ko",
  "6754": " deeply",
  "6755": " selected",
  "6756": "oration",
  "6757": "DS",
  "6758": " Long",
  "6759": " usual",
  "6760": " emissions",
  "6761": "kay",
  "6762": "Rel",
  "6763": " aside",
  "6764": " crash",
  "6765": " sentence",
  "6766": " Services",
  "6767": " NHL",
  "6768": " agenda",
  "6769": " acting",
  "6770": " Defense",
  "6771": " guide",
  "6772": " literally",
  "6773": " Enter",
  "6774": " output",
  "6775": " referred",
  "6776": " opponents",
  "6777": " unemploy",
  "6778": "olve",
  "6779": " studio",
  "6780": " regional",
  "6781": " sustain",
  "6782": " cere",
  "6783": " fixed",
  "6784": "sters",
  "6785": " boss",
  "6786": "ceived",
  "6787": " volume",
  "6788": " domin",
  "6789": " string",
  "6790": "Ob",
  "6791": " dry",
  "6792": " Dev",
  "6793": " involving",
  "6794": " mechanism",
  "6795": "ä",
  "6796": " fighters",
  "6797": " fifth",
  "6798": "gery",
  "6799": " overwhel",
  "6800": " rape",
  "6801": " surrounding",
  "6802": " sample",
  "6803": " cutting",
  "6804": " Women",
  "6805": " disag",
  "6806": "rations",
  "6807": " actor",
  "6808": " destroyed",
  "6809": "John",
  "6810": "burg",
  "6811": " impressive",
  "6812": "ipl",
  "6813": "verty",
  "6814": " Jersey",
  "6815": "amber",
  "6816": "anges",
  "6817": "04",
  "6818": " letters",
  "6819": " noticed",
  "6820": "umber",
  "6821": " oblig",
  "6822": " Inf",
  "6823": "Like",
  "6824": " updated",
  "6825": " Stephen",
  "6826": " champion",
  "6827": " transp",
  "6828": "88",
  "6829": " personally",
  "6830": " Econom",
  "6831": " ring",
  "6832": "///",
  "6833": " shel",
  "6834": " assume",
  "6835": " sweet",
  "6836": " Boy",
  "6837": " skill",
  "6838": " poverty",
  "6839": " mine",
  "6840": " assets",
  "6841": " remote",
  "6842": " uncle",
  "6843": "xual",
  "6844": "imp",
  "6845": " Down",
  "6846": " plot",
  "6847": " worried",
  "6848": " latter",
  "6849": "redit",
  "6850": " gap",
  "6851": "dro",
  "6852": " puts",
  "6853": " urban",
  "6854": "azi",
  "6855": "endo",
  "6856": "CA",
  "6857": " southern",
  "6858": "otes",
  "6859": " folks",
  "6860": " Society",
  "6861": "—�",
  "6862": " technologies",
  "6863": " suddenly",
  "6864": "luding",
  "6865": " Georgia",
  "6866": "bar",
  "6867": "osis",
  "6868": "ordan",
  "6869": " alive",
  "6870": "sea",
  "6871": " rub",
  "6872": " Ann",
  "6873": "rive",
  "6874": "igg",
  "6875": " slowly",
  "6876": "GBT",
  "6877": " Foot",
  "6878": " pip",
  "6879": " maximum",
  "6880": " Contin",
  "6881": "�—",
  "6882": " Light",
  "6883": "weight",
  "6884": " participants",
  "6885": " dress",
  "6886": " Cam",
  "6887": "agan",
  "6888": " Thanks",
  "6889": " instru",
  "6890": " constant",
  "6891": " alg",
  "6892": " pregn",
  "6893": "ivery",
  "6894": " promote",
  "6895": " 1970",
  "6896": "cow",
  "6897": " winter",
  "6898": " protected",
  "6899": "inem",
  "6900": " fees",
  "6901": "Man",
  "6902": " 39",
  "6903": " baseball",
  "6904": " recognize",
  "6905": " license",
  "6906": " selection",
  "6907": " aspects",
  "6908": "atell",
  "6909": " ped",
  "6910": "rete",
  "6911": " moder",
  "6912": " division",
  "6913": " profit",
  "6914": "gender",
  "6915": " artists",
  "6916": "een",
  "6917": " Di",
  "6918": " blame",
  "6919": " resistance",
  "6920": "09",
  "6921": "han",
  "6922": "PU",
  "6923": " Way",
  "6924": " height",
  "6925": " Dam",
  "6926": " Anth",
  "6927": " therap",
  "6928": " scheme",
  "6929": "otten",
  "6930": " TH",
  "6931": " wage",
  "6932": " condem",
  "6933": "asks",
  "6934": " drag",
  "6935": " serving",
  "6936": " reporter",
  "6937": " neighb",
  "6938": " escape",
  "6939": " coffee",
  "6940": " understood",
  "6941": "lls",
  "6942": " Labor",
  "6943": "friend",
  "6944": "ingu",
  "6945": " requirements",
  "6946": " syn",
  "6947": " claiming",
  "6948": "raid",
  "6949": "fire",
  "6950": " Max",
  "6951": " arguments",
  "6952": "Dr",
  "6953": " forth",
  "6954": " narr",
  "6955": " Bas",
  "6956": " Dan",
  "6957": " Bat",
  "6958": " Hollywood",
  "6959": "regon",
  "6960": " clients",
  "6961": "Add",
  "6962": "alle",
  "6963": " somehow",
  "6964": "zens",
  "6965": "onymous",
  "6966": " Cruz",
  "6967": " imper",
  "6968": "uilding",
  "6969": " ideal",
  "6970": "onsin",
  "6971": "aug",
  "6972": " ID",
  "6973": " goods",
  "6974": " nomine",
  "6975": " Company",
  "6976": " merely",
  "6977": "67",
  "6978": "///",
  "6979": "OC",
  "6980": " sympt",
  "6981": " phenomen",
  "6982": "isconsin",
  "6983": "ura",
  "6984": " Network",
  "6985": "adel",
  "6986": " Nic",
  "6987": " allies",
  "6988": " falling",
  "6989": " ble",
  "6990": " category",
  "6991": " properly",
  "6992": " communication",
  "6993": "eping",
  "6994": " obtained",
  "6995": " PR",
  "6996": " unp",
  "6997": " Er",
  "6998": " retire",
  "6999": " honor",
  "7000": " gaming",
  "7001": " basketball",
  "7002": " femin",
  "7003": "athy",
  "7004": " employee",
  "7005": " Kn",
  "7006": "asters",
  "7007": " �",
  "7008": " locations",
  "7009": " finds",
  "7010": "enders",
  "7011": "post",
  "7012": " somebody",
  "7013": " mistake",
  "7014": "Per",
  "7015": " teacher",
  "7016": " evil",
  "7017": " critics",
  "7018": " electricity",
  "7019": " gro",
  "7020": " worldwide",
  "7021": "print",
  "7022": " chose",
  "7023": "ciples",
  "7024": " Bowl",
  "7025": " www",
  "7026": "Sec",
  "7027": " gang",
  "7028": "ums",
  "7029": " risks",
  "7030": " approval",
  "7031": " Spanish",
  "7032": " Southern",
  "7033": "sl",
  "7034": "lights",
  "7035": " phase",
  "7036": " promised",
  "7037": " somewhere",
  "7038": " format",
  "7039": " wid",
  "7040": " Taylor",
  "7041": "rison",
  "7042": " Supp",
  "7043": "igation",
  "7044": " Gall",
  "7045": " informed",
  "7046": " Py",
  "7047": " desper",
  "7048": "��",
  "7049": " controlled",
  "7050": " campus",
  "7051": " newly",
  "7052": " choices",
  "7053": "iform",
  "7054": " Hot",
  "7055": " \\",
  "7056": " dollar",
  "7057": "Int",
  "7058": " Viet",
  "7059": "onic",
  "7060": " Daniel",
  "7061": "isan",
  "7062": "owa",
  "7063": "itarian",
  "7064": " payments",
  "7065": " plastic",
  "7066": " welcome",
  "7067": " 2002",
  "7068": " Despite",
  "7069": " chosen",
  "7070": " truck",
  "7071": " definition",
  "7072": " surveillance",
  "7073": " DC",
  "7074": " theme",
  "7075": " Moore",
  "7076": "%,",
  "7077": " Joseph",
  "7078": " Palestinian",
  "7079": "300",
  "7080": "cers",
  "7081": " encourage",
  "7082": "owed",
  "7083": " stretch",
  "7084": " Scotland",
  "7085": "ixt",
  "7086": " Java",
  "7087": " seats",
  "7088": " tort",
  "7089": "Any",
  "7090": "VER",
  "7091": " Detroit",
  "7092": " Wars",
  "7093": " Where",
  "7094": " Land",
  "7095": " directed",
  "7096": " perfectly",
  "7097": " territory",
  "7098": " tournament",
  "7099": " payment",
  "7100": " Author",
  "7101": " developer",
  "7102": " Ruby",
  "7103": " exposed",
  "7104": " sight",
  "7105": "oric",
  "7106": " Home",
  "7107": " officially",
  "7108": "unning",
  "7109": " Soviet",
  "7110": " captured",
  "7111": " equival",
  "7112": " clar",
  "7113": "pool",
  "7114": " precise",
  "7115": "Police",
  "7116": "sell",
  "7117": " supports",
  "7118": "acked",
  "7119": " gotten",
  "7120": " village",
  "7121": " terrorism",
  "7122": " mayor",
  "7123": " Child",
  "7124": " fuck",
  "7125": " extended",
  "7126": " orders",
  "7127": " constit",
  "7128": " incredible",
  "7129": "aire",
  "7130": " amounts",
  "7131": "nesota",
  "7132": "ja",
  "7133": "dis",
  "7134": " facilities",
  "7135": " config",
  "7136": " stim",
  "7137": " reasonable",
  "7138": " adapt",
  "7139": " likes",
  "7140": " Tw",
  "7141": " aggressive",
  "7142": "owered",
  "7143": " intellect",
  "7144": " stronger",
  "7145": " Ford",
  "7146": " rejected",
  "7147": " drawn",
  "7148": " phr",
  "7149": "EW",
  "7150": " returning",
  "7151": "earing",
  "7152": " Nations",
  "7153": " fold",
  "7154": " trading",
  "7155": " threatened",
  "7156": " dogs",
  "7157": "there",
  "7158": " pilot",
  "7159": "rage",
  "7160": "rypt",
  "7161": "orted",
  "7162": " typical",
  "7163": " routine",
  "7164": " incl",
  "7165": " Stand",
  "7166": "rary",
  "7167": " NASA",
  "7168": " Night",
  "7169": " bear",
  "7170": " anymore",
  "7171": " cyber",
  "7172": "ö",
  "7173": " Tit",
  "7174": "celer",
  "7175": " Best",
  "7176": "star",
  "7177": " bunch",
  "7178": " icon",
  "7179": " Rog",
  "7180": " Nation",
  "7181": " western",
  "7182": " Ep",
  "7183": " tied",
  "7184": " du",
  "7185": " primarily",
  "7186": " bench",
  "7187": " ruled",
  "7188": " wire",
  "7189": " apartment",
  "7190": " Italy",
  "7191": " Jun",
  "7192": " exhib",
  "7193": " comparison",
  "7194": " Camer",
  "7195": "iler",
  "7196": " Agency",
  "7197": " journalists",
  "7198": " communications",
  "7199": "EP",
  "7200": " resulting",
  "7201": " polls",
  "7202": " Four",
  "7203": " Academ",
  "7204": " regions",
  "7205": " purposes",
  "7206": " capture",
  "7207": " Premier",
  "7208": " Dun",
  "7209": " estimates",
  "7210": " pic",
  "7211": " Thank",
  "7212": " topic",
  "7213": " strongly",
  "7214": " titles",
  "7215": " regularly",
  "7216": " conclusion",
  "7217": " approximately",
  "7218": " pal",
  "7219": " Organ",
  "7220": " flying",
  "7221": "98",
  "7222": " sole",
  "7223": "cles",
  "7224": "ez",
  "7225": " winner",
  "7226": " nobody",
  "7227": "Also",
  "7228": " Asian",
  "7229": " thread",
  "7230": " ads",
  "7231": " extensive",
  "7232": " proof",
  "7233": " requests",
  "7234": " concluded",
  "7235": "ounter",
  "7236": " pace",
  "7237": " refugees",
  "7238": "style",
  "7239": " Special",
  "7240": "ao",
  "7241": " Test",
  "7242": " extract",
  "7243": " Administ",
  "7244": " fasc",
  "7245": " drinking",
  "7246": " Love",
  "7247": " bid",
  "7248": " anx",
  "7249": " veteran",
  "7250": "iner",
  "7251": " Bull",
  "7252": " collected",
  "7253": "bell",
  "7254": "wan",
  "7255": "ü",
  "7256": "iro",
  "7257": " weird",
  "7258": " punish",
  "7259": " assistance",
  "7260": "igen",
  "7261": "active",
  "7262": "raph",
  "7263": " driven",
  "7264": " continuing",
  "7265": " atmosphere",
  "7266": "hent",
  "7267": " enthus",
  "7268": " founder",
  "7269": " Fort",
  "7270": " fields",
  "7271": " crucial",
  "7272": "icket",
  "7273": " Foreign",
  "7274": " meetings",
  "7275": " Attorney",
  "7276": "izz",
  "7277": " profile",
  "7278": " param",
  "7279": "etary",
  "7280": " Adam",
  "7281": "ilarly",
  "7282": " province",
  "7283": " inqu",
  "7284": "fall",
  "7285": "Because",
  "7286": "anchester",
  "7287": "otal",
  "7288": " adopted",
  "7289": " unw",
  "7290": " houses",
  "7291": "pected",
  "7292": " Lu",
  "7293": " comprom",
  "7294": " exists",
  "7295": "tle",
  "7296": " sanctions",
  "7297": " Ut",
  "7298": "lder",
  "7299": " HT",
  "7300": " awesome",
  "7301": " Sk",
  "7302": " distinct",
  "7303": "hips",
  "7304": " sand",
  "7305": "�",
  "7306": " academic",
  "7307": " defence",
  "7308": " ending",
  "7309": " plug",
  "7310": " estate",
  "7311": " programming",
  "7312": " habit",
  "7313": " granted",
  "7314": " Wisconsin",
  "7315": "PG",
  "7316": " viewers",
  "7317": " Championship",
  "7318": " explanation",
  "7319": "58",
  "7320": "\\\\",
  "7321": " penalty",
  "7322": " End",
  "7323": " rival",
  "7324": " reputation",
  "7325": " deleg",
  "7326": " limits",
  "7327": " decent",
  "7328": " spin",
  "7329": " constantly",
  "7330": "icken",
  "7331": "axy",
  "7332": " bitcoin",
  "7333": "rett",
  "7334": " proved",
  "7335": " flex",
  "7336": " racial",
  "7337": "inding",
  "7338": "orne",
  "7339": "aed",
  "7340": " demands",
  "7341": " kil",
  "7342": " database",
  "7343": "CS",
  "7344": " ties",
  "7345": " writers",
  "7346": " 42",
  "7347": " abortion",
  "7348": " patterns",
  "7349": " empty",
  "7350": " Tony",
  "7351": " brut",
  "7352": " advertising",
  "7353": " signal",
  "7354": " Steven",
  "7355": " duty",
  "7356": "essed",
  "7357": "cript",
  "7358": "vy",
  "7359": " ($",
  "7360": " assert",
  "7361": " iron",
  "7362": " Kurd",
  "7363": " innoc",
  "7364": " Arch",
  "7365": " contributed",
  "7366": " tall",
  "7367": " Eastern",
  "7368": "actions",
  "7369": "abis",
  "7370": " Spain",
  "7371": " loan",
  "7372": " answers",
  "7373": "Today",
  "7374": " Tem",
  "7375": "icer",
  "7376": " feedback",
  "7377": "esy",
  "7378": "LL",
  "7379": " warming",
  "7380": " taste",
  "7381": "ifications",
  "7382": " parking",
  "7383": " Mic",
  "7384": " entit",
  "7385": "anny",
  "7386": " rig",
  "7387": " hits",
  "7388": " pod",
  "7389": " Though",
  "7390": "\":\"",
  "7391": " Hun",
  "7392": "lers",
  "7393": " coalition",
  "7394": " Hit",
  "7395": " 47",
  "7396": "ems",
  "7397": " taught",
  "7398": "agram",
  "7399": "apes",
  "7400": " complicated",
  "7401": " component",
  "7402": " Os",
  "7403": "NC",
  "7404": " cable",
  "7405": "Rec",
  "7406": " solutions",
  "7407": " upper",
  "7408": " Moscow",
  "7409": " personnel",
  "7410": " techniques",
  "7411": "olis",
  "7412": "07",
  "7413": "rell",
  "7414": "SL",
  "7415": " passes",
  "7416": " degrees",
  "7417": " terrible",
  "7418": " 150",
  "7419": " incredibly",
  "7420": " Oregon",
  "7421": "06",
  "7422": " Minnesota",
  "7423": " brew",
  "7424": " AR",
  "7425": "aun",
  "7426": " contem",
  "7427": " mail",
  "7428": " Brian",
  "7429": "HS",
  "7430": " define",
  "7431": " counsel",
  "7432": " inspir",
  "7433": " NBC",
  "7434": " components",
  "7435": "ifer",
  "7436": "dit",
  "7437": " Ont",
  "7438": " stead",
  "7439": " fought",
  "7440": " survive",
  "7441": "ogan",
  "7442": " outcome",
  "7443": " hadn",
  "7444": " rating",
  "7445": " stuck",
  "7446": " Pen",
  "7447": " excess",
  "7448": " roster",
  "7449": "stone",
  "7450": "ibilities",
  "7451": " Avenue",
  "7452": " Josh",
  "7453": "Getty",
  "7454": "Ah",
  "7455": "54",
  "7456": " paint",
  "7457": " manip",
  "7458": "Once",
  "7459": "mod",
  "7460": " surgery",
  "7461": " raising",
  "7462": " magic",
  "7463": " LGBT",
  "7464": " Turn",
  "7465": " marked",
  "7466": " soul",
  "7467": " Victor",
  "7468": " narrative",
  "7469": " worker",
  "7470": " Balt",
  "7471": " championship",
  "7472": "mont",
  "7473": " generate",
  "7474": " thin",
  "7475": "pes",
  "7476": "odd",
  "7477": " Sea",
  "7478": "rehens",
  "7479": " situations",
  "7480": "sm",
  "7481": "log",
  "7482": " neuro",
  "7483": " CIA",
  "7484": " automatically",
  "7485": " Gi",
  "7486": " keeps",
  "7487": " engage",
  "7488": " Northern",
  "7489": " bom",
  "7490": "rating",
  "7491": " principles",
  "7492": " colon",
  "7493": " tracks",
  "7494": " dozen",
  "7495": " conven",
  "7496": " harass",
  "7497": " Amendment",
  "7498": " Italian",
  "7499": "fast",
  "7500": " organized",
  "7501": " scenes",
  "7502": " consumption",
  "7503": " vulnerable",
  "7504": "da",
  "7505": " bills",
  "7506": " represented",
  "7507": " rus",
  "7508": " lawmakers",
  "7509": " Dark",
  "7510": "’,",
  "7511": "bec",
  "7512": " 64",
  "7513": " complaint",
  "7514": " Coll",
  "7515": "name",
  "7516": " Bell",
  "7517": "56",
  "7518": " ’",
  "7519": "ifies",
  "7520": " enable",
  "7521": "scape",
  "7522": " contracts",
  "7523": " Jordan",
  "7524": " registered",
  "7525": "ref",
  "7526": " apolog",
  "7527": "pan",
  "7528": " Jason",
  "7529": " elsewhere",
  "7530": " Constitution",
  "7531": " browser",
  "7532": " Dar",
  "7533": " unusual",
  "7534": "gun",
  "7535": " Cross",
  "7536": " mixed",
  "7537": " climb",
  "7538": " accurate",
  "7539": " chart",
  "7540": "inf",
  "7541": " hole",
  "7542": " angry",
  "7543": " desk",
  "7544": " Bru",
  "7545": " successfully",
  "7546": " Cat",
  "7547": " king",
  "7548": " Pay",
  "7549": "eme",
  "7550": "ker",
  "7551": "Off",
  "7552": " trees",
  "7553": "Fr",
  "7554": " Civil",
  "7555": "Mean",
  "7556": " Care",
  "7557": " Ray",
  "7558": " Iowa",
  "7559": "aturally",
  "7560": " fake",
  "7561": " phones",
  "7562": " employment",
  "7563": " pin",
  "7564": " cameras",
  "7565": " Pan",
  "7566": "lock",
  "7567": " 400",
  "7568": " lawyers",
  "7569": "Mar",
  "7570": " Real",
  "7571": " 2019",
  "7572": " feelings",
  "7573": " anticip",
  "7574": " aver",
  "7575": "у",
  "7576": " Nick",
  "7577": " Circ",
  "7578": " FC",
  "7579": " conspir",
  "7580": " assistant",
  "7581": "era",
  "7582": " Look",
  "7583": "abama",
  "7584": " enjoyed",
  "7585": "ima",
  "7586": " depending",
  "7587": " murd",
  "7588": " grant",
  "7589": " Sn",
  "7590": " Oper",
  "7591": " generated",
  "7592": " 1999",
  "7593": " bes",
  "7594": " uncertain",
  "7595": "orith",
  "7596": " conscious",
  "7597": "phia",
  "7598": " regardless",
  "7599": " possession",
  "7600": "Inst",
  "7601": " clubs",
  "7602": "EA",
  "7603": " historic",
  "7604": " afraid",
  "7605": " array",
  "7606": " extension",
  "7607": " Take",
  "7608": " rarely",
  "7609": " obst",
  "7610": " boot",
  "7611": " medium",
  "7612": " Business",
  "7613": "96",
  "7614": "aser",
  "7615": " privile",
  "7616": " affili",
  "7617": " bath",
  "7618": " extrem",
  "7619": " dict",
  "7620": " aimed",
  "7621": "ilipp",
  "7622": "tes",
  "7623": "irk",
  "7624": " emerged",
  "7625": " Ah",
  "7626": "pat",
  "7627": " accomp",
  "7628": " Mu",
  "7629": "rates",
  "7630": " intense",
  "7631": " agric",
  "7632": " chances",
  "7633": "Com",
  "7634": "MP",
  "7635": "ena",
  "7636": " stations",
  "7637": " installed",
  "7638": " Kelly",
  "7639": "osa",
  "7640": " Bry",
  "7641": " Zeal",
  "7642": " Henry",
  "7643": " Global",
  "7644": " ru",
  "7645": "rep",
  "7646": "cling",
  "7647": "irms",
  "7648": " compens",
  "7649": " negotiations",
  "7650": "adelphia",
  "7651": " finance",
  "7652": " subjects",
  "7653": "orough",
  "7654": "ogether",
  "7655": " grass",
  "7656": " recovery",
  "7657": "everal",
  "7658": " Before",
  "7659": " sufficient",
  "7660": " Still",
  "7661": " Reuters",
  "7662": " Linux",
  "7663": " profession",
  "7664": "abil",
  "7665": " MS",
  "7666": " hidden",
  "7667": "itar",
  "7668": " CO",
  "7669": " resulted",
  "7670": " troub",
  "7671": " valuable",
  "7672": " cup",
  "7673": "ta",
  "7674": " Sir",
  "7675": " spark",
  "7676": "Mc",
  "7677": " infect",
  "7678": "car",
  "7679": " dozens",
  "7680": " Educ",
  "7681": " tank",
  "7682": " river",
  "7683": "prise",
  "7684": " Ash",
  "7685": " •",
  "7686": " crypt",
  "7687": " index",
  "7688": " Field",
  "7689": "52",
  "7690": " equivalent",
  "7691": " je",
  "7692": " prote",
  "7693": " visited",
  "7694": " ven",
  "7695": "taining",
  "7696": " pounds",
  "7697": " Conf",
  "7698": " solve",
  "7699": " downtown",
  "7700": " expectations",
  "7701": " manufacturing",
  "7702": " engaged",
  "7703": " DNA",
  "7704": "iscal",
  "7705": "mal",
  "7706": " describes",
  "7707": " funny",
  "7708": " Turk",
  "7709": " liked",
  "7710": " enemies",
  "7711": " permission",
  "7712": "enth",
  "7713": "ikes",
  "7714": " processes",
  "7715": "oz",
  "7716": " cited",
  "7717": " courts",
  "7718": "istent",
  "7719": "inity",
  "7720": "ls",
  "7721": " Live",
  "7722": " loud",
  "7723": " principle",
  "7724": " yield",
  "7725": " gall",
  "7726": " enorm",
  "7727": " satell",
  "7728": "MS",
  "7729": " elite",
  "7730": " Beach",
  "7731": " permanent",
  "7732": "abs",
  "7733": "59",
  "7734": " Christians",
  "7735": " relief",
  "7736": " fee",
  "7737": " busy",
  "7738": "idency",
  "7739": " gonna",
  "7740": " myth",
  "7741": " attended",
  "7742": " roles",
  "7743": "idelines",
  "7744": "list",
  "7745": " gained",
  "7746": " mel",
  "7747": " fault",
  "7748": " explicit",
  "7749": " wing",
  "7750": "upid",
  "7751": " thousand",
  "7752": " blocks",
  "7753": "Meanwhile",
  "7754": " Moh",
  "7755": " audio",
  "7756": " CBS",
  "7757": "agg",
  "7758": "oj",
  "7759": " Kent",
  "7760": " mainly",
  "7761": " shares",
  "7762": "LC",
  "7763": " operate",
  "7764": " compete",
  "7765": "ules",
  "7766": "herent",
  "7767": "imore",
  "7768": " CD",
  "7769": " Water",
  "7770": " Fair",
  "7771": "cr",
  "7772": " behalf",
  "7773": " disaster",
  "7774": " scoring",
  "7775": "portion",
  "7776": " deeper",
  "7777": " teaching",
  "7778": " Vis",
  "7779": " discipl",
  "7780": "omin",
  "7781": " ticket",
  "7782": " nut",
  "7783": " prominent",
  "7784": "UN",
  "7785": " deck",
  "7786": " Thus",
  "7787": " recip",
  "7788": " comic",
  "7789": "otted",
  "7790": " veget",
  "7791": "UST",
  "7792": " root",
  "7793": " indicate",
  "7794": "lah",
  "7795": "bal",
  "7796": " backed",
  "7797": " scream",
  "7798": "burgh",
  "7799": " 44",
  "7800": "anna",
  "7801": " saved",
  "7802": "itors",
  "7803": "%.",
  "7804": " sharp",
  "7805": " Senator",
  "7806": " McG",
  "7807": " delivery",
  "7808": "viously",
  "7809": " Call",
  "7810": " Manchester",
  "7811": " Zealand",
  "7812": " taxp",
  "7813": " Policy",
  "7814": " bra",
  "7815": "Dav",
  "7816": "auc",
  "7817": " airport",
  "7818": " advis",
  "7819": " headed",
  "7820": " Pot",
  "7821": " strikes",
  "7822": " uniform",
  "7823": " reduction",
  "7824": " engineering",
  "7825": " priority",
  "7826": "ads",
  "7827": " Come",
  "7828": "aska",
  "7829": " machines",
  "7830": " OS",
  "7831": " stable",
  "7832": "usive",
  "7833": "ulating",
  "7834": " websites",
  "7835": "arsh",
  "7836": "ML",
  "7837": " Greg",
  "7838": "aching",
  "7839": "Us",
  "7840": "erm",
  "7841": " Food",
  "7842": " gift",
  "7843": " everywhere",
  "7844": " struggling",
  "7845": " creates",
  "7846": "■�",
  "7847": " ridic",
  "7848": "abinet",
  "7849": " thick",
  "7850": "ATE",
  "7851": " Lew",
  "7852": "ifest",
  "7853": "quarters",
  "7854": " photograph",
  "7855": " Coast",
  "7856": "uine",
  "7857": "ilton",
  "7858": " tag",
  "7859": "month",
  "7860": " illness",
  "7861": "chain",
  "7862": "adi",
  "7863": " �",
  "7864": "thew",
  "7865": " Diego",
  "7866": " blind",
  "7867": " poly",
  "7868": " 55",
  "7869": " Fred",
  "7870": "TH",
  "7871": "found",
  "7872": " withdraw",
  "7873": " 46",
  "7874": "��",
  "7875": " wonderful",
  "7876": " Football",
  "7877": "iel",
  "7878": " walls",
  "7879": " minority",
  "7880": " Royal",
  "7881": " containing",
  "7882": " participate",
  "7883": " scenario",
  "7884": " acceler",
  "7885": " Academy",
  "7886": " losses",
  "7887": "engers",
  "7888": "97",
  "7889": " Town",
  "7890": "Those",
  "7891": " shortly",
  "7892": " 43",
  "7893": " PS",
  "7894": "400",
  "7895": " corruption",
  "7896": "�■",
  "7897": "weet",
  "7898": " Parliament",
  "7899": " collapse",
  "7900": "aron",
  "7901": "emen",
  "7902": " flaw",
  "7903": " Anthony",
  "7904": " overse",
  "7905": ".\"[",
  "7906": " rose",
  "7907": " Lo",
  "7908": " bridge",
  "7909": " ?",
  "7910": " Atlanta",
  "7911": " algorith",
  "7912": " sup",
  "7913": "ounced",
  "7914": "lvan",
  "7915": " achieved",
  "7916": " Invest",
  "7917": " Conference",
  "7918": " Market",
  "7919": " gam",
  "7920": " symptoms",
  "7921": "ependent",
  "7922": " Development",
  "7923": "from",
  "7924": "who",
  "7925": "this",
  "7926": " uncom",
  "7927": " Alabama",
  "7928": " Major",
  "7929": " Tenn",
  "7930": " forever",
  "7931": " inev",
  "7932": " portion",
  "7933": " recognition",
  "7934": " arrange",
  "7935": " tur",
  "7936": "Co",
  "7937": " movements",
  "7938": "ancou",
  "7939": " Veg",
  "7940": " IT",
  "7941": "Before",
  "7942": "pread",
  "7943": "dem",
  "7944": " wages",
  "7945": " recru",
  "7946": "opher",
  "7947": "away",
  "7948": "teen",
  "7949": "oured",
  "7950": "itals",
  "7951": " restrictions",
  "7952": "interest",
  "7953": " journalist",
  "7954": "profit",
  "7955": "athered",
  "7956": " neutral",
  "7957": "wr",
  "7958": "idespread",
  "7959": " vary",
  "7960": " About",
  "7961": " Stone",
  "7962": " beliefs",
  "7963": " SP",
  "7964": " lists",
  "7965": " laid",
  "7966": "))",
  "7967": "yard",
  "7968": " scholars",
  "7969": " Program",
  "7970": " convin",
  "7971": " upset",
  "7972": " Has",
  "7973": "aus",
  "7974": " deliber",
  "7975": " sacr",
  "7976": " discrimination",
  "7977": "ione",
  "7978": " behaviour",
  "7979": " founded",
  "7980": " structures",
  "7981": "inking",
  "7982": " Bang",
  "7983": "86",
  "7984": " interviews",
  "7985": " spr",
  "7986": " recording",
  "7987": "\",\"",
  "7988": " Win",
  "7989": " reducing",
  "7990": " Oak",
  "7991": "oenix",
  "7992": "ancouver",
  "7993": " rely",
  "7994": " nominee",
  "7995": "ogen",
  "7996": " Haj",
  "7997": " magn",
  "7998": " tip",
  "7999": " implementation",
  "8000": " banned",
  "8001": " ren",
  "8002": " Music",
  "8003": " ownership",
  "8004": "etime",
  "8005": " ethnic",
  "8006": " Philipp",
  "8007": " tackle",
  "8008": " Review",
  "8009": "icking",
  "8010": " Philadelphia",
  "8011": "Col",
  "8012": "inder",
  "8013": " doors",
  "8014": " eastern",
  "8015": " interface",
  "8016": " suggesting",
  "8017": " computers",
  "8018": " steel",
  "8019": " remem",
  "8020": " indicated",
  "8021": " Mid",
  "8022": "flix",
  "8023": " ocean",
  "8024": "mann",
  "8025": "lete",
  "8026": " hired",
  "8027": "uction",
  "8028": " barely",
  "8029": "rative",
  "8030": "omething",
  "8031": " Point",
  "8032": "rous",
  "8033": " drawing",
  "8034": "rolled",
  "8035": "53",
  "8036": " ABC",
  "8037": " convicted",
  "8038": "elect",
  "8039": "heast",
  "8040": " Nob",
  "8041": "Pr",
  "8042": "front",
  "8043": " trained",
  "8044": " formal",
  "8045": "Star",
  "8046": " intellectual",
  "8047": "ashes",
  "8048": " progressive",
  "8049": " Hay",
  "8050": "ouch",
  "8051": " edition",
  "8052": " VR",
  "8053": "angel",
  "8054": " destruction",
  "8055": " legend",
  "8056": " dinner",
  "8057": " Anton",
  "8058": " Emp",
  "8059": " touchdown",
  "8060": " Rose",
  "8061": "arrass",
  "8062": "ye",
  "8063": "ester",
  "8064": "asion",
  "8065": " visible",
  "8066": " Saf",
  "8067": "osexual",
  "8068": "po",
  "8069": " Mean",
  "8070": " Series",
  "8071": " shock",
  "8072": " cos",
  "8073": "HA",
  "8074": " reaching",
  "8075": " genetic",
  "8076": " Perhaps",
  "8077": "Sm",
  "8078": " wheel",
  "8079": " establishment",
  "8080": "antic",
  "8081": " lights",
  "8082": " widespread",
  "8083": " county",
  "8084": "imm",
  "8085": "esh",
  "8086": " Hom",
  "8087": " strict",
  "8088": "lessly",
  "8089": "lan",
  "8090": "world",
  "8091": " Full",
  "8092": " corporations",
  "8093": " reprodu",
  "8094": " Op",
  "8095": " begun",
  "8096": " NSA",
  "8097": " Dead",
  "8098": "she",
  "8099": " elev",
  "8100": "izon",
  "8101": " foundation",
  "8102": " contained",
  "8103": "Me",
  "8104": " terr",
  "8105": " fantasy",
  "8106": " propag",
  "8107": " bub",
  "8108": " Snow",
  "8109": " friendly",
  "8110": " versus",
  "8111": " Further",
  "8112": " philosophy",
  "8113": "maker",
  "8114": "aying",
  "8115": " farmers",
  "8116": " Greek",
  "8117": " framework",
  "8118": " Patrick",
  "8119": " corn",
  "8120": " Fund",
  "8121": "President",
  "8122": " thrown",
  "8123": " Judge",
  "8124": "RI",
  "8125": "lahoma",
  "8126": " ju",
  "8127": "olen",
  "8128": "ked",
  "8129": " convinced",
  "8130": " Lind",
  "8131": " entering",
  "8132": " processing",
  "8133": " toler",
  "8134": " joining",
  "8135": "bro",
  "8136": " Radio",
  "8137": " Rus",
  "8138": " Rick",
  "8139": "Look",
  "8140": " devast",
  "8141": " awareness",
  "8142": " exposure",
  "8143": " util",
  "8144": "pload",
  "8145": " independence",
  "8146": " McCain",
  "8147": "page",
  "8148": " finger",
  "8149": "leveland",
  "8150": " Es",
  "8151": " Mayor",
  "8152": "azz",
  "8153": "xic",
  "8154": " rapidly",
  "8155": " disagree",
  "8156": " challenging",
  "8157": " unemployment",
  "8158": " concrete",
  "8159": " Ins",
  "8160": " footage",
  "8161": " steal",
  "8162": " loyal",
  "8163": " notion",
  "8164": " Cur",
  "8165": " genuine",
  "8166": "sylvan",
  "8167": "riers",
  "8168": " jury",
  "8169": " citizen",
  "8170": " Albert",
  "8171": "rical",
  "8172": "cription",
  "8173": " cha",
  "8174": "amsung",
  "8175": " minds",
  "8176": "::",
  "8177": " transgender",
  "8178": " Three",
  "8179": " 41",
  "8180": " moon",
  "8181": " deputy",
  "8182": " robot",
  "8183": " rook",
  "8184": "89",
  "8185": "Under",
  "8186": " Little",
  "8187": "2016",
  "8188": " racist",
  "8189": " Ministry",
  "8190": " unclear",
  "8191": " Mir",
  "8192": " resource",
  "8193": " Pack",
  "8194": " invited",
  "8195": " smoke",
  "8196": "making",
  "8197": " recognized",
  "8198": " invent",
  "8199": "Ne",
  "8200": " initiative",
  "8201": "erts",
  "8202": "oding",
  "8203": " skept",
  "8204": " firms",
  "8205": " Medical",
  "8206": " hitting",
  "8207": "power",
  "8208": " Centre",
  "8209": " carefully",
  "8210": " fiction",
  "8211": " tickets",
  "8212": "About",
  "8213": " Tour",
  "8214": "TP",
  "8215": " technique",
  "8216": "ba",
  "8217": "ho",
  "8218": " recover",
  "8219": "repre",
  "8220": "iti",
  "8221": " proven",
  "8222": " vital",
  "8223": " hardly",
  "8224": " IM",
  "8225": "76",
  "8226": " mining",
  "8227": " retired",
  "8228": " welf",
  "8229": " Note",
  "8230": " tor",
  "8231": "eman",
  "8232": " exclusive",
  "8233": " Administration",
  "8234": " Education",
  "8235": "51",
  "8236": " alien",
  "8237": " Hell",
  "8238": " outs",
  "8239": "obs",
  "8240": " attached",
  "8241": " comprehens",
  "8242": "rec",
  "8243": " prosec",
  "8244": "Sub",
  "8245": " episodes",
  "8246": " Scient",
  "8247": " stadium",
  "8248": " democratic",
  "8249": " Ale",
  "8250": "udes",
  "8251": " ships",
  "8252": " substantial",
  "8253": "alling",
  "8254": "Te",
  "8255": " photograp",
  "8256": " anybody",
  "8257": " 52",
  "8258": " logic",
  "8259": "sylvania",
  "8260": " collective",
  "8261": "door",
  "8262": " shr",
  "8263": " 1998",
  "8264": " discovery",
  "8265": "iability",
  "8266": " equally",
  "8267": "ー",
  "8268": " pig",
  "8269": " welfare",
  "8270": " colors",
  "8271": " elig",
  "8272": "Note",
  "8273": " speaks",
  "8274": " association",
  "8275": "ources",
  "8276": " CA",
  "8277": " ESP",
  "8278": "reprene",
  "8279": " receiver",
  "8280": " Santa",
  "8281": " inflation",
  "8282": " Arm",
  "8283": " ho",
  "8284": " cogn",
  "8285": " ultimate",
  "8286": " intervention",
  "8287": " Gov",
  "8288": "iley",
  "8289": " producer",
  "8290": "usted",
  "8291": " borrow",
  "8292": " subsequent",
  "8293": "74",
  "8294": " featuring",
  "8295": " Marc",
  "8296": " settle",
  "8297": " AD",
  "8298": " handful",
  "8299": " premium",
  "8300": " Kingdom",
  "8301": " scandal",
  "8302": "umes",
  "8303": " Baltimore",
  "8304": " Season",
  "8305": " regulation",
  "8306": "inois",
  "8307": " Ret",
  "8308": " dance",
  "8309": " campaigns",
  "8310": " expanded",
  "8311": " synt",
  "8312": " humanity",
  "8313": "ria",
  "8314": " wars",
  "8315": " trem",
  "8316": " 1960",
  "8317": " prisoners",
  "8318": " complaints",
  "8319": "owing",
  "8320": " asks",
  "8321": " fallen",
  "8322": " improvements",
  "8323": "к",
  "8324": "oval",
  "8325": "ds",
  "8326": " hide",
  "8327": " papers",
  "8328": "cific",
  "8329": " Po",
  "8330": " reven",
  "8331": " clothes",
  "8332": "aret",
  "8333": " Key",
  "8334": " plate",
  "8335": " anger",
  "8336": " diversity",
  "8337": " incorpor",
  "8338": " OK",
  "8339": " soph",
  "8340": " HD",
  "8341": "intendo",
  "8342": "uma",
  "8343": "eneration",
  "8344": " Ott",
  "8345": " prepare",
  "8346": "uce",
  "8347": " Hor",
  "8348": "oga",
  "8349": "appy",
  "8350": " hook",
  "8351": " exceed",
  "8352": " Columbia",
  "8353": " reviews",
  "8354": " fears",
  "8355": " Navy",
  "8356": " sensitive",
  "8357": "etts",
  "8358": "writ",
  "8359": " suspected",
  "8360": " brothers",
  "8361": " km",
  "8362": " advocates",
  "8363": " purchased",
  "8364": " Portland",
  "8365": " entertainment",
  "8366": " smooth",
  "8367": "uted",
  "8368": " Vancouver",
  "8369": " embarrass",
  "8370": " Next",
  "8371": " exception",
  "8372": "umer",
  "8373": "ropri",
  "8374": " respectively",
  "8375": "Script",
  "8376": " controversy",
  "8377": "mate",
  "8378": "Related",
  "8379": " extend",
  "8380": "iano",
  "8381": "rators",
  "8382": " Denver",
  "8383": "pa",
  "8384": " crop",
  "8385": "then",
  "8386": " NAT",
  "8387": "!)",
  "8388": " constitutional",
  "8389": "uper",
  "8390": " ON",
  "8391": " tone",
  "8392": " producing",
  "8393": "ommod",
  "8394": " upgrade",
  "8395": "eland",
  "8396": "Russ",
  "8397": " testim",
  "8398": " viewed",
  "8399": " incent",
  "8400": " fulf",
  "8401": " contribute",
  "8402": " gear",
  "8403": " serves",
  "8404": " homeless",
  "8405": " Latin",
  "8406": "achus",
  "8407": " overwhelming",
  "8408": " attacking",
  "8409": "ses",
  "8410": "mo",
  "8411": " shame",
  "8412": " Jay",
  "8413": "iversary",
  "8414": " Luc",
  "8415": " involvement",
  "8416": " fab",
  "8417": " Hind",
  "8418": "des",
  "8419": " scores",
  "8420": " unex",
  "8421": "ultural",
  "8422": " representative",
  "8423": " Environment",
  "8424": " salary",
  "8425": " Dig",
  "8426": " cannabis",
  "8427": " Bh",
  "8428": "mes",
  "8429": " Action",
  "8430": " dynamic",
  "8431": "amac",
  "8432": " tail",
  "8433": " peak",
  "8434": " grounds",
  "8435": "mad",
  "8436": "ل",
  "8437": " Golden",
  "8438": " dramatic",
  "8439": " Did",
  "8440": "++",
  "8441": " throwing",
  "8442": "wered",
  "8443": " description",
  "8444": "GO",
  "8445": " counts",
  "8446": " perpet",
  "8447": "jo",
  "8448": " offices",
  "8449": " involves",
  "8450": " Report",
  "8451": " Howard",
  "8452": "Will",
  "8453": " Pent",
  "8454": " electronic",
  "8455": " bureau",
  "8456": "mission",
  "8457": "text",
  "8458": " referring",
  "8459": " History",
  "8460": " rif",
  "8461": " Such",
  "8462": "RL",
  "8463": " Never",
  "8464": " depression",
  "8465": "'.",
  "8466": "worth",
  "8467": " disrupt",
  "8468": " attitude",
  "8469": " puzz",
  "8470": " brill",
  "8471": " external",
  "8472": " hang",
  "8473": "ictions",
  "8474": " normally",
  "8475": " listening",
  "8476": " Disney",
  "8477": "vision",
  "8478": "ogs",
  "8479": " monthly",
  "8480": " investigating",
  "8481": " stayed",
  "8482": " recommended",
  "8483": " Sat",
  "8484": " medicine",
  "8485": "annels",
  "8486": " 1996",
  "8487": "geon",
  "8488": " frag",
  "8489": " ignore",
  "8490": " alter",
  "8491": " connections",
  "8492": "</",
  "8493": " accus",
  "8494": "phones",
  "8495": "dney",
  "8496": " astron",
  "8497": " enormous",
  "8498": "ca",
  "8499": " rational",
  "8500": " publication",
  "8501": " Pennsylvania",
  "8502": " estimate",
  "8503": " Arabia",
  "8504": " FA",
  "8505": "eria",
  "8506": " �",
  "8507": "uits",
  "8508": " Square",
  "8509": " efficiency",
  "8510": "acon",
  "8511": " Cleveland",
  "8512": "acco",
  "8513": " bail",
  "8514": " languages",
  "8515": "achusetts",
  "8516": " raw",
  "8517": " Code",
  "8518": " virtually",
  "8519": " statistics",
  "8520": " Revolution",
  "8521": "ira",
  "8522": " quote",
  "8523": " licens",
  "8524": "html",
  "8525": "rot",
  "8526": "PP",
  "8527": " inject",
  "8528": " Harris",
  "8529": " Queen",
  "8530": " samples",
  "8531": " stupid",
  "8532": " menu",
  "8533": " List",
  "8534": " sugar",
  "8535": " casual",
  "8536": " Jac",
  "8537": " march",
  "8538": "ologists",
  "8539": " Ext",
  "8540": " amid",
  "8541": " suffer",
  "8542": "core",
  "8543": " Walker",
  "8544": " abst",
  "8545": " liquid",
  "8546": " Pitt",
  "8547": " affairs",
  "8548": " Roy",
  "8549": " admit",
  "8550": " princip",
  "8551": " conce",
  "8552": "ective",
  "8553": "ito",
  "8554": "iry",
  "8555": "85",
  "8556": " hint",
  "8557": " personality",
  "8558": "fare",
  "8559": " screens",
  "8560": " Bad",
  "8561": " lowest",
  "8562": "case",
  "8563": " temperatures",
  "8564": " yellow",
  "8565": " holiday",
  "8566": "SD",
  "8567": "annon",
  "8568": " Allen",
  "8569": " salt",
  "8570": " ranked",
  "8571": "ndum",
  "8572": "itionally",
  "8573": " authent",
  "8574": "hour",
  "8575": "olph",
  "8576": " 1997",
  "8577": " Brother",
  "8578": "igrant",
  "8579": " remarks",
  "8580": "iverpool",
  "8581": " accommod",
  "8582": "senal",
  "8583": " ingred",
  "8584": " origin",
  "8585": "Black",
  "8586": "amacare",
  "8587": " jur",
  "8588": "rapped",
  "8589": " Rand",
  "8590": " flash",
  "8591": "の",
  "8592": " Museum",
  "8593": " Oklahoma",
  "8594": " implemented",
  "8595": " plain",
  "8596": " surf",
  "8597": "mary",
  "8598": " Professor",
  "8599": " presum",
  "8600": " unions",
  "8601": " visitors",
  "8602": " luck",
  "8603": " rom",
  "8604": " sorry",
  "8605": " fiscal",
  "8606": "CT",
  "8607": " ESPN",
  "8608": " pump",
  "8609": " heading",
  "8610": " rural",
  "8611": " mad",
  "8612": " overt",
  "8613": " missile",
  "8614": " transportation",
  "8615": "800",
  "8616": "unes",
  "8617": " roads",
  "8618": " AND",
  "8619": "Che",
  "8620": "aka",
  "8621": " preced",
  "8622": " trave",
  "8623": "Where",
  "8624": " platforms",
  "8625": " Ali",
  "8626": " chapter",
  "8627": " Head",
  "8628": "essel",
  "8629": " Family",
  "8630": " gathered",
  "8631": "Both",
  "8632": " attempting",
  "8633": "uties",
  "8634": " terrorists",
  "8635": " encouraged",
  "8636": " strategic",
  "8637": " legitimate",
  "8638": "arms",
  "8639": " 53",
  "8640": "lad",
  "8641": "abet",
  "8642": " console",
  "8643": "GE",
  "8644": " fro",
  "8645": " iP",
  "8646": "cut",
  "8647": "�",
  "8648": " Ref",
  "8649": " Mah",
  "8650": " boat",
  "8651": " shoulder",
  "8652": " waves",
  "8653": " seemingly",
  "8654": " grav",
  "8655": " III",
  "8656": " arr",
  "8657": " Ontario",
  "8658": "yo",
  "8659": " Trade",
  "8660": " investigate",
  "8661": " sevent",
  "8662": "News",
  "8663": "agic",
  "8664": "FF",
  "8665": " sty",
  "8666": " covers",
  "8667": " races",
  "8668": " da",
  "8669": " drew",
  "8670": " obtain",
  "8671": ".-",
  "8672": " tea",
  "8673": " closing",
  "8674": " Fed",
  "8675": " clim",
  "8676": "king",
  "8677": "ă",
  "8678": "abeth",
  "8679": " celeb",
  "8680": "thon",
  "8681": " Cre",
  "8682": " ballot",
  "8683": " universities",
  "8684": "69",
  "8685": "cover",
  "8686": " resign",
  "8687": " Community",
  "8688": " legs",
  "8689": " practical",
  "8690": "siss",
  "8691": " improvement",
  "8692": " Turkish",
  "8693": "ystem",
  "8694": " branch",
  "8695": " ham",
  "8696": "helsea",
  "8697": "rator",
  "8698": " appreciate",
  "8699": "87",
  "8700": " careful",
  "8701": " Buff",
  "8702": " depos",
  "8703": "issis",
  "8704": "including",
  "8705": " tasks",
  "8706": " conspiracy",
  "8707": " Illinois",
  "8708": " foss",
  "8709": " alert",
  "8710": " tweeted",
  "8711": "�",
  "8712": " guarantee",
  "8713": " handed",
  "8714": " Master",
  "8715": "othing",
  "8716": "Art",
  "8717": " Ba",
  "8718": " Ly",
  "8719": " providers",
  "8720": " tomorrow",
  "8721": "bi",
  "8722": "claim",
  "8723": " Chair",
  "8724": " firing",
  "8725": "riors",
  "8726": " Hard",
  "8727": "bn",
  "8728": "ped",
  "8729": " Brew",
  "8730": " depends",
  "8731": " consistently",
  "8732": " Stat",
  "8733": " settlement",
  "8734": " conversations",
  "8735": "iences",
  "8736": " Ra",
  "8737": " discussions",
  "8738": " disorder",
  "8739": " rhet",
  "8740": " Ren",
  "8741": " Massachusetts",
  "8742": " drama",
  "8743": " revel",
  "8744": " Intelligence",
  "8745": " compe",
  "8746": " Without",
  "8747": " horror",
  "8748": " Cooper",
  "8749": " ignored",
  "8750": " NC",
  "8751": " McK",
  "8752": " mistakes",
  "8753": " servers",
  "8754": " register",
  "8755": " portray",
  "8756": "Who",
  "8757": "ported",
  "8758": "aval",
  "8759": " mo",
  "8760": " distract",
  "8761": " incidents",
  "8762": " suspended",
  "8763": " Core",
  "8764": " Guardian",
  "8765": "eding",
  "8766": "plete",
  "8767": " Bridge",
  "8768": " extraord",
  "8769": " reliable",
  "8770": " overs",
  "8771": " phrase",
  "8772": " entitled",
  "8773": " Netflix",
  "8774": "iere",
  "8775": " Freedom",
  "8776": " opinions",
  "8777": " Use",
  "8778": " marks",
  "8779": " dub",
  "8780": " spaces",
  "8781": " Information",
  "8782": "hot",
  "8783": " grid",
  "8784": " replied",
  "8785": " Check",
  "8786": "Ste",
  "8787": " threw",
  "8788": " demonstrated",
  "8789": " displ",
  "8790": " Hajime",
  "8791": "ivals",
  "8792": "ñ",
  "8793": " sin",
  "8794": " passengers",
  "8795": " captain",
  "8796": "Ref",
  "8797": "rets",
  "8798": "HT",
  "8799": " reads",
  "8800": " Indeed",
  "8801": " deficit",
  "8802": " mountain",
  "8803": "iban",
  "8804": " activist",
  "8805": " mun",
  "8806": " layer",
  "8807": " Ur",
  "8808": " Matthew",
  "8809": " gains",
  "8810": "ntil",
  "8811": "ecut",
  "8812": " UFC",
  "8813": " inequ",
  "8814": "ourse",
  "8815": " improving",
  "8816": " Technology",
  "8817": "ammed",
  "8818": "ificial",
  "8819": " NOT",
  "8820": " acquired",
  "8821": " hockey",
  "8822": "SC",
  "8823": "scale",
  "8824": "##",
  "8825": " twenty",
  "8826": " Unfortunately",
  "8827": " landscape",
  "8828": "\")",
  "8829": " tries",
  "8830": " noting",
  "8831": " judges",
  "8832": " Cameron",
  "8833": " 51",
  "8834": "aping",
  "8835": " Tri",
  "8836": " 1995",
  "8837": " absence",
  "8838": " universal",
  "8839": " contributions",
  "8840": " insisted",
  "8841": "eries",
  "8842": " Which",
  "8843": "ounce",
  "8844": " Gun",
  "8845": " objective",
  "8846": " Kennedy",
  "8847": " ranks",
  "8848": " joke",
  "8849": "ompson",
  "8850": " Gulf",
  "8851": " sequence",
  "8852": " Bernie",
  "8853": "inch",
  "8854": " breaks",
  "8855": "Please",
  "8856": "vard",
  "8857": " failing",
  "8858": " exch",
  "8859": " predicted",
  "8860": " literature",
  "8861": " restaurants",
  "8862": "zed",
  "8863": "isp",
  "8864": "only",
  "8865": "uten",
  "8866": " WW",
  "8867": " Make",
  "8868": " commonly",
  "8869": " lucky",
  "8870": " Kansas",
  "8871": " Ippo",
  "8872": " hung",
  "8873": " Conservative",
  "8874": " Ice",
  "8875": " na",
  "8876": " ax",
  "8877": " usage",
  "8878": "ieties",
  "8879": " legacy",
  "8880": "ihad",
  "8881": "600",
  "8882": " Nintendo",
  "8883": " investigators",
  "8884": "Ass",
  "8885": "Her",
  "8886": "ington",
  "8887": " saving",
  "8888": " Death",
  "8889": " covering",
  "8890": " highlights",
  "8891": "don",
  "8892": "iate",
  "8893": "72",
  "8894": " equality",
  "8895": " protocol",
  "8896": " spokesperson",
  "8897": " dismissed",
  "8898": "hop",
  "8899": " Share",
  "8900": " virus",
  "8901": " Niger",
  "8902": "plus",
  "8903": "apolis",
  "8904": " Vegas",
  "8905": " referendum",
  "8906": " fighter",
  "8907": " mice",
  "8908": "high",
  "8909": "ijing",
  "8910": " criticized",
  "8911": " insist",
  "8912": "Sen",
  "8913": " Phoenix",
  "8914": " Battle",
  "8915": " racism",
  "8916": " settings",
  "8917": " documentary",
  "8918": " coaches",
  "8919": "keep",
  "8920": " porn",
  "8921": " horse",
  "8922": " Getty",
  "8923": "https",
  "8924": " %",
  "8925": " violation",
  "8926": " divided",
  "8927": " ratings",
  "8928": " fantastic",
  "8929": " centers",
  "8930": " waters",
  "8931": " Mexican",
  "8932": "VE",
  "8933": "73",
  "8934": "type",
  "8935": " lands",
  "8936": "eters",
  "8937": " Bible",
  "8938": " falls",
  "8939": " earthqu",
  "8940": " comedy",
  "8941": " Broad",
  "8942": " Ball",
  "8943": " channels",
  "8944": " Expl",
  "8945": "icism",
  "8946": " voter",
  "8947": " Jenn",
  "8948": " silver",
  "8949": " acknowledged",
  "8950": " milk",
  "8951": " None",
  "8952": " neck",
  "8953": " euro",
  "8954": " ratio",
  "8955": "ught",
  "8956": " Sydney",
  "8957": "79",
  "8958": " tracking",
  "8959": " approached",
  "8960": " Pres",
  "8961": " partnership",
  "8962": " actors",
  "8963": " buff",
  "8964": " civilians",
  "8965": "David",
  "8966": "Ed",
  "8967": "RS",
  "8968": " Pass",
  "8969": " profits",
  "8970": " performing",
  "8971": " responses",
  "8972": " assigned",
  "8973": " Eag",
  "8974": " naturally",
  "8975": " Cook",
  "8976": " factory",
  "8977": " 1994",
  "8978": " Patri",
  "8979": " employed",
  "8980": " Austin",
  "8981": " petition",
  "8982": " capabilities",
  "8983": " instrument",
  "8984": " monitor",
  "8985": "heim",
  "8986": " trials",
  "8987": " hoped",
  "8988": " visiting",
  "8989": " Hospital",
  "8990": " Vietnam",
  "8991": " transactions",
  "8992": "itter",
  "8993": "was",
  "8994": " studied",
  "8995": " Roberts",
  "8996": "abe",
  "8997": "aeda",
  "8998": "Fl",
  "8999": " (“",
  "9000": " checks",
  "9001": " abandoned",
  "9002": " Kat",
  "9003": " obs",
  "9004": " Associated",
  "9005": " adventure",
  "9006": " forest",
  "9007": " Las",
  "9008": " funded",
  "9009": "argo",
  "9010": " Xbox",
  "9011": " entr",
  "9012": "ón",
  "9013": " ec",
  "9014": " locked",
  "9015": "Still",
  "9016": " Pop",
  "9017": " shit",
  "9018": " Anderson",
  "9019": " handling",
  "9020": " entreprene",
  "9021": " Kar",
  "9022": " Samsung",
  "9023": " Prop",
  "9024": "izabeth",
  "9025": "ocument",
  "9026": " addressed",
  "9027": " smell",
  "9028": " joy",
  "9029": " swing",
  "9030": " Start",
  "9031": "backs",
  "9032": "VP",
  "9033": " Beck",
  "9034": " cust",
  "9035": "\".[",
  "9036": " jun",
  "9037": " Ap",
  "9038": " ”",
  "9039": " ->",
  "9040": " wrest",
  "9041": " tactics",
  "9042": " supplies",
  "9043": " Atlantic",
  "9044": " Vill",
  "9045": "pled",
  "9046": " inner",
  "9047": " scientist",
  "9048": " Chron",
  "9049": "ordon",
  "9050": " Wik",
  "9051": " DO",
  "9052": " cow",
  "9053": " �",
  "9054": " stake",
  "9055": " ramp",
  "9056": " measured",
  "9057": " shout",
  "9058": " innovation",
  "9059": " pref",
  "9060": " letting",
  "9061": " Sony",
  "9062": "enh",
  "9063": " stone",
  "9064": " promises",
  "9065": " whenever",
  "9066": " diverse",
  "9067": " playoffs",
  "9068": " Spring",
  "9069": " monitoring",
  "9070": "gus",
  "9071": " stolen",
  "9072": "irts",
  "9073": " Data",
  "9074": " symp",
  "9075": " midfield",
  "9076": " ordinary",
  "9077": "ctr",
  "9078": " fruit",
  "9079": " rookie",
  "9080": " musical",
  "9081": "Back",
  "9082": " reader",
  "9083": " hip",
  "9084": " replacement",
  "9085": " assessment",
  "9086": " subscrib",
  "9087": "ō",
  "9088": " senator",
  "9089": " Bureau",
  "9090": " butt",
  "9091": " Warren",
  "9092": "ynch",
  "9093": " mathem",
  "9094": " nomination",
  "9095": "bered",
  "9096": "Post",
  "9097": " sorts",
  "9098": " Scottish",
  "9099": " Mississ",
  "9100": " Photos",
  "9101": "Part",
  "9102": "Cons",
  "9103": " secondary",
  "9104": " Acc",
  "9105": "Your",
  "9106": "aki",
  "9107": " spokeswoman",
  "9108": "fr",
  "9109": "inians",
  "9110": " ministry",
  "9111": " Ha",
  "9112": "mat",
  "9113": "trans",
  "9114": " Yeah",
  "9115": " Marsh",
  "9116": " Iraqi",
  "9117": " warn",
  "9118": " lets",
  "9119": " theat",
  "9120": " Friend",
  "9121": "uh",
  "9122": " Obamacare",
  "9123": " chat",
  "9124": "AF",
  "9125": " forcing",
  "9126": " accomplish",
  "9127": "they",
  "9128": " Bron",
  "9129": " argues",
  "9130": " assign",
  "9131": " warrant",
  "9132": " encounter",
  "9133": "organ",
  "9134": " Abb",
  "9135": " Age",
  "9136": "inction",
  "9137": "comes",
  "9138": " Moon",
  "9139": " distributed",
  "9140": " Taliban",
  "9141": " differently",
  "9142": "shire",
  "9143": " representing",
  "9144": " introduce",
  "9145": " programme",
  "9146": " Stadium",
  "9147": "jan",
  "9148": " Tro",
  "9149": "agh",
  "9150": " dates",
  "9151": " tips",
  "9152": " Wolf",
  "9153": " €",
  "9154": " Ho",
  "9155": " Ult",
  "9156": "Though",
  "9157": "itage",
  "9158": "orous",
  "9159": " quoted",
  "9160": " Az",
  "9161": "ateral",
  "9162": " bars",
  "9163": " drove",
  "9164": " maintained",
  "9165": " conventional",
  "9166": " auto",
  "9167": "crib",
  "9168": "dri",
  "9169": "eals",
  "9170": " maps",
  "9171": " manifest",
  "9172": "ila",
  "9173": " blocked",
  "9174": " burden",
  "9175": "encing",
  "9176": " temporary",
  "9177": " congressional",
  "9178": "plate",
  "9179": "xit",
  "9180": " noise",
  "9181": " tiss",
  "9182": " Carter",
  "9183": " deadly",
  "9184": " guitar",
  "9185": "iy",
  "9186": " arrive",
  "9187": " Gaza",
  "9188": "pack",
  "9189": "arity",
  "9190": "63",
  "9191": " importantly",
  "9192": " barrel",
  "9193": "ceptions",
  "9194": " Jonathan",
  "9195": "quest",
  "9196": "�",
  "9197": " cul",
  "9198": "ounding",
  "9199": " politically",
  "9200": " soccer",
  "9201": " copies",
  "9202": " silence",
  "9203": " spoken",
  "9204": " Sarah",
  "9205": " weigh",
  "9206": " loans",
  "9207": " populations",
  "9208": " smoking",
  "9209": " athletes",
  "9210": " revers",
  "9211": " surely",
  "9212": "section",
  "9213": " urged",
  "9214": " introduction",
  "9215": " consent",
  "9216": " tonight",
  "9217": "made",
  "9218": " drone",
  "9219": " hyper",
  "9220": " lobby",
  "9221": " swim",
  "9222": "Pre",
  "9223": " bot",
  "9224": " tie",
  "9225": " Does",
  "9226": " trigger",
  "9227": " submitted",
  "9228": " shopping",
  "9229": "ibl",
  "9230": "step",
  "9231": " lying",
  "9232": " bonus",
  "9233": "61",
  "9234": " relax",
  "9235": " guest",
  "9236": " sear",
  "9237": "jud",
  "9238": " Was",
  "9239": " NATO",
  "9240": " Liverpool",
  "9241": " iOS",
  "9242": "assador",
  "9243": " experiments",
  "9244": " headquarters",
  "9245": "Facebook",
  "9246": " focusing",
  "9247": " streaming",
  "9248": " wealthy",
  "9249": " healthcare",
  "9250": " Connect",
  "9251": "2015",
  "9252": " Cow",
  "9253": "Yet",
  "9254": " stages",
  "9255": " Sus",
  "9256": " threatening",
  "9257": " Control",
  "9258": "rient",
  "9259": "м",
  "9260": " festival",
  "9261": " blast",
  "9262": "AND",
  "9263": " paralle",
  "9264": " Utah",
  "9265": "fund",
  "9266": " semi",
  "9267": " Cost",
  "9268": "oded",
  "9269": " prepar",
  "9270": " Plus",
  "9271": " celebrate",
  "9272": "essee",
  "9273": "otype",
  "9274": " fur",
  "9275": " Ast",
  "9276": " CH",
  "9277": " weekly",
  "9278": " Marvel",
  "9279": "emed",
  "9280": " Sometimes",
  "9281": "orable",
  "9282": " odds",
  "9283": " Girl",
  "9284": " popularity",
  "9285": " Bra",
  "9286": " Creat",
  "9287": " protecting",
  "9288": " circle",
  "9289": " absor",
  "9290": " windows",
  "9291": " knee",
  "9292": " roof",
  "9293": " Dream",
  "9294": " tape",
  "9295": " Corpor",
  "9296": " beauty",
  "9297": "SE",
  "9298": " PA",
  "9299": " Dave",
  "9300": "isons",
  "9301": " Trib",
  "9302": " clock",
  "9303": "ippi",
  "9304": " hydro",
  "9305": "RC",
  "9306": " appearances",
  "9307": "zing",
  "9308": " brilliant",
  "9309": " Jam",
  "9310": " helpful",
  "9311": "rooms",
  "9312": " pursue",
  "9313": "unity",
  "9314": " Greece",
  "9315": " spiritual",
  "9316": "pton",
  "9317": "pie",
  "9318": "ahu",
  "9319": " Kong",
  "9320": "theless",
  "9321": " guards",
  "9322": " wider",
  "9323": " creatures",
  "9324": "vernment",
  "9325": " Bon",
  "9326": " outrage",
  "9327": " innocent",
  "9328": "olds",
  "9329": "akh",
  "9330": "atar",
  "9331": " 2020",
  "9332": " diseases",
  "9333": " proposals",
  "9334": " Mill",
  "9335": " MORE",
  "9336": " newsletter",
  "9337": " Ark",
  "9338": "zy",
  "9339": "62",
  "9340": " Beijing",
  "9341": " compare",
  "9342": " render",
  "9343": "aware",
  "9344": " conservatives",
  "9345": " smartphone",
  "9346": " Dutch",
  "9347": " actively",
  "9348": " veterans",
  "9349": " Common",
  "9350": "irlf",
  "9351": " demanding",
  "9352": " survival",
  "9353": " demonstrate",
  "9354": " migrants",
  "9355": " autonom",
  "9356": "ials",
  "9357": "bow",
  "9358": " Ak",
  "9359": " rooms",
  "9360": " arguing",
  "9361": " affordable",
  "9362": " reverse",
  "9363": " appointed",
  "9364": " Nev",
  "9365": " Justin",
  "9366": " Low",
  "9367": "through",
  "9368": " brown",
  "9369": " unpre",
  "9370": " labour",
  "9371": " kilomet",
  "9372": "dy",
  "9373": "igenous",
  "9374": " Lewis",
  "9375": " recall",
  "9376": "rik",
  "9377": "Reuters",
  "9378": " soil",
  "9379": " domain",
  "9380": "omes",
  "9381": "El",
  "9382": "irlfriend",
  "9383": " hire",
  "9384": "itary",
  "9385": "orious",
  "9386": "�",
  "9387": " concert",
  "9388": " questioned",
  "9389": "Christ",
  "9390": " muscle",
  "9391": "aved",
  "9392": " anniversary",
  "9393": " rush",
  "9394": " forecast",
  "9395": " picks",
  "9396": "izer",
  "9397": " dying",
  "9398": " investigations",
  "9399": " Indiana",
  "9400": " tens",
  "9401": "held",
  "9402": " thorough",
  "9403": " cro",
  "9404": " memo",
  "9405": "archy",
  "9406": "usalem",
  "9407": "я",
  "9408": " Ross",
  "9409": " trillion",
  "9410": " ..",
  "9411": " deserve",
  "9412": " Gard",
  "9413": " Meanwhile",
  "9414": " eggs",
  "9415": " testimony",
  "9416": " lux",
  "9417": " prosecutors",
  "9418": " Thompson",
  "9419": "market",
  "9420": " ages",
  "9421": " Iranian",
  "9422": " Crime",
  "9423": " Libya",
  "9424": "mony",
  "9425": " 57",
  "9426": "GA",
  "9427": " acid",
  "9428": " AI",
  "9429": " arrival",
  "9430": " Tok",
  "9431": " okay",
  "9432": " Marine",
  "9433": "ultane",
  "9434": " exit",
  "9435": " Engine",
  "9436": " Mun",
  "9437": " meaningful",
  "9438": " phenomenon",
  "9439": " nin",
  "9440": " Form",
  "9441": " releases",
  "9442": "bridge",
  "9443": "ecutive",
  "9444": " wine",
  "9445": " Among",
  "9446": " arbit",
  "9447": " wounded",
  "9448": " Intel",
  "9449": " loose",
  "9450": " ans",
  "9451": " retirement",
  "9452": " mini",
  "9453": " signature",
  "9454": " Cole",
  "9455": "ederation",
  "9456": " Hur",
  "9457": " subsc",
  "9458": " Ten",
  "9459": " classified",
  "9460": " stability",
  "9461": " cance",
  "9462": "rection",
  "9463": " targeting",
  "9464": " Empire",
  "9465": " dust",
  "9466": "orship",
  "9467": "Story",
  "9468": " Price",
  "9469": "ocolate",
  "9470": " Graham",
  "9471": " spell",
  "9472": " Mrs",
  "9473": " pointing",
  "9474": " broader",
  "9475": " stem",
  "9476": " Base",
  "9477": " los",
  "9478": " Set",
  "9479": "ylum",
  "9480": "eness",
  "9481": " openly",
  "9482": " deny",
  "9483": " Morgan",
  "9484": "Click",
  "9485": "berry",
  "9486": "ois",
  "9487": " buck",
  "9488": " transit",
  "9489": " bottle",
  "9490": "ethe",
  "9491": "Are",
  "9492": " lean",
  "9493": " hal",
  "9494": "Sim",
  "9495": " gif",
  "9496": " Hon",
  "9497": " abilities",
  "9498": " collaps",
  "9499": " butter",
  "9500": "lla",
  "9501": "ancer",
  "9502": " Sab",
  "9503": "minute",
  "9504": " settled",
  "9505": "lined",
  "9506": " Galaxy",
  "9507": " greatly",
  "9508": " passage",
  "9509": " designs",
  "9510": " organic",
  "9511": "opyright",
  "9512": " Fal",
  "9513": "mAh",
  "9514": " tremend",
  "9515": "FA",
  "9516": " persu",
  "9517": " requested",
  "9518": " margin",
  "9519": " satellite",
  "9520": " presidency",
  "9521": " 54",
  "9522": " Fall",
  "9523": "93",
  "9524": " patch",
  "9525": " fool",
  "9526": " disturb",
  "9527": "olves",
  "9528": " Chelsea",
  "9529": "00000",
  "9530": "PM",
  "9531": "athon",
  "9532": " generations",
  "9533": "iamond",
  "9534": " flags",
  "9535": "mers",
  "9536": " Mach",
  "9537": " Toy",
  "9538": " dump",
  "9539": " Silver",
  "9540": "ela",
  "9541": " whereas",
  "9542": " donations",
  "9543": " defending",
  "9544": " struggled",
  "9545": " knife",
  "9546": " Boe",
  "9547": " scope",
  "9548": "portation",
  "9549": " amendment",
  "9550": " dad",
  "9551": " lad",
  "9552": "84",
  "9553": " comprehensive",
  "9554": " criteria",
  "9555": "Step",
  "9556": "cedented",
  "9557": " Yan",
  "9558": " hypothes",
  "9559": " shadow",
  "9560": "abies",
  "9561": "ishop",
  "9562": " gig",
  "9563": "conf",
  "9564": " upload",
  "9565": " wanting",
  "9566": " shirt",
  "9567": " Management",
  "9568": " exha",
  "9569": "в",
  "9570": " savings",
  "9571": "esty",
  "9572": " hosp",
  "9573": " breath",
  "9574": " coc",
  "9575": "enter",
  "9576": " Deb",
  "9577": " WH",
  "9578": " Clark",
  "9579": " childhood",
  "9580": " Tele",
  "9581": " persons",
  "9582": " rocket",
  "9583": " expanding",
  "9584": " architecture",
  "9585": " enthusi",
  "9586": "igious",
  "9587": "TE",
  "9588": " DS",
  "9589": " Marx",
  "9590": " assumed",
  "9591": " judgment",
  "9592": " genre",
  "9593": " rebels",
  "9594": "rior",
  "9595": "Dem",
  "9596": " missions",
  "9597": " bowl",
  "9598": " borders",
  "9599": "bing",
  "9600": "author",
  "9601": "ATCH",
  "9602": "gage",
  "9603": " Sa",
  "9604": " Vice",
  "9605": " alarm",
  "9606": " rear",
  "9607": "ERE",
  "9608": " protein",
  "9609": "gered",
  "9610": " formation",
  "9611": "ilation",
  "9612": " substance",
  "9613": " Leon",
  "9614": "omed",
  "9615": "94",
  "9616": "acket",
  "9617": "ь",
  "9618": " inches",
  "9619": " superior",
  "9620": " Iron",
  "9621": "Red",
  "9622": " Link",
  "9623": "ennis",
  "9624": " stere",
  "9625": " provision",
  "9626": " staying",
  "9627": " capitalism",
  "9628": " producers",
  "9629": " Andre",
  "9630": " aer",
  "9631": "aria",
  "9632": " ease",
  "9633": " Burn",
  "9634": " −",
  "9635": "ogy",
  "9636": " drives",
  "9637": " titled",
  "9638": " stepped",
  "9639": " Alexander",
  "9640": " consensus",
  "9641": "BM",
  "9642": " gross",
  "9643": " coinc",
  "9644": "·",
  "9645": " rounds",
  "9646": " banking",
  "9647": " Maryland",
  "9648": "ika",
  "9649": " Der",
  "9650": " smile",
  "9651": " clothing",
  "9652": " competing",
  "9653": " gent",
  "9654": " Liberal",
  "9655": " hopefully",
  "9656": " therapy",
  "9657": " Jerusalem",
  "9658": " vig",
  "9659": " backing",
  "9660": " lunch",
  "9661": " striking",
  "9662": "bits",
  "9663": " wedd",
  "9664": " Ve",
  "9665": "afe",
  "9666": "Watch",
  "9667": " preparing",
  "9668": " attractive",
  "9669": "even",
  "9670": "92",
  "9671": "SU",
  "9672": " awarded",
  "9673": "utiny",
  "9674": " membership",
  "9675": " toxic",
  "9676": " vessel",
  "9677": " burning",
  "9678": " killer",
  "9679": " Library",
  "9680": " Barb",
  "9681": "assy",
  "9682": " abroad",
  "9683": " sed",
  "9684": " remarkable",
  "9685": "aders",
  "9686": "OK",
  "9687": " fate",
  "9688": " Governor",
  "9689": "ouri",
  "9690": " YOU",
  "9691": "oret",
  "9692": " Medicare",
  "9693": "instein",
  "9694": "const",
  "9695": "after",
  "9696": " Harvard",
  "9697": "ingers",
  "9698": "thood",
  "9699": " Aud",
  "9700": " tables",
  "9701": " rescue",
  "9702": "mic",
  "9703": " answered",
  "9704": " charity",
  "9705": " fundra",
  "9706": " );",
  "9707": " reveals",
  "9708": "lando",
  "9709": "itol",
  "9710": " horr",
  "9711": " anxiety",
  "9712": "roph",
  "9713": " 120",
  "9714": " Benn",
  "9715": " discussing",
  "9716": " Ted",
  "9717": " Mess",
  "9718": " Priv",
  "9719": " 95",
  "9720": "!!!",
  "9721": " Eff",
  "9722": " Six",
  "9723": " followers",
  "9724": "asury",
  "9725": " unfair",
  "9726": " graduate",
  "9727": " spectrum",
  "9728": " cig",
  "9729": " unexpected",
  "9730": " bread",
  "9731": " gal",
  "9732": " nic",
  "9733": "fol",
  "9734": " Hold",
  "9735": " strategies",
  "9736": " MLS",
  "9737": " Son",
  "9738": "child",
  "9739": " Station",
  "9740": " repeat",
  "9741": "Comp",
  "9742": "ikh",
  "9743": " 56",
  "9744": "test",
  "9745": " obsc",
  "9746": "iffs",
  "9747": "Google",
  "9748": "via",
  "9749": " Tennessee",
  "9750": "Ke",
  "9751": "aration",
  "9752": " underlying",
  "9753": " Assembly",
  "9754": " eligible",
  "9755": " assass",
  "9756": "NBC",
  "9757": " Hop",
  "9758": " Berlin",
  "9759": " Capital",
  "9760": " Credit",
  "9761": " comics",
  "9762": " consideration",
  "9763": " representatives",
  "9764": " Tech",
  "9765": " kitchen",
  "9766": " distingu",
  "9767": " info",
  "9768": " spots",
  "9769": " inspect",
  "9770": "aga",
  "9771": " tons",
  "9772": " ).",
  "9773": " Sean",
  "9774": " Exper",
  "9775": " riding",
  "9776": " psychiat",
  "9777": " manufacturers",
  "9778": "izza",
  "9779": " pron",
  "9780": " dish",
  "9781": " enhance",
  "9782": " PD",
  "9783": "some",
  "9784": "die",
  "9785": " ceremony",
  "9786": "ormal",
  "9787": " Through",
  "9788": " calm",
  "9789": " Ros",
  "9790": "asty",
  "9791": " Pant",
  "9792": "sub",
  "9793": " aims",
  "9794": " tempor",
  "9795": " analyst",
  "9796": " vend",
  "9797": " everyday",
  "9798": " studying",
  "9799": " legislative",
  "9800": " implications",
  "9801": " clinical",
  "9802": " Store",
  "9803": " Person",
  "9804": "brid",
  "9805": "aver",
  "9806": " Lions",
  "9807": " executives",
  "9808": "vertisements",
  "9809": " Lt",
  "9810": " parad",
  "9811": " tut",
  "9812": " intim",
  "9813": "race",
  "9814": " Elizabeth",
  "9815": " Prince",
  "9816": "igate",
  "9817": " chest",
  "9818": " cognitive",
  "9819": " Gh",
  "9820": "TR",
  "9821": " creature",
  "9822": "82",
  "9823": "CO",
  "9824": " compat",
  "9825": " nose",
  "9826": " stance",
  "9827": "alysis",
  "9828": "player",
  "9829": "party",
  "9830": "bury",
  "9831": "ctic",
  "9832": "omy",
  "9833": " Dal",
  "9834": " possess",
  "9835": " simultane",
  "9836": " Jere",
  "9837": " nerv",
  "9838": " tired",
  "9839": " pharm",
  "9840": " employers",
  "9841": " museum",
  "9842": "cest",
  "9843": " cooperation",
  "9844": " harassment",
  "9845": " !",
  "9846": " Run",
  "9847": " centuries",
  "9848": " lineup",
  "9849": "onder",
  "9850": "yes",
  "9851": " quit",
  "9852": "elf",
  "9853": "71",
  "9854": "650",
  "9855": " execution",
  "9856": " Have",
  "9857": "tenance",
  "9858": " violations",
  "9859": " variable",
  "9860": " promoting",
  "9861": " collaboration",
  "9862": " chicken",
  "9863": "ailed",
  "9864": " beating",
  "9865": " cream",
  "9866": " journalism",
  "9867": " bullet",
  "9868": " errors",
  "9869": " Antonio",
  "9870": " psychological",
  "9871": " Bal",
  "9872": "umin",
  "9873": " les",
  "9874": " Edward",
  "9875": "ocial",
  "9876": "amous",
  "9877": "oting",
  "9878": " Represent",
  "9879": "alties",
  "9880": " interaction",
  "9881": " contribution",
  "9882": " facilit",
  "9883": " Gil",
  "9884": "elle",
  "9885": " sections",
  "9886": " dispute",
  "9887": " preferred",
  "9888": " pros",
  "9889": " Hong",
  "9890": "affe",
  "9891": " Sweden",
  "9892": " pa",
  "9893": "mind",
  "9894": " fossil",
  "9895": "rac",
  "9896": "iture",
  "9897": " physically",
  "9898": " civilian",
  "9899": " Jean",
  "9900": " Olympic",
  "9901": "umble",
  "9902": " dominant",
  "9903": "press",
  "9904": "raig",
  "9905": "rock",
  "9906": " promising",
  "9907": " damaged",
  "9908": " suspects",
  "9909": " Instagram",
  "9910": " Adv",
  "9911": " principal",
  "9912": " mit",
  "9913": " Mississippi",
  "9914": " Som",
  "9915": " EC",
  "9916": "alia",
  "9917": " difficulty",
  "9918": " categories",
  "9919": " Leader",
  "9920": " perceived",
  "9921": " fet",
  "9922": "icipal",
  "9923": " Batman",
  "9924": "utter",
  "9925": " surviv",
  "9926": " memories",
  "9927": " Award",
  "9928": " sheet",
  "9929": " reforms",
  "9930": " Palestinians",
  "9931": "yer",
  "9932": " Barn",
  "9933": " managing",
  "9934": " demanded",
  "9935": "isa",
  "9936": " investments",
  "9937": " explaining",
  "9938": " accessible",
  "9939": "licop",
  "9940": "week",
  "9941": "dated",
  "9942": " 61",
  "9943": "Act",
  "9944": " instructions",
  "9945": " indu",
  "9946": " Bruce",
  "9947": " stored",
  "9948": " picking",
  "9949": "walk",
  "9950": "Fi",
  "9951": " delic",
  "9952": "ierce",
  "9953": " ideology",
  "9954": " theories",
  "9955": " fights",
  "9956": " mole",
  "9957": " reserved",
  "9958": " Orig",
  "9959": " overseas",
  "9960": " Tes",
  "9961": " Da",
  "9962": " Wales",
  "9963": " hosted",
  "9964": "estyle",
  "9965": " Pentagon",
  "9966": " Story",
  "9967": " grade",
  "9968": " pill",
  "9969": " Hal",
  "9970": "odge",
  "9971": " regulatory",
  "9972": " pm",
  "9973": "Mich",
  "9974": " mood",
  "9975": " Harper",
  "9976": "security",
  "9977": " emerging",
  "9978": " undert",
  "9979": "adesh",
  "9980": " _",
  "9981": " procedure",
  "9982": "endar",
  "9983": " Email",
  "9984": "err",
  "9985": " Steam",
  "9986": " Hitler",
  "9987": "(\"",
  "9988": "iac",
  "9989": "acts",
  "9990": "icity",
  "9991": " seed",
  "9992": " Rather",
  "9993": " lapt",
  "9994": " Robinson",
  "9995": "ova",
  "9996": "emic",
  "9997": "hard",
  "9998": " sits",
  "9999": "necess",
  "10000": " 1950",
  "10001": " landing",
  "10002": " lens",
  "10003": " Delhi",
  "10004": " helicop",
  "10005": " indicates",
  "10006": "bourne",
  "10007": " outlets",
  "10008": " bene",
  "10009": " Section",
  "10010": "wed",
  "10011": " ridiculous",
  "10012": "Ms",
  "10013": " opens",
  "10014": "erent",
  "10015": " timing",
  "10016": " guidelines",
  "10017": "ixed",
  "10018": " agreements",
  "10019": "odox",
  "10020": " displayed",
  "10021": " birthday",
  "10022": " glad",
  "10023": "rer",
  "10024": " crus",
  "10025": " convince",
  "10026": "Earlier",
  "10027": " pulling",
  "10028": " frequent",
  "10029": " Front",
  "10030": "View",
  "10031": " Video",
  "10032": "throp",
  "10033": "watch",
  "10034": " SE",
  "10035": "mented",
  "10036": " gate",
  "10037": " Therefore",
  "10038": " militants",
  "10039": " racing",
  "10040": " loves",
  "10041": " cabinet",
  "10042": "ista",
  "10043": "dr",
  "10044": " intr",
  "10045": " Indust",
  "10046": " occurs",
  "10047": " fatal",
  "10048": " contrad",
  "10049": "lude",
  "10050": "urrently",
  "10051": "achel",
  "10052": " Rangers",
  "10053": "Cal",
  "10054": "ы",
  "10055": " Line",
  "10056": " Short",
  "10057": " pipeline",
  "10058": " Bol",
  "10059": " forum",
  "10060": "erg",
  "10061": "pha",
  "10062": "sect",
  "10063": " roots",
  "10064": "Source",
  "10065": " API",
  "10066": " beach",
  "10067": "FO",
  "10068": " Sure",
  "10069": " Stew",
  "10070": " vert",
  "10071": " inequality",
  "10072": "Bel",
  "10073": " discount",
  "10074": " shield",
  "10075": " cheaper",
  "10076": " couples",
  "10077": " Pok",
  "10078": "PC",
  "10079": " gest",
  "10080": " dialogue",
  "10081": "uj",
  "10082": " Wi",
  "10083": " unprecedented",
  "10084": "acher",
  "10085": " pollution",
  "10086": " summit",
  "10087": "ambling",
  "10088": " 72",
  "10089": " deployed",
  "10090": " Affairs",
  "10091": " Sav",
  "10092": " sixth",
  "10093": "Mark",
  "10094": " gathering",
  "10095": " jer",
  "10096": " elder",
  "10097": " certific",
  "10098": " rhetoric",
  "10099": "oca",
  "10100": " nurs",
  "10101": " correctly",
  "10102": " Hand",
  "10103": "kee",
  "10104": " counterpart",
  "10105": "alid",
  "10106": " posting",
  "10107": " citing",
  "10108": " deadline",
  "10109": " Ocean",
  "10110": " tab",
  "10111": " keys",
  "10112": " bias",
  "10113": " contacted",
  "10114": " sovere",
  "10115": " talented",
  "10116": " acknowledge",
  "10117": " Eth",
  "10118": " lifetime",
  "10119": "Comm",
  "10120": " Prov",
  "10121": "opp",
  "10122": " signals",
  "10123": " existed",
  "10124": " voices",
  "10125": " permit",
  "10126": " custody",
  "10127": "olar",
  "10128": "250",
  "10129": " Gary",
  "10130": " Duke",
  "10131": " mos",
  "10132": "cre",
  "10133": " 59",
  "10134": " convert",
  "10135": " educational",
  "10136": " publishing",
  "10137": " correl",
  "10138": " Murray",
  "10139": " Whether",
  "10140": " precisely",
  "10141": " relation",
  "10142": " coup",
  "10143": " lessons",
  "10144": " bankrupt",
  "10145": " institution",
  "10146": " setup",
  "10147": " propaganda",
  "10148": "reek",
  "10149": "asant",
  "10150": " engineers",
  "10151": " impression",
  "10152": " Captain",
  "10153": "holders",
  "10154": " pocket",
  "10155": " Michel",
  "10156": "atively",
  "10157": " foods",
  "10158": " knock",
  "10159": " managers",
  "10160": "rend",
  "10161": "2014",
  "10162": " recalled",
  "10163": " concepts",
  "10164": " Sud",
  "10165": " Sheriff",
  "10166": "being",
  "10167": " badly",
  "10168": " participation",
  "10169": " frequency",
  "10170": " emotions",
  "10171": " prompted",
  "10172": " oxy",
  "10173": " Hamilton",
  "10174": " recre",
  "10175": " legally",
  "10176": " 250",
  "10177": " landed",
  "10178": " Budd",
  "10179": " interf",
  "10180": " bacter",
  "10181": " �",
  "10182": " presentation",
  "10183": " colour",
  "10184": "break",
  "10185": "olving",
  "10186": " artificial",
  "10187": "hatt",
  "10188": " 58",
  "10189": "Thanks",
  "10190": " utter",
  "10191": " Convention",
  "10192": " Main",
  "10193": "awks",
  "10194": "oli",
  "10195": " blank",
  "10196": " boxes",
  "10197": " defeated",
  "10198": " perception",
  "10199": "Mus",
  "10200": "rowing",
  "10201": " caps",
  "10202": "books",
  "10203": " 85",
  "10204": " Lam",
  "10205": " dating",
  "10206": " Psych",
  "10207": "itudes",
  "10208": " removal",
  "10209": "agger",
  "10210": " iter",
  "10211": "will",
  "10212": " Yemen",
  "10213": "Dis",
  "10214": "uz",
  "10215": " industries",
  "10216": "Yeah",
  "10217": " Bloom",
  "10218": " shell",
  "10219": " overcome",
  "10220": " occasional",
  "10221": " Louisiana",
  "10222": " ML",
  "10223": "arre",
  "10224": "js",
  "10225": " Kings",
  "10226": " lane",
  "10227": " 1992",
  "10228": " stops",
  "10229": " physics",
  "10230": " insight",
  "10231": " Medicaid",
  "10232": " teammates",
  "10233": " echo",
  "10234": " Children",
  "10235": " constitu",
  "10236": " extraordinary",
  "10237": " asylum",
  "10238": " functional",
  "10239": " searching",
  "10240": "State",
  "10241": " statist",
  "10242": "early",
  "10243": " brutal",
  "10244": " girlfriend",
  "10245": " barg",
  "10246": " bands",
  "10247": "arget",
  "10248": " sexually",
  "10249": " traveling",
  "10250": " Keep",
  "10251": " torture",
  "10252": " Five",
  "10253": " carries",
  "10254": " Mit",
  "10255": "UL",
  "10256": "cal",
  "10257": " Ever",
  "10258": " interviewed",
  "10259": " addresses",
  "10260": " guests",
  "10261": " requiring",
  "10262": "sburgh",
  "10263": " TR",
  "10264": "Gu",
  "10265": " magnet",
  "10266": " unve",
  "10267": " Authority",
  "10268": " punishment",
  "10269": "wa",
  "10270": " dies",
[...]
