  t
h e
  a
  s
  w
n d
 t he
e d
  b
 t o
 a nd
  h
  f
i n
  T
 w a
r e
i t
o u
  l
  d
  c
  p
a y
  m
e r
 wa s
o m
 T he
  he
i s
a r
  n
i m
o n
 s a
i d
l l
 h a
  g
a t
  S
in g
o t
e n
a n
l e
o r
i r
a m
e t
  H
  it
 t h
i g
 The y
  in
i l
 p l
 H e
  "
o w
v er
r i
u t
 b e
  u
 sa id
 pl ay
it h
 d ay
 w ith
p p
O n
  o
  y
o o
k ed
  r
 he r
c e
  I
 S he
l d
 T im
 h is
 s t
k e
  e
 b ig
n t
c k
 y ou
ver y
s t
v e
e nd
  on
u n
 ha pp
ri end
 f riend
a ll
il y
  L
 the y
 w e
 ha d
 n ot
 l i
 u p
he r
 wa nt
 o f
a d
it t
s e
  B
 d o
 happ y
en t
  very
  M
e s
 th at
 sa w
On e
' s
ou ld
 m om
 f or
 s h
itt le
 l ittle
 s o
 s he
c h
im e
 n e
 n am
. "
 t ime
  k
ou nd
 the re
 nam ed
 s m
 b o
 we re
 L ily
 want ed
 b ut
ou t
T he
 friend s
v ed
! "
h t
 T om
ir d
e l
 b ird
a l
 a n
a ke
 to o
om e
 I t
u g
id e
 w ent
 w h
 he l
On ce
  is
 a ll
 hel p
u e
 l oo
 l o
t er
  A
 up on
r y
o re
i nd
 f un
g et
 to y
i ll
am e
 a s
 a t
r a
  j
 d id
get her
  re
u r
 s e
 to gether
a ck
 c at
l y
 t re
oo d
i c
t ed
 do g
 c ould
 c an
 the ir
ar d
e c
ar k
 g ir
 play ed
 h im
 b all
? "
 gir l
w ay
 r o
 g o
he d
m y
 a re
  out
 l e
 f r
a in
 k n
he n
 the m
u m
' t
a x
 sa d
u l
 bo y
 tre e
ot her
 ha ve
 m an
 c l
 lo ved
 loo ked
ou g
 f ound
 s p
 st ar
 S ue
on e
h ing
 s c
 b ack
ow n
 M ax
a re
 li ke
f ul
s ide
 m e
 be c
 p ark
ig ht
on g
 c ar
o p
el t
  One
 li ked
 w ould
 m ake
r ound
 l a
 f a
 f elt
Y ou
  W
e ll
 se e
 B ut
om et
 as ked
a g
 ne w
 n o
i ce
 S am
ou se
 star ted
ar ed
 c ame
 B en
 a l
  other
oug ht
il ed
 s omet
 a g
 g ood
 sm all
s s
 b r
 sm iled
 s ay
ri ed
ad e
ing s
o b
p ot
 w or
 f ind
 e x
i a
 a way
t y
 p ut
 wh at
 somet hing
 c o
 fr om
 m ade
 th ought
en ed
 h ome
 play ing
oo k
 e very
 wa l
 m u
u c
a ch
ar n
 S pot
 r an
i le
  F
i e
  J
a ve
 ag ain
 s ome
 la ug
d d
 h ouse
 d own
 f l
k ing
 too k
 sc ared
 p r
n y
u re
 toy s
 le arn
  You
i f
 w ill
 bo x
i ck
re t
a b
e p
 m y
 a round
 th ings
 you r
ou d
 b l
u ck
 w hen
is h
 li ved
 f e
 the n
 s un
a s
 s w
, "
 c h
u s
pp ed
 a b
 M ia
an k
 g et
uc y
T im
um p
T h
 l ot
is t
ot h
 t ried
a p
 kn ow
 say s
 g ot
it ed
 wh o
 kn e
u st
 man y
nd er
 in t
 ab out
L ily
 p ret
 d ec
 an y
 r ed
  D
i ve
 kne w
a ce
ou s
 m ore
is e
 c are
all y
 p ic
a u
q u
 h ug
 L ucy
 learn ed
 p o
 wa ter
f ter
  v
 bec ame
 be st
au se
 o p
 g re
 ex c
ur p
way s
� �
 out side
 laug hed
 loo k
 al ways
 dec id
 sh ow
 u n
an t
 B ob
 ro om
f e
 decid ed
 h o
 bec ause
 S o
 int o
 e at
it e
 j ump
 A nd
 p e
 b oth
er s
 M om
 d ad
The y
u dd
  ke
 on e
n n
 th is
 exc ited
 fa st
 n ice
  E
 fe el
T om
Y es
 r un
 l ong
 to ld
 s k
 a m
urp r
ou r
 in side
u ll
 t r
 s urpr
 m o
in k
 pret ty
in y
 s or
W h
 t ake
o g
 s l
 e ach
 g ave
 mu ch
 g ra
le w
nn a
 ro ck
 h ow
 st r
ar a
im al
 an imal
g ed
 ne ed
 th an
B ut
v en
et ter
 to w
  or
  C
 u nder
es s
 o ld
 sor ry
g e
is ed
r o
ur t
 c le
 f ish
 wal ked
 cl o
a nd
 be ar
f t
a se
a st
 ha nd
ur n
 W e
 k ind
 H is
 t e
he re
 happ ened
 j ust
 fl ow
 f ood
 l ist
 did n
 animal s
 h ig
p l
 ne ar
 wa t
  ide
 t ry
c hed
 sk y
in e
 s n
v ing
 f i
r om
 u s
 ide a
 b etter
 A my
 b ug
 he ard
g ry
 it s
 t w
 l et
p ec
at e
ab le
f f
  en
 care ful
 sh are
e x
  if
Th ank
M om
 f ly
 st or
i al
 f lew
m ore
 any more
 T h
 sp ec
 spec ial
i on
 c om
 lot s
 ne ver
 b y
l f
re am
 d an
 b u
 f o
 w ind
 d on
 t al
 cle an
or t
 g r
 lo ve
r m
b er
 e nd

 

 The n
op le
 e ven
 m ag
 h ard
 sh iny
udd en
 f ore
 o ver
 c ake
a k
 b ook
 co l
 t urn
 f am
 b ad
 sa fe
 a fter
ad y
 A nna
udden ly
 pe ople
 pr oud
 E very
 surpr ised
pec ted
L et
 hig h
 c u
 h urt
 c ome
im b
ard en
 do or
 g arden
b b
 g round
 op ened
 pic ked
 l oud
 cl imb
ex pected
 un expected
 g l
 c he
il d
  im
A s
 g ive
 wa y
a il
' m
 than ked
 col or
 bl ue
 st ill
 e ver
 hug ged
 F rom
 c all
 f ar
i p
 H er
 S ara
 W hen
N o
 of f
 mag ic
i z
oug h
ag e
um my
  K
 jump ed
 sh ould
 fam ily
 p ar
oo l
 k id
 sm ile
he s
u ff
 pl ace
k ay
 wal k
 n ow
c t
 I n
 gre at
e m
t ure
  qu
le s
 str ong
 st ay
 u nt
 st o
a ut
 fore st
an e
 b ra
itt y
  P
 fr og
 br o
 unt il
o on
 be aut
d y
 s qu
 st ick
x t
 ne xt
 bo at
le ase
n ing
 happ ily
 list en
a king
 kid s
 t ra
i es
i ful
 beaut iful
 a pp
t h
 help ed
 d ra
 show ed
 clo s
b e
 im p
 stor y
un ny
o y
 wh ile
 tow n
re l
p t
 r ain
re ss
 pic ture
 be ing
 re m
 every one
I t
ar y
re e
 m or
 ha t
 call ed
 m et
 sto pped
 a d
 g ame
N ow
H e
C an
 an gry
g er
uff y
 op en
 w o
 tr uck
 ke ep
 so ft
W hen
 c ry
 y ummy
 lo st
 b ed
 L et
 S ally
 wa rm
b y
v ent
 bra ve
 m ouse
 W h
 at e
 K itty
is hed
 d e
f ore
 do ll
s o
 could n
 wat ch
 le ave
 al so
dd ed
 f ell
 gre en
 fa ce
 tw o
g an
is s
 flow ers
b it
Wh at
  R
b le
 no ise
ab bit
ir st
ow l
 w here
a z
o ck
 so on
se lf
 sl ide
 r abbit
 ho le
l uffy
 be fore
ir rel
 p us
ir ed
 sa t
ill y
 he ar
 u se
� �
H i
 p a
 ke pt
� �
Th at
 squ irrel
e ar
The n
m a
 no dded
 ex pl
 st ore
 c ook
 hand s
L ook
 bird s
 p ain
 go ing
 fun ny
 ha ving
d ay
 s ing
ay be
u ch
 e y
a ug
 cat ch
aug ht
 C an
 F luffy
u it
 y ell
 th ink
le ep
 c ra
 f in
B en
 b re
 fi x
 t ired
 b unny
 us ed
 loo king
 b us
an ge
a ir
 wor k
 w r
  our
 p ull
W e
 th r
t hing
  Now
 wa it
 k it
 s ound
t ing
 j o
 ha s
  G
 me an
 po nd
em ber
 be h
 d r
 sun ny
l ed
 other s
 as k
n g
c hen
 kit chen
 tal k
 fl o
 d if
 p ie
re w
 J o
 he ad
 re al
 f irst
 t ri
 mom my
 ey es
ell o
 imp ort
H ello
 fa v
at h
j oy
  z
 rem ember
 r ight
 flow er
 c on
 m ess
 par ty
 co ld
 D o
 v o
 sw e
i ous
 sa nd
  “
a c
or n
 r ace
 cu ri
im es
 import ant
 d uck
 mor al
 sh ared
z y
ou nt
 J ack
  ice
 o kay
 ad vent
 wor ked
ll ow
A t
 en joy
 d ress
 br ight
 m aking
 curi ous
  own
d ed
 t all
 d ir
 h op
re ed
 h id
 fav or
  ri
h n
 s leep
 d is
W ow
 favor ite
 th ing
 be gan
 m on
 b ag
 h ill
D on
 cl a
 dra w
 re st
 he re
 y ard
 t ell
 F in
st er
 wat ched
q ue
 fo llow
 mo ve
 be l
ec t
 c ut
 n ight
 ag reed
 p ick
c o
 bl ock
 h un
ap er
ll y
 st op
 beh ind
 Th is
 surpr ise
i ed
 sh o
 h ot
A fter
 t able
 gra ss
 wor ry
 d ark
 tre es
 vo ice
 wal king
ed e
fe re
 flo or
 far m
 li on
 to p
 dif fere
 p lease
 r u
 s ong
 but ter
 t ail
 swe et
M ax
 sh out
 color s
 re ad
 D ad
 l ady
 for g
is y
 leave s
 clos er
ig n
 car s
 turn ed
 need ed
 t ast
Wh y
ar ing
 w ood
 c ried
 differe nt
 laug h
 d el
 pie ce
� �
er ed
 M r
 ro ll
 advent ure
 fi re
 do es
i ke
 c r
 hun gry
 ha ir
 S uddenly
 p aper
 feel ing
 yell ow
 f ull
 pr in
b o
S ue
 to uch
 A s
A nna
S am
 w et
 friend ly
 p er
o om
k en
c ked
a ched
 sw ing
 fr uit
i ent
 bro ken
 re ady
by e
pp y
 pr om
 Th at
 an other
 l ight
 pret end
 dan ce
at er
 climb ed
w here
 list ened
 Bob o
 dan c
 run ning
 on ly
 pl an
 g one
 sw im
bb ed
S uddenly
s h
 tra in
il a
nd ma
S ara
 J ane
 clo se
a v
S he
 sm ell
S o
ab y
 am az
 ho ld
 block s
 wo nder
 Tim my
 re pl
 A ll
 butter f
 se es
 re ached
 wa ll
 p u
one y
r ed
 sl ow
 help ing
 d ri
 c ream
 c ool
 gl ad
a f
 a nt
 l ess
 be en
g ing
 good bye
 a c
 f ight
at her
M ia
 pus hed
ic ed
 fa ir
 mu st
 h ide
 mom ent
 wind ow
  O
 s it
 ball oon
 sn ow
 ch ild
 expl ore
 Every one
 a r
 w ished
 b aby
 d one
 wa g
 st e
 bu y
 st uck
 per f
 th ank
 m ight
ic y
 nam e
iz ed
 try ing
 b it
 com ing
 b ar
 qu ick
 f all
 app le
as h
 sc ary
 look s
 bu ild
 do ing
 w in
 under st
a isy
 d in
 d ream
 dir ty
 he ld
am es
 book s
 m ar
I n
 butterf ly
 le ft
 shout ed
 c ount
 repl ied
av y
 re ach
 t iny
 thr ough
ot t
 d ro
 wh y
 a ir
 br an
 la nd
ke y
 th ree
 pull ed
 sp l
 gr ow
 tre at
 br other
 w ise
 wood s
 s ure
' re
 ch air
i x
 m at
in s
 se en
 p ink
 cla pped
 pl ant
el y
  owl
 cu p
ie ld
 somet imes
and y
 f ill
 cl oud
as k
 sw am
out h
 j ob
 color ful
 remember ed
 big ger
 ne st
 m outh
p e
O kay
 less on
 jo in
 c re
p h
 The re
ou p
ro om
ar t
 wa ved
udd y
 gra bbed
 stay ed
O h
 pain t
Th is
 cl ot
 con t
 clot hes
  ve
ow er
 A fter
 wa ited
 quick ly
c le
 wor d
 bro ke
uck y
 g ames
 c ast
 b lew
 g ent
 Mom my
 enjoy ed
 not iced
J o
ri es
at ion
 s et
 like s
 picture s
t on
 se a
 he avy
 mu s
 al one
 g if
as ure
 any thing
 sp ot
 m iss
 ho pped
 wor ld
 turn s
or m
 y ear
d er
 b ott
 p at
 p ot
 p en
l c
H er
 m ix
 a rm
 b ike
 t ight
 every where
 w on
L ucy
 tow er
 th rew
 him self
 follow ed
 B uddy
 r ide
m an
le ss
 j u
 j e
am p
B ob
ap e
 com p
 ke y
r ow
" .
 wh ite
ct or
 wr ong
in i
 D aisy
 make s
 Wh at
 bre ak
 bl ack
are nt
e e
n er
S pot
D o
 de ep
th y
 mus ic
 po l
 del ic
n in
ce ss
u ed
 forg ot
 be e
 p arent
 cast le
ve s
o lly
 e m
ing in
i et
 we ar
 h it
is ter
ou n
 qu iet
 r ound
an ce
 st u
 danc ed
 v is
ull y
 want s
 le af
 mon ster
 n ap
 Jo hn
 underst and
 b owl
o s
r ot
re n
 b or
 tal ked
itt en
 d ry
 fast er
 cook ies
 br ought
f ully
 le g
ro ss
 m um
z z
 s ide
t s
F rom
 s ign
 In side
 sm art
an g
c y
 rock s
 some one
H is
 po in
 se c
 sh aring
 fo x
 we ll
 re s
 re l
 happ en
 but ton
 bran ch
 L ila
 re ally
 fin ished
en ce
ard s
 din ner
 s ister
 fly ing
ed dy
 cont in
 wor ried
 e le
 T o
 vis it
 M aybe
 be ach
  que
 sec ret
 e l
 Sara h
 k ing
Jo hn
g y
 to day
 perf ect
 ri ver
 every thing
 s illy
 Jo e
 dan ger
i pp
 child ren
 g u
 So on
 f ield
 fill ed
 f ur
 el se
 smile s
 we lc
 A t
 sh in
 w ish
 E m
Wh ile
 sa ng
 g i
z e
 p udd
 sn ack
 eat ing
 real ized
 piece s
 prom ised
 sp r
 p ig
 f ree
 contin ued
 b ite
e ad
 parent s
 care fully
at ed
itt ing
 e ar
J ust
 j ar
M aybe
 c ow
A my
 bl ank
 dra g
st ead
 or ange
 mu d
 cry ing
 blank et
 en ough
 roll ed
ck et
 s oup
 sa il
 p urp
im i
 y es
a le
 dr ink
 sn ake
se s
 b oun
 p et
 cra b
 laug hing
 thr ow
 fair y
 word s
 amaz ing
 b ath
i ch
 purp le
  Z
 with out
i re
an a
 bott le
or d
 B illy
 gif t
 gra ndma
F in
us ed
on s
 p ast
 m oney
i ver
f ort
 m ail
 G ra
 bar ked
 wag ged
 at t
ch ool
 mon key
 do ctor
un ch
 br own
 mo ved
is es
 ask s
 get ting
 clos ed
 w he
 welc ome
 s u
 c andy
 s chool
 mor ning
 own er
 l on
 m other
 hig her
 s itting
 tre asure
. ”
 sm o
! ”
g g
 danger ous
 lon ely
 C h
 li ving
 app les
us h
 sh op
as ed
 str ange
ve l
 shin ing
 ro ad
e re
 Tom my
 cre at
un a
 pa w
e y
 r a
 sho es
 p re
  -
i ble
 st re
 tal king
al thy
 c aught
 e gg
o l
 pa ss
 l ake
 run s
 b uck
 l etter
 w ings
 che e
f ish
 m ad
 f an
ask et
 b asket
a ss
 drag on
a pp
e st
Mom my
s et
ck s
 st one
 think s
 st and
 delic ious
 no se
 pudd le
 to m
 B l
 M imi
 bel ie
 sa m
 farm er
 sam e
 year s
bo ard
 t eddy
 b at
is k
it ch
 m ine
 se ar
 co at
c hes
ig h
 day s
 br ing
 gent le
 f it
 star t
 fin ally
 wh ist
 cr ay
 sc ream
 k ite
 p ill
ph ant
ar m
 v ill
g ly
 ch o
 sing ing
ell a
s w
in ed
 tast y
 p h
 b en
 tr ou
 she ll
 her self
 hop ed
 an sw
 w ore
 sw ings
s y
 h or
 bel ong
P lease
 pus h
 bus h
isk ers
 car rot
 ar ri
aught y
 te ach
b ow
ra ct
 n aughty
 ele phant
 dro pped
 sh ap
 co ll
s c
 te ac
e my
 wo ke
b all
 p ile
 hid ing
 c our
is a
er ry
 to uc
 pu ppy
' ll
 see m
i er
ll ie
 m in
 tw ins
am a
 l unch
 b ow
 sa ck
 p ers
 cour se
 che ered
 shap es
 J en
 gre w
f used
 ro pe
 vill age
ir th
irth day
 ju ice
i pped
 rain bow
 sp in
O K
 sh ook
J ack
 sp oon
 ben ch
 stre et
 f ence
 F red
 ro b
 n ut
 chee se
 pr ob
 cut e
 touc hed
id ge
co l
 j oy
 Wh iskers
 arri ved
 se ed
 wa r
 teac her
 c orn
G ood
 ab le
 fore ver
 be ll
 fe w
 car ry
 mo st
 pl ane
 Bl ue
le m
 e as
 sound s
ll a
 d es
 sp o
 prob lem
 b irthday
 p ower
 in c
um b
b r

  
 bug s
il k
 wonder ful
 doll s
 bus y
at o
ir p
e b
 w ra
 prom ise
 Th ank
 feel s
 Em ma
et er
 bre ad
 ne ck
Fin ally
 m ilk
 rob ot
 re c
i an
 sh y
ount ain
 k iss
ir t
 hear t
 b and
 c ave
 po cket
u b
 help ful
 slow ly
 belie ve
 sh ake
ump y
e ared
 pat ient
 p op
 o b
ar p
 li ve
 stor m
 hold ing
 u gly
 tow ards
 up set
 t urt
 sh r
ad ow
 co ver
 k itten
o st
 R emy
 sh arp
 dis app
 stor ies
 s uc
 h oney
o ve
 B ella
re ad
 no ises
 L e
 ball s
 c ir
 sp ark
 gr ay
 d ist
 dir t
og gy
 l ate
 dri ver
g le
 se at
 buck et
 me et
 you ng
 amaz ed
al m
 turt le
 sp id
 treat s
 magic al
u nt
at or
 gl ow
 see k
 z oom
 le m
 sand w
fort able
um ber
 tri p
 m ist
our n
 spl as
 m ark
 j ourn
 fo ld
 m ach
 pu zz
 par t
l ing
 hor se
 or gan
 w ild
 prin cess
pp ing
oo se
 cook ie
S ure
en s
 hug s
 M ark
 t aking
 whe el
ep end
 cl oth
 L isa
 s ug
 in stead
 bu bb
 str ing
 ru d
 n et
 dro ve
il ing
 rud e
 hug e
 J im
 co in
 star s
 fight ing
 sp icy
 l ucky
B e
O f
 cra w
He y
 b one
 in v
 Gra ndma
or s
n ot
 c a
pp er
 for get
u p
 d i
a ur
 sa l
 Fin ally
 can not
 whist le
 c ard
 s ick
 p ath
 c ou
 spid er
 w ide
L ila
 fo ot
 snow man
 li fe
 song s
 pill ow
iz e
ul ar
 J ust
L ater
 A nn
er t
 fix ed
 gi ant
op h
ri ll
 no d
 bo ss
 com es
 la st
 jo ke
 mo on
 tast e
 mach ine
 gr umpy
d en
 wa ve
 th in
 dri ve
 car t
 as h
 s er
 gra b
 pe ace
l ower
 dad dy
  On
 Le o
er y
 s el
 she lf
 hid den
ere st
 s uddenly
 was n
 wr ite
 land ed
 con fused
 r ing
 ch ange
 wor m
 int erest
 ch ased
oo p
 fruit s
 s our
it y
 my ster
 b ark
 r ad
 smo oth
 C ome
 adventure s
 v al
 ste pped
 f le
op e
 o ven
 take s
 miss ed
 sel fish
k in
 she ep
 mess y
T o
 ac ross
 b an
  ent
 ex p
t o
 c e
 l ater
ell y
  N
if e
 stick s
 t ie
S t
e ver
 L una
 b ought
 st ep
 d rew
 te a
pec t
irp y
bo x
? ”
 was h
 l ay
 p our
 be ak
o se
 j og
 gr ate
 duck s
 sp e
 leg s
 d ig
 f il
 B u
 em p
m er
 hop e
 emp ty
 sl id
 fe ather
 sleep y
 dr um
am ed
ar s
et h
 z oo
 p an
 ph one
 grate ful
 f ing
ion s
 lem on
le t
 C at
 cle ver
 M olly
 smell y
n an
 im ag
 spl ash
 interest ing
 J ill
 sa ve
 ch ick
 c alm
 m ed
 watch ing
S oon
iz zy
iz z
 pl ate
  ign
y ard
 cloud s
 l ine
 face s
 b a
 a ct
 li ft
 th ough
 wo lf
 back yard
w el
 seem ed
 dog s
 spr ay
C ome
 pr ot
 who le
 m ot
 fan cy
 Dad dy
 que st
 arm s
 puzz le
 he althy
 su pp
w ard
 fin ish
er ly
 al ong
ll o
 rock et
 expl ain
 ro d
d ge
 eas y
 je wel
on t
 p ract
 j elly
 Ch irpy
 t id
 f ake
 cray ons
 wonder ed
 m aybe
 sc ar
 sh ip
 not hing
one st
 em b
ig er
 p ool
 long er
 any one
 B e
 J erry
u ally
 fr ont
 wor king
 give s
ir r
 p ack
 s uch
 B unny
o cked
m ent
 boss y
 D oggy
 trou ble
 smell ed
 sa ved
 p in
ra ss
 ne igh
ar rass
it ing
 h onest
 a v
ar ge
 emb arrass
 v an
 forg ive
 tid y
 we ak
ur se
 put s
un k
 k ick
 sh irt
 W ith
 m ind
 O llie
 neigh b
 plant s
 so l
 Mom o
 gent ly
 co zy
or row
m ing
 expl or
s p
 mist ake
 y og
o c
oom y
 poin ted
 l ad
 a f
 st ood
or k
 on to
 jump ing
 wait ing
 prin ce
 c ross
 lo ck
 che er
 que en
 Wh y
 M ary
 w ing
on es
w e
 l arge
 love ly
ul t
 s ur
 re t
A nd
 de er
 che w
 cou ch
 b al
 st ret
aught er
 The ir
er a
 place s
 M y
 lad der
oo f
 ret urn
ra id
 ant s
 d ish
 af raid
 clean ed
 tom orrow
 build ing
 sandw ich
 pers on
S ally
n ed
 pretend ed
 boun ce
 w ip
ge st
 mat ch
 ri ch
u ce
 p izz
 g ather
 sear ch
 bor ing
om an
 S omet
 te eth
 h um
K itty
M y
ac ed
 d aughter
 w oman
 scar f
 go es
 To gether
 la w
 st ra
 swim ming
 fur ry
 splas hed
 p ri
 love s
 tr ue
 scream ed
 la zy
 g en
 answ er
 e ag
 n umber
 ash amed
 pizz a
a w
 app eared
 fe ar
 near by
 power ful
 fl ag
 S t
 ha ng
v ous
 cl own
e k
 ch ase
 mot or
 wa nd
 T V
 ru b
 suc cess
 cho col
 I f
 creat ive
 tr ust
 we aring
 no isy
 mat ter
p a
 he llo
 n er
 too l
 sa f
 B ird
ad o
 ner vous
el p
 te st
 sm iling
 so ld
ic ked
o ppy
os aur
 cir cle
m b
 m ap
 dr ank
 cla ss
 tri es
 chocol ate
 P lease
 imp ress
 kne e
 gen er
 din osaur
 pol ite
 m irr
 Bob by
 T iny
 balloon s
 go ld
 r are
 prot ect
 c and
St op
 car ried
 G o
ens ive
 a p
 sh adow
 mirr or
g led
 D on
 ba ld
 g un
in a
 exp ensive
 re g
if f
 myster ious
 S p
 p ump
 not e
 her o
 mar ch
 h ar
ar l
  icy
 res pect
 we ird
 sn ee
 c ri
 g ate
 so ap
ut e
iss ors
 the se
 po or
 tow el
 wh ale
 fe et
 t ape
 d izzy
itt er
 gener ous
nd pa
 pre s
 Ben ny
 dis co
n ic
H elp
vent ually
 pic nic
 m ic
 le ad
 s que
 embarrass ed
 journ ey
 sug ar
is p
sc ape
 bo ot
 t ent
 peace ful
 f at
 B ear
 sc issors
 tast ed
 yell ed
Tom my
 t ick
 m el
 br ush
 danc ing
n ess
 gl ue
 h ur
 cl ap
 r ough
 br idge
ot e
 dec or
 clos et
 cr own
 st ir
u al
im p
 prin t
 Somet imes
ow ed
air s
 H ow
um e
 c ap
 mo d
 l amp
 v ase
 sc are
 g ig
le br
 rel ie
l ves
an y
 e ld
 te le
 ce lebr
 wh isp
 lo g
 sc o
 bl ow
ra g
 pain ted
 D ucky
 p ay
er ries
 w is
 b erries
 mix ed
 sp read
 would n
 c age
 b ake
r ob
get able
 m ountain
 ad m
 draw ing
 bec ome
 fam ous
 be an
 kn ocked
 n orm
 ve getable
as p
 k icked
ust r
 sh ark
s er
 inc red
 lo se
 norm al
 wra p
c ed
 gr oup
 th ick
  3
 f ine
 gl ass
 ign or
 clo ck
 te am
 eld erly
 cle ar
 corn er
 fr ustr
 might y
rob e
 c one
 incred ible
 B r
ig hed
D ad
 mom s
 bal ance
 so ck
 sp ace
 j am
rag ile
 fr ight
 bran ches
 organ ized
 ro ar
p ort
 sw ord
al ous
 M ama
 gu ess
 f ool
 se ll
 fe ed
 S ome
 wh ich
 h orn
 pres ent
 je alous
 y arn
on y
 f ragile
 b urn
 underst ood
 m is
 stu bb
 t er
 frustr ated
W here
r ay
 ho se
c ient
 sp ent
 sho e
 t aught
 stubb orn
 tw ist
 ch an
 creat ure
 che st
 spo iled
 relie ved
y m
 an cient
 wa ke
i que
 fi er
 pr ay
 fier ce
 egg s
 c ab
 ter ri
 b arn
 or d
 pump kin
 com fortable
 fright ened
or ry
 to ug
 un ique
 me asure
 go at
 wag on
 un us
 bre ath
 fool ish
 use ful
 explor ing
d le
 stra w
 unus ual
 d ug
 cl ay
 disco ver
 tom ato
 P e
 de ad
 find ing
 pol ice
 wr ote
 cl um
 ex am
l ace
 wa ves
 squ are
 hear s
 cab in
 tell s
 neck lace
 d ull
 clum sy
 toug h
 bubb les
 no sy
k n
 sear ched
To gether
 was hed
 bath room
 paw s
bb y
o nd
un n
 bo ard
f ic
kn own
 as king
 cra zy
 thank ful
 sun f
 b itter
y al
 p ir
ber ry
  ind
al k
 dif fic
 ro se
c il
 sw an
 bl oom
 un known
 E lla
 cover ed
 diffic ult
 a dd
 pen cil
 fing er
 ha m
 h oop
 j et
 w itch
 dr op
M e
  '
 chick en
 gl oomy
a pped
 lo yal
al s
He re
 we althy
c om
l ight
 un l
 cat s
 end ing
 g uit
b led
sh ine
 do ve
 join ed
 c her
an ut
 mo v
 terri ble
 your s
i ant
  U
 R ex
 sal ad
 And y
 nut s
 r at
g round
 t iger
 pot ato
 m ask
x ible
se lves
 val ue
 chan ged
 mo ving
 exc iting
orm ous
 M any
 bo dy
 T r
 to ast
er p
 z ip
 dis g
 che ap
 guit ar
irst y
 know ing
 advent ur
 your self
 en ormous
 hair y
E very
 sho ot
 Br own
 bor ed
 pe pper
 rem ind
or y
 ac orn
l and
 adventur ous
 sun shine
 small er
 hat s
 st uff
 sol ve
 Jim my
 fle xible
 co st
rill iant
 kn ife
 perf orm
 snack s
 nod s
 sh ore
 b rilliant
 th irsty
 delic ate
 fr own
 disg ust
 coll ect
 st ri
 seed s
 count ed
 as leep
 ban ana
re en
 mail box
in ess
 d ough
 tri ck
 neighb or
un gle
 he al
l ive
Wh o
 st age
id ent
 mark et
 cu be
 st at
 j ungle
 sque e
mb re
 explain ed
at es
 u mbre
 disgust ing
J im
f ted
 la b
 jo lly
 fl ash
u nd
 fr idge
in al
il t
p id
 cr ane
c orn
 s uit
 r h
id dle
 sunf lower
 t imes
 A l
 cat erp
 caterp ill
 rel ax
 sh iver
 f our
 is land
ig inal
 h arm
ic t
 Wh ile
y ing
 stu pid
 med ic
 In stead
 com b
 g oose
 c ro
ed ient
 W ill
 sto ve
I f
A re
 ind epend
M um
m ost
 spr ing
 g em
 bat ter
 s ighed
 vegetable s
 st ones
p es
 sh ine
H ow
 medic ine
 d epend
 r ug
 You r
 care less
 or iginal
 st amp
 g ar
 c ries
In side
g u
 carrot s
 sc r
 success ful
 sa uce
 je ep
 pop corn
 me al
 ob edient
 al most
 m iddle
 mag n
 stu dy
 independ ent
 fear ful
 j ack
m et
ink y
S orry
 Sam my
 e scape
 caterpill ar
 ser ious
 pe anut
 bed room
 eag er
ak en
 get s
un g
 par rot
 stat ue
 hel met
 pe bb
  No
 f ountain
 ra ven
 past a
 umbre lla
 comp et
The re
 jack et
 belong ed
 de st
 fil thy
 an g
 des ign
 bor row
 c am
er able
 house s
 pri ze
 h ay
 bra ce
 stand ing
 mis erable
 r aced
 t aken
ag es
 for k
 cray on
 pain ting
 tri ang
i o
 j ug
 impress ive
 ch oose
 f ig
 t ied
ia ble
 spot ted
 li fted
 sl ipped
our s
 t ank
 thought ful
 depend able
 ste al
 gar age
en ny
 bu ilt
 mu sh
  er
ip e
 mo le
 craw led
 sc ale
 boat s
 p ant
 p ian
 ham mer
 bott om
l ph
 cheer ful
 us ing
 smo ke
 pick s
 mo der
 show s
ber ries
r n
 pian o
 magn et
d ile
co dile
 hurt s
in ary
 re f
 cra ck
 en g
 a unt
 mel on
 wa ff
 moder n
 do lph
unn el
c ream
p ack
 t unnel
o in
 ar row
 rel iable
 ho pping
 mush room
Tim my
 squ ash
 g um
 s ink
 mov ie
 t ax
 fl ute
 be et
 le an
The ir
i v
 pop ular
ic op
icop ter
 cry st
 on es
 s il
 compet it
 hel icopter
as er
 need s
ip op
ll ipop
 cro codile
 li z
M olly
 p ress
 trou bled
 pig e
 lo cked
 tri cks
 lo llipop
 play ful
 hum ble
 tax i
 kiss ed
 l ow
a ppy
com fortable
am ond
 r id
 un comfortable
h ost
 wa nder
at ch
 ang el
ed y
c les
 gra ce
 to rn
 an x
 wra pped
 mu ff
 tw ig
 pant s
 disapp oin
 S n
 help s
 di amond
 cam era
at ter
ot o
 anx ious
 g host
 ru ined
 te ars
c ident
 Jen ny
il ty
 qu ar
a ff
 E ven
 f is
 bel t
op l
er opl
 en v
 gu ilty
 b ull
 a eropl
 help less
 happ iness
 liz ard
 boy s
c ut
ex t
 c ere
 walk s
ce an
 pass ed
 me ant
 o cean
 fl uffy
 w ire
 n ail
 brace let
 de af
z ed
 stret ch
 ca ct
 cand le
t t
 beet le
 m op
 harm less
ump et
 ord inary
 answ ered
 c op
 coll ar
 be es
 t ire
 sh ape
 quar rel
 rad io
 flash light
 cryst al
 hard er
 pour ed
 tr umpet
 eng ine
M ama
 pers ist
 h unt
 to oth
 cere al
 inv ited
 comp ut
 t ag
 off ice
 m elt
 sp ill
 ch arm
co a
 l it
 sco ot
 c omet
 triang le
ie f
 m ug
 re p
u be
 yog urt
 sp end
 comp ass
 ac cident
 sh ade
he tt
ag hett
aghett i
 disappoin ted
 li cked
 cact us
 pa le
 c ush
 fig ure
 gi ving
 reg ular
 av oc
 pr o
 she et
 whisp ered
az e
ut h
ell ig
 cre ate
 rec ord
 bar ber
 int ellig
 p ipe
 rod e
 r oof
J ane
 th read
it her
 lo ad
 li br
 v i
 gif ted
c col
 pract iced
 del ight
ccol i
 har sh
 d ust
as ses
 p ow
 Tr ue
 b icy
az z
 sp aghetti
 compass ion
 sa iled
ur key
u bby
 for ward
 persist ent
 spe ed
 m itten
 co coa
 en vel
 quest ions
 comput er
 c oo
 feather s
h ip
 gl ove
Bob o
 ri ce
 shr imp
 des k
 st ream
 in se
 pige on
 charm ing
 ear s
 car p
lc an
 ra ft
 env ious
 kn ot
 t urkey
u d
 strong er
om es
 co ins
 t ap
lcan o
we et
 tra p
umb ers
 aeropl ane
 tr unk
 whe at
 box es
 ch ubby
 carp et
 rest less
 intellig ent
 t ube
 sp un
 dream s
 friends hip
ul if
ol in
 ha lf
 loo p
 craw l
 bro ccoli
 on ion
 del iver
 ac ce
an ger
 v ide
 vo lcano
 J ake
 s le
 tra ck
 b ri
 ca ulif
 v ine
y e
 tick et
 th ief
ess ie
cy cle
 loud er
 inse ct
 n umbers
as ing
 y aw
 hair cut
it al
 sleep ing
ug g
 m ill
 al ert
 e ventually
 exc ite
 pebb le
 ho sp
 att ract
 plan et
 To day
 un iver
is ted
ul u
 er aser
 hosp ital
 return ed
 dest ro
 grace ful
 happen ing
ac he
 O K
 Em ily
 dec ide
 learn ing
 sc reen
rew ork
 nice ly
 le op
 caulif lower
 competit ive
 po em
 celebr ate
 c urt
 pe ach
 sold ier
 sa us
 par ade
at ient
 attract ive
 curt ain
 b ase
 dolph in
 vi olin
 way s
G o
at s
 tra vel
t en
 ignor ant
ul b
 wheel s
 y ach
 sc atter
 d eter
 compassion ate
 bar rel
 envel ope
 bubb le
 l ying
 fi rework
 sor t
 quest ion
z zy
 P ipp
 scoot er
 deter m
 r ag
 bicy cle
el ery
 need le
 F r
 ju dge
 b ulb
 leop ard
 te m
 yach t
 p ony
 cri cket
 or der
 h omes
 ad or
ter n
 tr uth
 h ook
d om
 ru bbed
et e
ig ator
 bus hes
Sara h
 un cle
 cush ion
 sp ell
 gr own
 coo ked
 ador able
 ch alk
 so ar
 p urse
 sk in
 them selves
 imp atient
 c elery
 tr ay
 shell s
 pen gu
 sn iff
 pr un
 wall s
 se al
 live ly
 c ase
 all igator
 dist ant
 rad ish
 say ing
 spe ak
 motor cycle
 me at
 s end
ill a
 spin ning
 for th
 count ing
 ent h
 boun ced
 ch ain
  ed
 clean ing
eb ra
 fil m
 sle pt
 p it
 sur f
 mar ry
us ia
 wall et
 enth usia
 met al
ur b
eb ook
 b in
 we ek
 not ebook
 sk ip
 wip ed
is ion
ch air
 big gest
 imp ro
 avoc ado
 beh ave
 destro y
v ator
 band age
 laugh s
 ste ak
 pat tern
 S h
 po st
 ele vator
 Bu zz
us ie
 d ive
 sh ut
 sk ipped
 unl ock
 di ary
j ect
 z ebra
 bag s
at ing
 arm chair
ra ge
ag ed
u nder
 dist urb
 o y
 po le
 show ing
 cl ub
 gather ed
 n urse
b ul
 ear th
 en c
 str anger
 swe ater
 jelly fish
 sc rew
 tem p
 P oppy
 com pl
 mix er
G ive
 sk ull
 l ime
 b ump
bul ance
 am bulance
n am
 f ather
 journ al
G ra
 loud ly
it o
 fold er
 sh ield
 B et
 L ulu
 P eter
 libr ary
 button s
 play ground
 truck s
 in k
 light s
 t ummy
 poin ting
 c ity
 decor ate
 st ation
ir it
 pre p
 fall s
qu ito
 P olly
B illy
 F o
 f u
ent ion
n ger
 Bird y
l ies
 her b
 or nam
 ornam ent
 mod est
 gu ard
 mo s
 know s
 c ord
 pol ish
 mar ble
ob y
 mos quito
umb led
 sal t
 att ic
 ve st
 when ever
ct op
 res c
 y et
 p le
 disapp eared
ce ed
 straw berry
 on ce
 M um
 k ay
 brother s
 it ch
 pir ate
 foot ball
 spl it
ke le
kele ton
 h ipp
 a ut
 l ed
ur ing
ctop us
 dri ving
 c able
 supp ort
 call ing
 cup board
ak y
us hed
 wis hes
 comp let
 tri pped
 ro ot
g l
 kay ak
 o ctopus
ob ile
 a dded
 ed ge
 m ild
st ic
 determ ined
 suc ceed
?" .
 read ing
 co al
om obile
W ell
ut es
p ar
 sug gest
 st ack
 th under
 kind ness
 aut omobile
 compl ain
 enthusia stic
 snee ze
 cart oon
 yog a
 L ittle
 gr owl
ht ub
 fle a
 me adow
l a
 draw er
 bat htub
 ri bb
oph one
 go lf
 mean s
 ha ll
 s keleton
 m ath
 ve il
 hunt er
 g or
 fl ame
 po ke
 vide o
 che ss
 cup s
 tr oph
 glow ing
 mat t
 oy ster
w ork
 pen ny
 sp ear
 it self
 draw ings
 hipp o
 rep air
 sw itch
gl asses
 sun glasses
 tele ph
 cost ume
 d ess
 z ipp
, ”
 re pe
 muff in
 ar g
 past ry
 p un
 roll ing
 min utes
 pa cked
 make up
ir on
ri c
 Pe ople
 waff le
c ase
 hand le
 pe ar
 m aze
 teleph one
 p ine
a it
 g ear
 he dge
 matt ress
 pack age
a ving
 M iss
 sho cked
in es
 troph y
 pow der
 kn ight
 c ob
 miss ile
 fr ame
 man aged
 enc ou
 w ife
 o k
 se par
w eb
 st airs
 r ot
 c amp
ur ch
r ophone
 mag az
 col our
 gra pes
t ime
 f ile
he ad
 T ina
 basket ball
B ye
o ld
p er
 cob web
R e
Jim my
an as
 T weet
S ee
 per m
 w ool
 mic rophone
es day
 ey e
 le ash
 g asp
ie w
ke ep
 we ep
 bark ing
at ure
 saf ely
 D an
 te ar
 v iew
f fe
 slid es
 step s
ist ol
ffe e
 ban anas
 st aff
 sp irit
 t ask
 gig gled
 ho c
 hoc key
 ve nd
 th ose
 gor illa
J ill
 cool er
 R ose
w as
c ing
 ear ly
 mar ched
ro sc
 min t
 L ook
was her
 fl our
 hot el
h ic
 sail or
 dess ert
 ph oto
rosc ope
 ve hic
il ot
 of ten
 ch urch
 P ete
 cook ing
 rem ain
 f ive
 saus age
ot ter
 t en
 tool s
 med al
 e ither
 fire man
ch or
 gra ndpa
  otter
 base ball
 pretend ing
 p istol
 dish washer
 re ver
 organ ize
 pe e
 vend or
 kn ock
 s ight
 g rill
 temp le
 batter y
 thin king
 open s
  ow
 real ised
  iron
 la ser
 sn e
 o il
 sand box
 pat ch
 h ours
 r ise
 wh ip
' d
ctor y
 G ive
 an chor
 tra sh
en se
 sh ort
n ey
 Bet ty
 rh in
 fa ctory
se um
 m ay
 war d
at ely
 card board
ug ged
 lot ion
A l
 mess age
 val u
 ward robe
 c ell
 mu seum
ap ers
 u r
in ation
 hang ing
uc et
ail able
 S unny
 Z oom
 h ive
e er
 tow ers
keep er
 black board
 me m
 excite ment
 co ffee
 p ilot
F luffy
re ady
 nap kin
 pengu in
r on
 che ck
 re ward
l oo
 qu it
 Pipp in
 can e
 pick ing
pl ace
 Sn ow
az or
  ig
 fa ucet
 pass port
 R ob
 st umbled
 dream ed
 B essie
 ig loo
ar oo
ang aroo
 free z
 ju icy
 all owed
pl ay
 hold s
 al ready
 av ailable
 set t
 bat he
 torn ado
im ney
 fing ers
ht ray
 ha nger
 new sp
 s ize
 la und
 l end
 ch imney
 laund ry
 o ak
 fis her
 k angaroo
 m en
 Every where
 tell ing
E m
 no vel
bo dy
 m ummy
 p al
 mu le
 cher ries
 not ice
 pract ice
 spill ed
 re ind
 complet e
 enjoy ing
 mic roscope
 g ain
amp oo
 su b
 fire place
 imag ine
and a
ar ian
 dis play
oc er
 Z ip
 fast est
 magaz ine
 hur ry
 cabin et
 shr ink
 as htray
W ait
 cow s
 Sp ike
Jo e
g en
 pal ace
 impro ve
ac hes
 r ake
 reind eer
 fall ing
ocer os
 sk irt
ur ed
 discover ed
 star ed
 ro ared
a id
 sil ver
 t ub
 tra il
I s
 min er
c ome
 b ill
 f og
ict ion
 a x
st airs
 h ut
ile t
 happ ier
 tall er
iction ary
 o ats
 fisher man
 ob ject
 p or
v ision
 valu able
 sh ampoo
 ho les
 off ered
 boot s
 rhin oceros
 nam es
 to ilet
 climb ing
 bl in
v ice
O w
 stret ched
ie st
 zipp er
 listen ing
 bath robe
 s ym
ale nd
 jewel ry
 He re
 joke s
 tele vision
 pro v
 c alend
 stop s
 ax e
 jump s
 fu el
 spark ly
c u
 perf ume
 S usie
 bu ry
bo l
M ummy
 press ed
 K im
ree k
 re ce
f a
 T oby
 ne at
 c reek
 po pped
 op era
 calend ar
 sn ap
 att ach
 gasp ed
 sym bol
 M ar
 t una
 p apers
M r
 un pack
 res ist
 d ictionary
 sub way
 letter s
 freez er
 cho se
 pin ch
z ag
 spo ke
 any way
 su per
 help er
 por ch
af fe
 bike s
 li e
ar ry
ic hes
 tight ly
 com fort
 sh aking
 book case
 s on
 r azor
aur ant
 A re
 sandw iches
ig zag
 we igh
 again st
 stick ers
 rest aurant
 newsp aper
 bl ouse
 vehic le
 swing ing
 dis ag
 p ed
 n ature
 squirrel s
 belong s
iv al
 swam p
 inc l
 butterf lies
 g ym
 grow ing
 buck le
om ed
 stir red
 must ache
 bill board
x y
 be ep
t e
 al arm
 li p
 fe st
 light ning
 hun g
ut or
 dist ance
og n
 c ards
 ob ser
 ag ree
L ittle
 ex t
 te ase
 rec ogn
 rub ber
i k
 hat e
f ast
e f
O uch
 does n
 music ian
 ad vice
 bee f
 ser ve
asp oon
 sweet ie
 mod el
l ter
 cri b
 blue berries
 so fa
 cir cles
 break fast
 t utor
as is
 books he
st ri
 gir affe
 fest ival
 separ ate
 she lter
 g as
 air port
 o live
 B ig
 r ail
 bookshe lf
 frog s
 te aspoon
 rever se
 j unk
 rid ing
 ple ased
 dra in
 Mr s
 wip e
 o asis
 so il
 a head
 resc ue
 le aving
um mer
 pain ter
 ch ance
 squee ze
 kn ob
 po ked
 T eddy
 pee ked
 l umber
 train s
 ext ra
 sl ipp
 qu iz
 re fused
re s
rm omet
 p age
 ru les
 happen s
 sound ed
 in s
 poin t
 win ter
 danc er
 Gra ndpa
 bird c
 disapp ear
rmomet er
 Do lly
 we ather
 was te
 li c
 birdc age
 the ater
 re ef
 carry ing
D aisy
 inv ite
if orm
 go al
 o stri
 sw ung
 un iform
 tr ade
 cl iff
 w ig
i ence
 law n
 P andy
ol a
 lean ed
ang u
 acce pt
 adm ire
 for t
 accident ally
 past el
bb les
 st om
 l angu
 tw ir
 s uff
 p anda
 b et
r iger
riger ator
 pe ek
re nder
 blin ked
 star ts
 ref rigerator
 any where
!" .
 imag ined
 dream ing
 rem ove
n ight
 show er
 L ee
 C o
 ce iling
 class room
 car ing
i um
 gra nd
 miss ing
a ked
 lic ense
 st able
 monkey s
 the rmometer
ast ic
 war ned
 W here
 s ummer
 ab ove
 bri ck
ec ted
 c udd
 problem s
am ber
 ch asing
 lab el
 ap ron
 s ent
it ure
 law y
urn iture
 l id
ugg age
m ed
 respect ful
 f urniture
 frown ed
 zoom ed
 p ages
 pre vent
 b ent
 l uggage
 mistake s
 sun set
 ostri ch
is on
 suggest ed
 window s
ation s
 j ail
l ow
 w ine
 ribb on
 old er
 shout s
 gra pe
 C l
 str ug
uc ture
 str ucture
 spo il
e or
 fix ing
 ch amber
 lion s
 del ay
 find s
 hand ed
 search ing
 un ite
D id
 f ought
 lawy er
 bright ly
 pa ir
 meet ing
 cho ice
 surpr ises
 U n
 E llie
 ar t
C h
 fav our
eter in
ad ium
eterin arian
 st adium
 proud ly
ik i
 v eterinarian
v et
 chair s
ro d
 sl ip
 S pe
 sad ly
 B ow
 inc re
 C arl
 pudd les
 b erry
 int rod
 ran ch
ve al
 B oun
 arg ue
  V
 adm ired
 c ur
 favour ite
You r
 in f
 excited ly
 grab s
 r ac
m end
 ste am
th ank
 hum an
eor ge
s ity
 He l
 pus hing
 sa ving
 R ed
 re veal
 y ield
all ey
om mend
ol og
 m all
 remind ed
 rec ommend
 le ak
 sur render
 har b
 app l
cu ss
a ul
 we ap
 reg ret
 put ting
 v alley
 miner al
 even ing
ch an
 forg ave
 mat ches
el come
 snee zed
 pu p
 a w
 r ushed
ec ause
 sp ade
 ap olog
 pl ates
 dis cuss
 be g
 prep are
 harb or
 ign ore
 count ry
 langu age
 Bu zzy
 pull s
 pl astic
 supp ly
 flo at
 sniff ed
 J azz
 repl ace
 me as
 sho vel
 B ill
 ra ise
 N ext
 f re
 car ed
 so cks
 stri p
 door s
 myster y
 li ves
 rest ore
 stick er
 s udden
ar i
 kind s
 slipp ery
er o
 O w
 play er
 pan ic
 hop ing
ric ane
id ay
 sh one
le x
ud e
her o
 M ike
 B inky
 super hero
 delight ed
 g ro
Y ay
 chick ens
 should er
 rain ed
 colour ful
 bre at
 Al ice
 cla w
 Bu bbles
 soft ly
Y uck
r ise
 p ort
Gra ndma
 ho l
ic er
 hol iday
  �
 bark s
as on
 throw ing
 plan es
M ary
 be nd
 Fred dy
 shake s
 end ed
 inf ant
 shiver ing
 kne el
 sun rise
 pus hes
 O live
 thank s
 fre sh
 suff er
 poin ts
im ed
w ards
 P at
 t ip
 Spe edy
 free ze
 keep ing
 W ould
 co pper
 gig gle
 smell s
 de ar
a h
 ent er
 prov ide
c ast
chan ic
 dis hes
 E nd
 appl au
co nd
 un h
N ext
 head s
 hur ricane
 cher ry
 m ass
 th umb
 me owed
 men u
 se cond
 bright er
in ce
 sand cast
 me chanic
 w re
 spray ed
 let ting
 e vent
 weap on
 laug ht
  x
 laught er
 cla pping
 feel ings
W ill
ick y
 splas hing
em ent
 O r
ac ked
 cast les
 F l
c er
 sc ore
app ing
 univer se
 n avy
 d em
 stick y
oph ie
 room s
 r ow
 fl ies
ig i
 D ave
 unh appy
 gre edy
 d are
 al ive
 break s
 en er
 cou rage
 inv it
Re ady
 repe at
 dem and
g ie
 trust ed
L isa
 some where
arl ie
 prun e
b les
 wre ck
  Y
 sk ill
 exam ine
 par ts
y ear
 eat en
o e
A ll
er c
en ry
 m ention
 rain ing
 Hel p
 sn ug
B uddy
 throw s
 jog ged
que st
 star ting
 r ush
 po ison
 pir ates
he art
 v ac
 cont ent
Em ma
 K iki
 s igh
 fl apped
 drop s
 ch irp
 sp ort
Q u
 spark led
 Z oomy
 gi ven
 stre ng
 ste el
A nn
 bump ed
 yaw ned
 stu d
 re quest
 sco ld
 my self
 streng th
 shr ugged
M ark
 coat s
 pun ish
 e qu
 univer sity
 pa id
 John ny
 pig s
 scr atch
 to e
 ex erc
 tra cks
 up stairs
 pray ed
 cross ed
 squee zed
 fl ood
 impress ed
 boun cing
Al ice
 rabbit s
 bad ly
g es
. .
 le ather
 war n
 t ug
 ex pect
 new s
 t ide
 T ed
 min ute
 bear s
 claw s
 bu zz
 sweet heart
 S m
y th
 n ation
S h
yth m
 his t
 vac ation
 he at
 straw berries
 obser ve
 explor ed
 sett le
 sandcast le
 yaw n
 hist ory
 L illy
 L ola
m are
 M ummy
 S que
i ally
in king
 belie ved
 hor ses
Dad dy
 H oppy
 che cked
 M andy
 net work
 to ur
 chee k
 U nder
 off er
 eas ily
 pl aced
s pec
 spot s
 snow ball
we en
m en
 ener gy
 B ee
 imag ination
 blue berry
ott en
 bet ween
spec ially
 G igi
iz es
 d aisy
 wa ving
ree ze
re at
 v room
 so ak
 saf ari
 rh ythm
 mass age
 stom ach
 b aking
qu ake
 night mare
 ins isted
 blow ing
 ent ered
Be fore
 st air
 p alm
 beaut y
 tw isted
 b other
 wr iting
 sc oop
 prun es
 bra in
  ing
ip ment
 po ppy
 hill s
n oon
 after noon
 e specially
 equ ipment
 R u
he st
 s ir
 p ad
 S ee
 ing red
 call s
 Fo x
 ingred ient
 earth quake
 ignor ed
 Snow y
 burn ed
 no body
m ble
 st y
ap a
 se w
is ty
 hear ts
xy gen
 le ar
 lear nt
 lemon ade
 incre ase
ill ie
J enny
 g az
 back pack
 mail man
 whist led
 ped al
 S k
F red
 shop keeper
ff ic
 perm it
 tre mble
 y ucky
ang es
 move s
 introd uce
 lem ons
 cra sh
 bean s
 flo ated
ed n
edn esday
itten s
W elcome
 plan ned
 stri ke
 tra ffic
 incl ude
 sl ap
 L ucky
 rac ing
res ses
 wis dom
 p ur
 wag s
 Fin ny
la imed
 G eorge
 l uck
 follow ing
 pri ce
ec ting
 m ama
 p itch
 bel ow
 E lly
 H ave
L e
 we ight
 exc laimed
h ouse
 bu ried
 follow s
 com f
 recogn ize
 ingredient s
  

 f urt
t ain
m em
 cand les
em e
M imi
 mar bles
ri age
und ay
em ember
er ation
 A lex
 ap art
 W ednesday
 growl ed
uc t
ore s
 con f
 hop es
 teach ing
 fold ed
 close ly
 Fin n
 Wh o
 he el
 S u
 S unday
 encou rage
 P aul
 Ow l
 z igzag
 pull ing
 boun cy
 furt her
 chew ed
 dig ging
 win ning
W ith
W oof
 d resses
 im age
re c
c ery
 encou ra
 shout ing
 gro cery
 tw isty
 peanut s
 puzz les
bb ing
 D og
l ook
 scr at
 ch ores
 whisp er
 I s
 sp ike
 Fr oggy
 c ape
 sn ail
 acorn s
 worm s
h ood
 deep er
 ur ge
if i
 exp er
 When ever
 T illy
 Sque aky
 Gra ce
 plan ted
 att ention
ec ture
 exerc ise
 Dan ny
 cu b
 op eration
 under ground
 h on
 ag re
 qu ite
 creature s
 s imp
Every one
 strug gle
or al
 M ittens
 bl ood
dd y
 l ecture
 was hing
 hurt ing
 gif ts
 van ished
 dress ed
 invit ation
 sol ved
 li cks
 Sh aring
 snug gled
i ppy
 b le
 mar riage
 quiet ly
 war ning
 j azz
 breat he
rec i
 elephant s
 s izes
 d ried
 fall en
 land scape
or ies
 spr ink
 neighb our
 m ice
u esday
 app reci
 S ophie
 Joe y
 � �
 eag erly
 sail ing
 Co co
 pa used
ip s
 count er
 G ood
 Boun ce
 P enny
 wor th
look ing
 R ock
 o xygen
B ecause
 re lease
 shin ed
N ot
p ted
 re aches
 bal an
 Z ara
 o h
is ses
 k isses
 sty le
 bri cks
 play s
 gl o
 T uesday
 ide as
s ed
 in st
 w ob
 firework s
B ella
ig gly
uc ked
 see ing
 fl ap
op s
 acce pted
r ight
 P ip
To day
 bl ink
 R os
m m
 tre mb
The se
 mu ddy
 mem ory
 mar ried
 tomato es
 Ann ie
 ex it
 wag ging
 fa sh
R emy
 Ch arlie
 wander ed
un ately
ipp ing
 glo ves
 cap tain
 pillow s
 rece ive
 res p
 P inky
 d uring
 Every thing
et ch
 we b
 pet als
 water ed
 E ventually
 s i
i ved
 man age
 br ings
 pin ched
u x
 cake s
 van ish
 fash ion
 Blue y
 prin ter
 destroy ed
 treasure s
n ce
 all ow
up s
 had n
 wor se
 F ifi
S urpr
 ve l
 hit s
 b ur
ux u
 vel vet
 app ear
 disag ree
 catch ing
d o
 R o
 scatter ed
 mem ories
 sor ts
 P apa
 her s
 scold ed
 sign s
 pe ars
 or anges
 b ones
 ran g
 sit s
 seat s
 sn apped
B l
 gaz ed
 ra ised
 Mar ia
 z ipped
 p ies
 prin ts
 sh ot
 slid ing
 Go d
 fr o
 eas ier
ss ible
 skill s
 climb s
 twir led
c cer
 blanket s
e ster
 forg otten
 applau d
 ba ked
Y um
 differe nce
ester day
or ted
 l uxu
 gold en
is ing
 k itty
 T w
 cut ting
 se ason
ag gie
 now here
 cr ow
 so ccer
 d ared
 bit es
 H enry
 H arry
an ny
 celebr ated
 l ung
ch oo
 stra ight
ch ie
 unl ocked
st ers
 sor ting
 coll ected
 ble ed
ap ed
 welc omed
 vis ited
 spoon s
 our s
 st itch
 jog ging
Surpr ise
med i
 em er
 Sp ark
medi ately
 is n
 to ng
 tra ve
 win ner
um ble
 ru in
 s ince
 pret t
O k
M oral
 T ony
 att ached
 weep ing
 march ing
 luxu ry
 simp le
 E ach
 should n
 guess ed
 z ero
 cre ated
 stuff ed
 pet s
ct ion
 wa ist
 fam il
 ur ged
 bow ed
 sell ing
 flo ating
r r
 Sm ith
 by e
 K ing
 v ict
 king dom
 olive s
 kick ing
 W iggly
 pun ished
 L iz
 B aby
 to es
s it
 A n
 gr ant
 mus cles
 jewel s
 Ros ie
 bed s
 mel ted
Good bye
 sl ice
 gr in
 understand ing
 collect ion
 to re
 meas ured
 cra s
ak er
i ers
 tra pped
omed ay
 l ined
' ve
 ac ted
 encoura ged
fort unately
v a
 S andy
 rece ived
 Be fore
 waff les
 W ally
 we st
 me ow
ent s
 pattern s
r in
in o
e ath
 br us
 mouth s
k ins
r ing
 K ate
Me ow
 pe aches
 b reeze
ad ed
un e
 prin ted
 sold iers
 s omeday
 potato es
 pup il
um es
 M illie
 drink s
 she d
 exper ience
 T una
 present s
e ep
 fire f
 Ru by
 sur round
 n one
 voice s
os ed
an n
 dr inking
 Un cle
is hing
 relax ed
 vict ory
c us
 bre aking
 paint s
 hur ried
e ve
iss ion
 tw ink
 tong ue
 rec or
 cost umes
 fl at
 mention ed
 beg ged
 te asing
 whist ling
 f etch
 perm ission
 disag reed
 s ip
 pe arl
ake s
 str o
ve st
 The se
 app ro
 e sc
 sk ipping
 fis hing
 M ay
Le o
 hig hest
 p ra
 wat ches
 sor ted
 ring ing
sh ip
 to night
 B o
 op in
 let s
ic ing
  Qu
 perfect ly
 shadow s
 im mediately
 herb s
 warm th
 sp it
 remain ed
t her
 It s
w alk
Bob by
irr ing
J en
 sne ak
 s ix
 lip s
 kneel ed
Bl ue
 cont est
 C he
ut ter
 cartoon s
 side walk
 col ours
 stamp s
 ag o
H a
 B oo
 T oto
 Fo llow
 e ast
 head ed
o ved
" ,
 str ang
 f ed
 lady b
 supp osed
 li ck
 root s
 cr unch
 mix ing
 work s
 decor ations
 kn own
 melt ing
 emer gen
M andy
 rest ed
 A b
 l ines
 Su zy
 l ily
 J ul
 inst r
 la id
 G r
 con es
 succeed ed
 wig gle
et y
 b ang
s ing
 sh ock
 set ting
 S low
 stud ied
 strang ers
 Rock y
Re ally
 twig s
 br id
 their s
 D r
 girl s
b oo
!" ,
 scream s
 land s
 ord ered
 moment s
 st irring
 field s
 al right
 steal ing
And y
 r ul
 brave ly
 B oth
av id
 m ister
! '
 in vest
 scrat ched
 play time
 ri pped
 invest ig
 t ucked
 rest ing
 burn ing
is hes
 Cl ara
 Ch icky
 brid ges
 off icer
p lease
Sam my
B ird
ab ies
 sett led
 mat ched
 a chie
 te x
 tex ture
H appy
 turn ing
 wait s
 Sk y
P eter
or ed
 tremb ling
ist en
 nail s
at ie
 Some one
 muff ins
id s
 J ames
 esc aped
 pile s
 investig ate
 bro om
os ity
 ladyb ug
 so re
 Pe pper
 adm ir
 appreci ate
 th reat
 b abies
 sil ence
 sister s
 are a
 emergen cy
 dad s
id es
 answ ers
 pu pp
 key s
 chew ing
 sl apped
 w iz
 import ance
 ser ved
B oo
 H op
 saf ety
iz ing
W ould
B u
 spark le
 touch ing
 L ater
 so ared
ig ail
 s ings
 he n
all en
E lla
b ers
ant ly
Mom o
 D ino
 keep s
 amaz ement
 ch allen
 tw in
 he sit
 reveal ed
ache l
 it em
 d ire
 so aked
z ing
 wr it
 food s
 dinosaur s
 rid es
 recor ded
 tick le
 in ch
 Z igzag
 M e
 wiz ard
 v et
 trip s
 glow ed
 Fr og
M mm
 be amed
 h i
 qu ack
 cur led
 ha ted
 w ink
 sho pping
 eat s
E ventually
 B ug
 pra ised
 wood en
 bring ing
 mitten s
 study ing
 gu y
 brus hes
 space ship
 g ust
 craw ling
 Somet hing
C at
 rul er
 fl av
 down stairs
 shoot ing
 tast es
 n apping
 mark s
 sprink les
 cudd led
 d ot
he llo
 f ut
pl ash
a les
a ved
 fut ure
 mon sters
 coll ecting
 meas uring
 H appy
 famil ies
' .
 F irst
 O ut
 M o
 th rill
 o at
ir ts
 res ult
 R abbit
J ake
 appro ached
 crunch y
a ct
U n
 rem em
d ing
 bleed ing
 remem bers
 be at
 n icer
 sne aky
 disturb ed
 lead er
 sc aring
O r
 pe el
h ind
 H ope
 fire men
 St ar
 neighbor hood
 gre y
 N ot
 mot ion
 no on
 po ssible
Em ily
S omet
 apolog ized
u es
 we ighed
C l
 D id
 ticket s
 nap s
 loo se
 pr ide
 you th
 swim s
p ed
 str ings
 recogn ized
 si ren
 po king
f ied
 H o
c ious
 tri cked
el vet
 wonder s
 gain ed
 want ing
 cras hed
h a
 o be
 sees aw
 work er
unn ies
l s
 draw s
om ing
 scoop ed
. '
 zoom ing
 opin ion
 yell ing
 prep ared
 grin ned
 Slow ly
 a we
 dog gy
 poem s
 act ing
 Be ep
 happ iest
 che f
 sne aked
 resp ons
 Al ways
 e ff
 L izzy
 own ed
 b unnies
 any time
 str uck
 ped als
 kn elt
oy s
O llie
en a
 secret s
 p ause
 decor ated
 horn s
 agre ement
 S qu
id ed
 fr ost
 tall est
 obe y
R emember
riend s
og o
 St op
 gig g
H ave
 decid es
  Once
 beh aved
 t ugged
 s ides
 w oof
 sl im
z en
 good night
 keep er
 spark ling
 chirp ed
 pre cious
m other
i en
ugg ling
l ier
 repe ated
T r
 clap s
ind y
 cont ain
aff es
 snowball s
r s
 R ay
 our selves
all ow
 gir affes
 balan cing
 kind ly
 spend ing
 writ es
ay s
pp ers
 L ike
om as
 pr op
 his sed
F irst
 fro zen
 frost ing
 eff ort
 buzz ing
 strug gled
o h
 St eve
 admir ing
 re le
ig gy
 sweet ies
 V elvet
 slim y
 br ushed
 A m
 bloom ed
S usie
 pol ished
 Z oe
ar th
 b oo
 comf y
 stay ing
 ru bbing
 rock ing
D ucky
 pocket s
 thrill ed
 be side
 comp le
 A unt
 M aggie
A h
 e ight
is dom
 mach ines
ur ry
 ear lier
 seem s
 y esterday
 r ust
 K eep
S p
 trave led
 fold ing
 bo om
 cra cked
 hug ging
it ies
 St itch
 rad ishes
 lo ving
 open ing
 cir cus
 surround ed
 curi osity
 R achel
 spray ing
 demand ed
an ted
 paint ings
am ie
 G reen
 rem oved
 g aze
 hon k
 pebb les
 hard ly
 zoo keeper
 cat ches
 st ing
ed ding
 stri pes
 pow ers
 load ed
 Pipp a
Somet imes
 pot s
 splas hes
 pet ted
 match ing
 D avid
Thank s
 st are
 to ss
 be lly
Y ummy
i bb
 what ever
 apolog ize
 ro cked
 comf orted
 B ree
 dec ision
 ribb ons
 Bird ie
 J oy
er n
 str uggling
 ex pected
 des er
 ste ep
 prot ected
w h
 neighb ors
 smile y
 chase s
D uring
 gr anted
 cr umb
 M at
 pur red
 di ving
 sad ness
Wh iskers
 organ izing
low ers
 eag le
 hero es
 d ipped
 sun light
 li ed
 Fr ank
 pastel s
 road s
 saf er
E x
 scr u
 M illy
 arg ued
 W ater
 go als
 disco very
 Ab igail
 pe ered
 vill ag
R o
 Boun cy
u se
 t im
l oe
 drag ons
 build ings
 bucket s
 part ies
 be ard
 w edding
R ex
 fl utter
 an n
 planet s
 Rob by
 pol ishing
 fa sc
ir a
 rele ased
 Ch r
 crab s
 G ogo
 tail s
 W atch
 saus ages
 ar gu
 cont ro
 bott les
 wig gled
 te ased
u ke
 argu ing
 sl ed
 pad d
 drag ged
 C ar
 ro aring
 cle aring
 mov ies
 sh irts
 gather ing
 air pl
 w id
joy ed
 teac hes
 spid ers
 l imes
 R emember
 D are
 over joyed
 act ually
 sigh s
 contin ue
 cudd le
 so aring
 small est
 J ess
 dri ves
 J u
 spark les
 ri p
 sit u
 cub es
 ref res
 O lly
 tal ent
 challen ge
 grand mother
 S plash
 pour ing
um m
 pretend s
 fasc in
 cut s
 shr ug
 b ank
 quarrel ing
 pe ppers
 man e
 shiver ed
 dust y
 Jen n
le y
 wonder ing
 villag ers
 stretch ing
n joy
i b
 week s
 where ver
 dark er
T iny
j am
  X
s ses
 r ings
 on wards
 K atie
 un ited
A choo
 be ad
 Every day
 Be ing
 prett iest
 c aut
John ny
 real ize
 comp any
 pengu ins
ann ah
L una
F r
 Sp ring
 bed time
 comple ted
 W isdom
 Le ave
” .
 knight s
 flag s
 J e
 B ecause
 play room
 P rin
 act ions
 Z ero
 learn s
 got ten
 pat ience
ind a
d am
 kit es
 respons ible
 fe ars
 dest ination
 wire s
 rep ly
 wr ist
 d am
aw s
 pack ing
 fa ult
 mountain s
 applau ded
 scru bbed
 m a
 cre pt
 A va
U h
 E arth
 sat is
 th ird
 ph ot
 pencil s
 win s
 stick ing
 b aker
 visit ing
 w ound
 pe as
 use s
 remind er
 contro l
Gra ndpa
as hed
 jo king
 aw ake
 instr uct
 star ing
 heal ed
 P ut
A n
 h itting
 F ish
 scream ing
 beg in
R ob
uck ily
 F riends
 M oo
ic orn
 helmet s
ent y
 un icorn
se ek
 towel s
S illy
 L ou
 ch ips
 cre ation
ic a
 was ted
b ie
 Be hind
M ar
 mask s
la ire
 forg i
 item s
l er
 firef ight
 lollipop s
 out do
W atch
 he av
 gun s
 d ied
 H ippy
 se as
 gl itter
udd les
 arri ve
 were n
 sto le
 sc ales
 per ched
 ac com
 log s
 achie ve
d ie
 pract icing
in ing
 who se
St ay
 pump kins
 instruct ions
 sw oop
 batter ies
 cand ies
 agre es
 pro ject
 snake s
 chirp ing
Ben ny
 she lves
 prot ecting
 par ked
 ex act
 C ra
 patient ly
 act iv
 should ers
 vide os
 blow s
 prom ises
F o
he e
g o
 d ent
us an
ue st
 exam ined
 airpl ane
jam as
D oggy
 ro ses
n ers
 accom pl
 task s
D ave
 Ho ot
P oppy
 B op
B unny
 bead s
 bowl s
 crumb s
z es
 listen s
 L ove
 Cat ty
 Brown ie
P ete
 O l
 c ough
 b unch
 dolph ins
 g uest
 request ed
c akes
 rem ote
 impro ved
ant a
 bra nd
 reach ing
ay la
 al ien
 B ye
ir m
 S un
 cop y
 cheer ing
 phot os
 Che w
 Jul ie
ugg les
B ad
 J an
 Bl ink
T ime
 can s
 C uddles
.. .
 tim er
 B y
 repl aced
 work ers
ath y
 st ern
 E njoy
 ne ither
ast er
M ike
 pass ing
 mis ses
 curtain s
 conf l
Ch irpy
 rainbow s
 rub s
G eorge
 roll s
uct antly
 pat ted
il o
 pa jamas
 outdo ors
es ome
 complain ing
d ies
 Squ irrel
L ola
R un
 pupp et
 Prin cess
 close s
 ben eath
 la p
 drum s
 t une
 B eth
 M ouse
 fill ing
M iss
ang led
 ref use
 S orry
 swe at
 fa ced
 se ven
 balan ced
e al
 resc ued
 qu acked
n eath
b l
 A bby
u ded
P aul
ist le
 aw esome
  1
 miss ion
 How ever
 guy s
 caut ious
 confl ict
 c ause
 obser ved
 v ent
 introd uc
 Th omas
 past ries
   
 O ur
 doctor s
 exact ly
 ru le
 bec oming
 m es
 police man
 rocket s
u ly
  Yes
y ou
 D ot
 fair ies
l ay
 p out
 ins ist
 bloom ing
 tra ctor
 far ther
 S ad
av i
O ops
G reat
 remember ing
 incl uded
g ers
 cur ly
F ine
Z oom
 team work
z ie
 fascin ated
 sl am
 wob bled
 tr uly
 help ers
 sight s
 pad dle
 st umble
 f irm
 J illy
on n
H enry
 ca used
ac ob
 pray er
 sp ong
 record ing
ke lly
a is
 star fish
 tr aded
 supp lies
 th ro
 poin ty
 inv iting
 situ ation
e ah
 every day
 neighbour hood
 ornament s
 A lly
 val ued
ink le
 add ing
S ome
 rel uctantly
 dot s
 stay s
 b are
 table s
 prett ier
 des ert
 snow men
 ste ady
 miner als
ara way
 th orn
o dy
 a st
 gl asses
 f araway
s m
 G et
 Fo xy
 S ure
 W elcome
 Tw o
 swoop ed
 un f
 fork s
 us ually
 us ual
P olly
 d ar
 J amie
 win ked
 snee zing
 sol ut
 load ing
 spong e
 Qu ick
 insect s
 pan s
D og
 so bbed
 S anta
J ames
 growl ing
 Ch loe
ar ter
 thro at
 Jo sh
 no ses
 D izzy
 scar ves
 conf ident
 W ant
 your selves
ag ull
 home work
 St ay
 superhero es
Jo ey
rr r
 sm arter
 wind y
 libr arian
T ina
 K ids
 gem s
D ays
or a
 under neath
 kick s
 know led
 itch y
 jacket s
 knowled ge
 F or
 S kelly
 surf ace
 unt ie
 D uck
 com m
 prince sses
.. ."
Th ose
id o
H old
Y eah
c oon
 square s
 H enny
 warn ings
 gigg ling
 read s
i ar
v in
O ur
 ch oo
e ed
 you nger
s on
 clown s
 M ix
T oby
 ro pes
 bit ing
 crow d
 Un fortunately
p ite
D anny
Tr ue
 se agull
 padd led
 wear s
 deliver ed
 M on
 on ions
 buzz ed
 twir l
 complain ed
 b umpy
 st em
E w
 pig gy
Mr s
 Ann e
 dire ction
 di ved
ou ch
Ro ar
 start led
 t angled
ul ts
 lean ing
 A nt
bb ie
 J ones
 bad ge
 P o
 un p
Gra ce
 de al
th ough
Ann ie
 v owed
 nap kins
 r isk
 tick led
an es
 cover s
 p ec
Sh h
 yell s
 satis fied
in t
 knock s
 refres hed
t uce
 S c
cu se
 c ous
 arrow s
M aggie
 Wh istle
 wip es
P e
 spe aking
 guess ing
 let tuce
 Qu ack
Un fortunately
 ri pe
 S usan
 hid es
 choice s
 Do do
 Ro ver
 sign ed
Bu zz
 slow er
 seek er
 introduc ed
 sing er
 creat ing
 Mat t
 fro ze
 c ent
 jo ked
 sque al
 toast er
 explore rs
f it
 av o
 pray ing
S ophie
 wr itten
 discover ing
 D ara
 prov ided
 L ion
 ref le
Ex cuse
 mushroom s
 Je ff
 P aws
 kne es
 pay ing
 hid er
ence s
 wander ing
 As h
 imag es
Ch arlie
 st ung
 W ink
 magnet s
 bare ly
 beh aving
 tip to
?" ,
 mar ked
br ush
 D ee
 rest ored
 lead ing
 ch uck
ll ed
B ig
 gre et
 n ine
ad os
T eddy
 bra very
 gear s
 Sn uggles
 competit ion
k y
 out fit
ol ine
 wis hing
 prop erly
 vent ured
 dance s
 mus cle
 ch at
t le
a a
 pen s
 sal ty
am b
 Bet sy
 ran ger
 Z iggy
 deser ve
 how ever
se qu
 matter s
 dark ness
 F u
 bur st
 rain y
 cobweb s
 ruin ing
 chef s
 block ing
 b ak
 con sequ
ust ed
it ely
 sc ur
st y
 v ines
 fa b
ab el
 fab ric
 ent ire
 base ment
 le ast
 perform ed
 Bug gy
S n
 scrat ches
 heav ier
 C laire
 min ts
 twir ling
 avoc ados
How ever
 L inda
r ink
f l
 lo sing
 scur ried
 sunf lowers
 Jenn a
 rain co
 sword s
T weet
 cl ick
  
 
ag ic
 L aser
 job s
 sil ent
 fl ames
 necklace s
 L uke
 relie f
 Gr umpy
 sn at
 rot ting
 sew ed
l en
 trick y
L isten
Fo llow
J erry
 light er
oph ia
 bow s
 Sk ip
 ex ha
 solut ion
 consequ ences
A lex
 L ena
 st ain
 tire s
Be ep
 unp acked
A b
 part ic
 race s
r ance
 p ins
 bump s
 wrap s
 w ow
 decor ating
 b acked
ais ies
c her
 dent ist
 need les
 pur r
 cautious ly
 lift ing
izz ie
 P r
 accompl ish
 triang les
 d aisies
ep t
 hesit ated
 ann oy
 Th ose
 growl s
 crack ers
o ke
 stom ped
 c ott
 gra bbing
 fig ured
 bo dies
 m ater
 T ree
 buy ing
 R olly
 F ido
 mater ial
 A dam
 swan s
 t ies
 g ri
ver s
 grow s
 sweet s
 Good bye
 E l
 own ers
 cheek s
 flav or
 C athy
 J essie
 suffer ing
v room
 fa ct
 group s
c l
 fore head
b ly
 lung s
 re pa
H arry
 interest ed
 bak ery
 M ilo
 f reed
L illy
it ches
 Not hing
 chuck led
F or
 con n
 sw ept
 th ud
? '
 exha usted
 t apped
T w
 twink ling
 ne ct
ro sty
 nect ar
ell e
 fe ast
 dar ling
ind r
 M ad
 wor ries
 un s
 tunnel s
 fu zzy
 Tr ust
 re ason
 repa ired
 B all
 Co pper
 activ ities
le ts
 H annah
 pec ked
 T ry
 ent rance
 me als
 L isten
 ra indr
 complet ely
 partic ular
 ma iled
 nest s
ct ions
 wait er
 cudd ly
 s ense
 N ana
R u
 color ed
 le ap
ark y
st ep
b and
 pee king
 pl enty
 C ara
 slam med
n o
 play ers
 mon th
 B irthday
 bu dge
  Q
 sc ra
 incl ud
 forget s
 d en
 hand ful
 Ol iver
 m er
o ssible
 gen ie
 Chr ist
 st ool
 talk s
 P up
 Su zie
 feed ing
 passport s
 film s
 bath s
 imp ossible
 determ ination
 prin ting
M ay
 design ed
bo at
 bu ses
 o pp
 bar s
le phant
ue en
 suit case
 count s
 sto len
 spread ing
 Sn ap
 spike s
 ste er
 wip ing
 R ain
 l amb
 hon ked
et ty
 cow b
W hee
 separ ated
bl ings
 si blings
 hop s
 ch op
 fire s
 sew ing
 Tw inkle
 fe ver
 twink le
 t y
 camp ing
 M ira
 l ower
 chan ging
y es
ret ch
 beh avi
 Bl oom
 li qu
m as
 celebr ation
 doll house
 squeal ed
b ut
S unny
 back ward
 ag e
 snat ched
 c ash
 tw ice
h o
 s way
le e
it ched
 celebr ating
 Pe anut
 ac he
 shr inking
 k ings
we ed
ri ous
 shop s
 kitten s
c ope
R ose
 Jess ica
 J acob
 G ina
r ig
au ra
 h us
 touc hes
air y
 pan cakes
n ies
 avo id
 sp at
 F rosty
h og
 N ina
 path s
ck y
 H old
ive s
 calm ed
 r otten
S andy
 dro pping
 sea weed
 M el
P ipp
 twist ing
ile s
 stro ked
 J on
 unt ied
ll en
 play house
M illie
 stud ents
 pupp ies
 So f
 screw s
h i
 ast ron
 R e
 some body
ig ning
 liqu id
are n
 squ ish
am my
 wake s
 W oof
 brace lets
 astron aut
 thr own
im mer
 loop s
 O ther
 pl ain
 wra pping
L uckily
 plan ning
 tr amp
 sk unk
 a imed
 pen nies
 sh oo
 danc ers
 lift s
 spark s
 firef ly
p en
 po ster
 c ust
end y
y an
 Christ mas
 reward ed
 object s
D an
 dire ctions
ing o
us ing
 refle ction
 hus band
T ake
� �
ri ver
 cl ues
u ppy
 lead s
 incre ased
 bl ocked
 r ising
 do d
 Y esterday
 cous in
 With out
 forget ting
rig ued
 cust om
K ate
 begin ning
 tramp oline
 store keeper
 pout ed
 zebra s
 a ff
 hedge hog
 borrow ed
 � �
 Ro llie
 snow fl
 country side
J ump
 J ay
 mes mer
 vehic les
 instr um
 M ic
 K ayla
 U p
 frown ing
P at
iv ity
U nder
 mark er
 be y
 pres ses
 Q ueen
 bey ond
 On ly
 dam age
i very
 T ara
ie ce
 Big gie
 far t
j o
 heal th
 whisp ers
 slip s
 swims uit
 n ibb
 Jul ia
 warm er
arm er
 fl apping
 tipto ed
 regret ted
itt ed
 lay ing
 Rob o
Z ip
 F ire
ad es
 y elp
 rain s
 gl ued
 every body
 cre ations
 hear ing
 sw ir
 cold er
iver sity
a el
 shap ed
 E lephant
 fin s
 street s
 cush ions
 rust y
 sa n
O ut
 fart hest
 Mike y
 creat ivity
 sa le
an s
Al ways
 strong est
C o
 fit s
 Spark y
ibb it
 bell s
 doll ars
 L arry
 e arn
 M oon
 Ch irp
 lend ing
i am
ang le
ee se
 cash ier
M illy
 includ ing
 R ich
 sniff s
 rainco at
 san k
 sto pping
 tremb led
 sour ce
it i
im on
 Miss y
a e
 ind eed
 wob bly
ter s
 guest s
 sing le
 recommend ed
 we e
 spell s
 accomplish ment
 bel ts
 end s
 surpr ising
 hope ful
 seas ons
e et
 T ake
 Snow man
 E ls
B ear
 plan s
ich ael
 supp orted
 suff ered
 art ist
st ick
ill ed
 perform ance
 slow ed
N ina
 g ross
 flav ors
 sp ins
ert ain
id ing
ch o
 label s
Qu ack
u ing
 raindr ops
 del ivery
ara c
 forgi ving
 rac coon
 W oo
ob ody
 pour s
t he
 stand s
 turt les
il ity
 van illa
B ill
u ess
 be am
 rec ipe
 t ying
 S w
 g eese
 will ing
 draw n
 rob ber
 we pt
V room
 B ones
 ch arac
 corn ers
 pop s
 S ophia
 que ens
el ia
 d ie
 gri p
 sail boat
 driver s
 m oo
it ude
 hall way
 imag ining
 second s
 Fu zzy
M ine
 prep aring
 wid ened
 ad ult
 Sp irit
 c oop
 gro cer
 talent ed
 Be aky
 P am
 I zzy
 sail ors
umm ies
 as ide
 so fter
ll ing
 water ing
 knot s
 send ing
 t ipped
 uns ure
 hor iz
L ulu
 tree house
 L izzie
 not es
 e cho
ig ers
 achie ved
 horiz on
 deliver ing
 sque ak
 hot ter
 St ella
 ple asure
 pupil s
Cl ara
 bur row
 angel s
 curious ly
E llie
 blin king
 y um
 J une
 d et
 symbol s
 St retch
 tw eet
 pass en
w k
 Ru dy
 C indy
 t ummies
 t iss
 pige ons
 figure s
umb ling
o ey
 band ages
 Rob ert
 c oup
 Do ctor
 robot s
al ph
 toss ed
 h our
 back wards
 ro ars
B aby
 mer ma
 r ather
u zz
at ur
Mar ia
c ited
 Cra b
 P lay
M oo
Do lly
ight ing
 grocer ies
 zipp ing
P ut
 un w
V ery
p rin
 am ong
 bl own
  icing
!” .
 after wards
 r umble
 screw d
ipp er
 sp ed
 T ia
 pr ove
us hing
 g lee
 T iti
 d ip
 over come
Qu ick
Ru by
 surf board
 shovel s
 To ot
 slice s
 m erry
 m ate
 wob ble
 T urt
 A bbie
 head ing
 disturb ing
 rever sed
 sw all
 firefight ers
J ul
 swall owed
 ch ip
 fl ipped
 sc ored
 J ump
aw n
ed s
 squee zing
Fr ank
ust y
 wa king
S u
at y
 int rigued
S ad
L ike
 m aker
 B arky
 p uff
B etty
 ha wk
 encoura ging
 a ud
 E x
on ies
 ch os
 chos en
he w
 A ng
 F armer
 coup le
 design s
 slipp ing
 screwd river
 Em my
 squish y
 garden er
 cent er
 river s
 mark ers
 resp ond
 jar s
ile y
 t igers
pec ting
 frown s
b ird
 flutter ed
 Sad ly
 K it
 firefight er
 S l
 R yan
R ibbit
 sec ure
 suit s
 sprink led
 cream y
 br u
as hes
 shark s
 ignor ing
 gigg les
 tight er
 tiss ue
 firm ly
oun ce
 L aura
 sh own
f ly
 famil iar
 thorn s
Sp ike
 W o
 draw ers
ch ild
 Z ee
 exp ress
C ar
 d aring
 cross ing
 de f
ment s
 aud ience
 cloud y
 perform ing
 colour ed
 c or
 a is
 N ick
r at
 pedal ed
G et
 mix ture
 t il
 grace fully
g gy
 haircut s
 yield ed
 p onies
 dis ob
 crown s
 bit s
 S leep
 to dd
 hang ers
 nervous ly
 P atch
bb led
  2
Z oomy
 pay s
 pe ck
 e v
 stro ke
B ang
f all
 res pected
 n apped
e en
 R on
a ven
 mind ed
B essie
dd ie
ab ly
 test ed
B oys
ad ing
p arent
 Chr is
K im
 N ear
 Un iversity
 bee h
 Turt le
 neighb ours
 surf ing
ar row
 sh ady
ver ed
 magic ian
 d arl
 enthusia sm
ion a
 darl ings
 wis ely
 sail s
 st itches
ke nd
D ear
 thought s
 wee kend
 Tweet ie
Fred dy
 remind s
 temp er
or ing
 fle as
 surround ings
 spit s
ant ha
th a
 team s
 fill s
 lesson s
 Al ong
 fl ip
 mel ons
 paint brush
 merma id
K atie
on i
ra c
 grand child
 expl o
 el bow
 hoop s
 sport s
 li es
G uess
 F ighting
 pan icked
 clean er
 am ount
 long est
c used
 scoot ers
 l ent
 s ill
it a
 bel oved
immer ing
Pipp in
 beeh ive
Al right
og a
ong rat
ll e
 oy sters
 grand parent
ongrat ul
 forgi ven
 magaz ines
 W ise
 ar r
 e lf
 repe ating
 discuss ed
 sweet est
 Thank s
 wa dd
K eep
 May a
 la ce
 re ass
 Gr anny
 nightmare s
 W illy
 tub es
A m
 understand s
 spoon ful
 n ood
 bat hing
 Z oey
ast y
 man ners
 swe ep
c row
 H olly
 b ully
 spr ang
 n ur
Un cle
onn a
 wr ink
 gu ide
 Y et
 c rew
rom ise
an cy
J azz
 breat hed
ild a
wh ile
ent ly
step s
 B ally
 bulb s
 ne are
 grass y
 sp ies
 test ing
 wig gly
 c oug
 sol ving
 R oo
 sheet s
 foot steps
nt il
 speed ing
After wards
 fo cused
oun ced
ce pt
? !"
 bra ver
 cam el
 mesmer ized
 Spark le
 hesit ant
 lick ing
 r ushing
 W ell
 join ing
 P uppy
n e
 pol ar
 greet ed
 Mar tha
- -
 Bu bb
ann a
es pite
 are n
 wor n
Wh ich
K iki
 ch anges
 material s
 N obody
und red
 stor ed
 bicy cles
 an ger
 m ast
 peace fully
Le ave
 ship s
 sp ice
 Sh ow
 terri fied
 n uzz
 g onna
 pol itely
 spill s
Sn ow
 scare crow
 kn ives
 Mix y
 ev il
 bury ing
pp ies
c a
 heal ing
 don key
 aeropl anes
E ven
f reeze
 se als
 scatter ing
 m iles
 Chew y
 d ump
am boo
 worry ing
B ee
z oom
be ep
 L enny
D avid
 puzz led
 st acked
 K ip
 N ice
P enny
 lo ses
 basket s
dd ing
 W in
 trave lled
 O kay
 gaz ing
 bl ast
 T ess
ip es
H urry
 temper ature
 cl ue
 u nd
 tast ing
 belie ving
 dri pping
 pinch ing
 so aking
 rat s
er m
 1 0
is c
 sand y
re ct
 Is n
 S imon
re y
an while
 Ab i
g ling
 ban ged
B inky
 punish ment
 human s
 cras hing
 for ce
 An a
 g est
 h undred
 L ia
 swim mer
 Che ss
 snowfl akes
 relax ing
 res isted
 beep ed
 F airy
 quarrel ed
 r amp
el ie
 W endy
f orm
 jo ins
ab by
 backpack s
 P h
 dress ing
 delay ed
year s
 todd ler
 L uckily
 fl ight
 cover ing
 T e
 ben ches
B y
Tw o
O pen
or ter
 encourage ment
 tow ard
 scra ped
 purp ose
 fo cus
 Ju dy
B ow
 cor rect
' ."
 lip stick
 b amboo
 C ow
S pe
 pot ion
 twink led
 month s
 perm itted
 langu ages
 ord ers
 freed om
T ony
 m aster
 risk s
 po ppies
sh m
 nood les
 f aded
 wound s
ri er
K ids
shm allow
is ions
 Jo jo
 cream s
 bird house
 cell s
 Her b
 annoy ed
 che ers
op es
 sniff ing
 ad ults
Bird y
 unw ra
 p uck
 flo ats
 opin ions
Bu zzy
ec ca
and as
In stead
 fl own
 sc en
 hands ome
 H ug
 snee zes
 M int
 no dding
  5
 smell ing
 bur nt
 dri fted
 with in
b age
id er
 he ight
 sc ient
 bother ing
 dam aged
 te aring
 sl ither
 ple aded
 instrum ents
 e ase
 Al i
B ack
 Mar ie
 scient ist
Good night
M ira
 p ound
 hand ing
 sell er
d a
 S ay
 g erm
 was ting
 file s
 dream t
 res ults
 M abel
 explain s
 destro ying
 brus hing
b ell
ous y
 C r
 R azor
 his s
 charac ters
C arl
 St e
 c ertain
P andy
Be hind
 sweat y
un ched
 bus iness
 Rob bie
 on ward
 tal ents
T ry
 brave st
 eng ines
 P en
it ion
 Jan ie
 stern ly
 post man
 mosquito es
prin ts
 mind s
 t uck
 scare s
c ake
 apolog ised
 stom p
u rious
 man ag
u el
 sn uck
 b itten
 remind ing
atter ed
 sw itched
 til ted
 dec isions
 sing ers
 des per
 Po or
 behavi or
as hing
 Ju dge
bb ers
 sque aked
 peel ed
in ny
 Every body
 pur rs
 y umm
 B ra
 treat ed
 display ed
 rust ling
 sm ashed
 U ntil
 neat ly
 mate y
 plant ing
 B ess
ini er
 mar shmallow
 in sp
 cra cks
 bell ies
 s y
 yelp ed
 grandparent s
 sc amp
 shin es
 N avy
a ver
 fa iled
 color ing
 h oo
 Y oga
 zoom s
 M ake
 breat hing
r up
 n asty
 comb ed
 des pite
 p andas
 add ress
l ine
ig hing
 water fall
om p
uff in
 L oop
c c
 Ang el
T illy
 ant ic
 wid er
 ro bbers
 door way
 To dd
 sweat ers
P lay
Ab igail
 echo ed
 ed ges
e vin
 Sh adow
 in j
A unt
 Bl inky
 g ap
 disob ey
L iz
 M ichael
w ise
 t ar
ss s
 Fl ick
W ake
or king
 magn if
 tap ed
os cope
f ather
 act ion
 scold s
 flap s
ul p
 crawl s
 M indy
 back s
 sw ap
 G ary
R os
 go bbled
 war ri
 Fish y
 E ddie
 se ver
 st eth
S low
 newsp apers
 prob ably
 sh inier
 o cc
 sever al
R ock
 enc ount
L ena
 Me g
 quiet er
 ser ving
 pl ucked
 conn ected
t ock
 Sh are
  ouch
ig ger
A dam
T ed
 gest ure
 pl ot
T oo
F l
 stud ent
 door bell
 squ aw
 care s
f ire
 S e
 grand son
 resc uing
 g oo
 sp y
 row s
 simp ly
i el
 whist les
m ies
v ant
 snap s
Sh rink
M agic
 astronaut s
 sh orter
 Tim e
s ss
 unpack ing
 cott age
 sw o
 accident s
 m ood
 N ut
ib i
 swo llen
St eve
 Z ippy
ab elle
 M ousy
Z ara
 bother ed
an ie
H annah
 steth oscope
f ound
 trust ing
 ca using
M ad
M at
 dress er
 leap t
 s ou
ain t
 pill s
 prop er
ret ty
 through out
 run ner
 D ina
 pray ers
O live
 joy ful
Th omas
 K aren
 lo cks
m ates
 Pr ince
 goat s
J amie
wh at
 tar get
 W ait
re st
 B ang
 de ars
art led
 C ro
R ed
 m unch
 fl ips
 wadd led
 low ered
onn ie
 ste pping
 Jack ie
 con s
 teacher s
 T oys
 cowb oy
 in ches
 envel opes
 V room
 ch ar
ear s
 explore r
 antic ip
 R uff
 play d
 Re ady
 R alph
Fin n
un ity
N ice
 B ad
en ing
 floor s
 knock ing
 effort s
 P l
 uniform s
 T ri
 pl ug
l ied
 aw are
 foot prints
 near ly
Some one
 F iona
ll as
 R ia
 dis c
 s ens
 gl itt
 wh imp
 tr ot
 appreci ation
iv i
 ne cks
 che cks
 coll ap
oo sh
 la pt
 ex cept
 Jack y
 ch arge
ic i
 flutter ing
 umbre llas
ac y
 sandcast les
 Dave y
 H oney
 stamp ed
 stat ues
 shr ank
H oppy
ail s
om b
 Am elia
isc uit
r ily
 pri ck
 add s
 fin ishing
r ons
 chocol ates
 hunt ers
 dod ged
 stro ll
 passen gers
 germ s
og er
 wr ig
n ie
 ais le
 ap rons
 set s
 G erry
.' "
 novel s
 we eds
 T aking
 demand ing
 scratch ing
 meow s
g les
iss a
D r
 nur ses
L ucky
 mind ing
 discuss ing
 drive way
ur render
 C ari
 k illed
 bec omes
 ha ird
 tool box
 El iz
 lapt op
 att ack
 po sit
 Sad ie
 G l
 D espite
Spe edy
so l
 bounce s
 scamp ered
 spray s
 de ed
 supp lied
 tem pt
 burn s
 friendship s
 suggest ion
 clos ing
 sl apping
Co co
 belong ings
 invit es
A rrr
 anticip ation
 St an
 spring ing
 er ase
 for m
 cott on
 twist s
 r ays
 forgive s
 snug gle
 model s
 hum ming
 mass ages
 sh all
 respond ed
 new found
 She lly
 ghost s
 ex pecting
 che ated
Do es
 Woo ly
G igi
ott e
 travel ing
 N e
 co nd
 al though
 bat tle
 arr an
allow een
 mom mies
 car ries
 a im
 invit ations
 refres hing
 present ed
 B umpy
 r owed
 tw enty
he l
 squ ir
ot s
 fox es
ri e
 coop er
arl otte
 duck ling
 fin al
 ca fe
 B ibi
P ip
 marshmallow s
 cl icked
 Z ipper
 jet s
o or
 des igning
 be aver
f ive
 M uffin
 H alloween
 mug s
 Who ever
 dr own
 Al though
 picnic s
 R uth
 tri cycle
 con vin
 opp os
 Ex cited
 C le
i ens
 scoop s
 P op
 Mad die
 c ongratul
 travel s
 � �
Sad ly
p o
 al iens
 test s
 question ed
 Spe ed
 cra ft
 I m
 strip s
in ted
N ear
M ouse
at ty
 de fe
 Fl utter
co vered
 Bubb a
ir i
 fight s
B r
B all
ro ken
 Big gy
 oppos ite
E lly
H mm
F ind
Ch loe
 r out
 N ever
 grand father
 encount ered
 dec l
in ch
 aff ord
 ra ising
 up side
im ent
 V ivi
 calm ly
J ess
 fl ashed
 R ita
Me anwhile
 yaw ning
 real izes
 since re
 b uddy
 cryst als
Ch oo
atur day
Tr ust
 Sam antha
 buck led
 cup cakes
B oth
by es
 win ners
 def in
ver se
 con c
r is
 ca w
 weap ons
' ,
Jo sh
sh adow
 pack ages
 che at
 S aturday
 co ach
 att em
 sa cks
 mes ses
 good byes
qu et
 Tr uck
 con vers
 Fl o
 dri ft
 M ina
 cap s
 E va
v al
 en em
 enem ies
ash a
 scr ub
 yumm iest
 return ing
 sw allow
 admir ation
 Me gan
 Sof ty
 spr out
S ince
 Lou ise
 un able
 An other
 Play ing
 sad der
 b less
 bright est
 freez ing
ook s
 Y awn
 resp on
ri an
 O h
 co sy
re verse
 respon se
 br ide
 diamond s
 re app
st alk
 hon king
 M an
 opp ort
 gar bage
 stret ches
 prevent ed
 whisper ing
 o dd
 who ever
 G ray
ant astic
 aw ful
er k
 journey s
al th
 weigh s
 aw oke
 trap s
B rrr
 dragon fly
 spice s
 b orn
o ff
 cl ip
 reass ured
 st all
iv ia
 arg um
 bean stalk
 M aisy
 beet les
 automobile s
 exam ining
 defin itely
 visit ors
 stuff ing
m ine
H op
 playd ate
 was hes
c ie
b roken
 wis er
 custom er
em ma
 Jo lly
 Fl op
R achel
 Sof ia
 trave lling
up er
 b ou
 N urse
 haird ress
 bou quet
, '
or se
 t umbled
 decor ation
 E lle
bb le
 camp fire
 bu d
 honest y
On ly
v y
eb ecca
 b omb
 offer ing
 welc oming
 J ax
 He llo
 trou bles
 O t
 occ as
 we alth
 loud est
 incre asing
 insp ired
 par ted
 Ch ick
 ty pe
 gro an
 Nut ty
ir ac
 Th under
 R icky
 wh ales
 decl ared
 correct ly
ook y
 beak s
f us
 Quack y
y ler
 cle ared
ath an
 cowb oys
 Dot ty
 nuzz led
 pri zes
 warm ly
Fin ny
 Miss ile
 re wards
 obey ed
 custom ers
 F el
 comfort ing
Sh ould
 siren s
 Fl appy
sh aped
 conn ect
 town s
m atch
 M agic
 B ingo
 re ly
 V icky
elie ve
 own s
H oney
 bend s
 insist ing
 F e
 tr igger
 f antastic
 spo iling
 hairdress er
 share s
 po ses
 support ing
 surrender ed
 clean s
 p ipes
ren ch
S un
Out side
Jul ie
 wrink led
 C ook
 cho pped
 mo ons
 recor der
 beam ing
 than king
ell ow
 snow y
B eth
un es
 Wo lf
 enjoy able
 act ive
 exper ien
 sc urry
en n
 c oral
 P iggy
 doll ar
 env iron
 K evin
w orm
el ope
 lo c
 B ub
 stream ers
J e
 M other
ud ged
 Pat ty
 Z ack
 ex amp
ing er
Su zy
 short s
 shoo ed
 environ ment
  ill
T ree
 sc ent
 bru ises
 L uc
ust er
 gr at
 his ses
B o
 pl ugged
 sel f
 steer ing
 Els a
 warri or
 visit s
 exerc ises
y l
sc reen
 cudd les
ap tain
 dan gers
ir l
 R el
 A r
 squ ished
 un fortunately
 s igning
 L ight
R ay
 disappoin t
 pilot s
be e
m unk
 applaud ing
 grat itude
 M oppy
 prov iding
 t ing
 R ub
 tick les
al f
 bad ger
 night s
G row
 storm s
 ju d
 Els ie
 convin ced
 K elly
 you n
 respons ib
 choo sing
J oy
 bra ins
 activ ity
 neare st
 youn gest
A bby
 explo ded
 coug hed
 arran ged
 F ly
 reward ing
C laire
 T re
 bo nd
g ood
 pe ep
 Fl oppy
erp iece
p r
 sun screen
as ers
 S weet
 Tweet y
 K aty
M on
 S al
il ities
 annoy ing
 soap y
e ow
S plash
s n
m eow
 rail s
 lace s
 P ine
 thread s
 off ic
 t apping
 appreci ated
 Ph il
bo ards
 P ick
 emer ged
 we ighing
 congratul ated
 heart broken
 S il
D anger
 crocodile s
 cl erk
 scr am
 N ancy
 attem pt
 A ny
 d ial
 mess ed
w ater
Ah oy
 K ay
 M in
 D e
 examp le
Mom ma
 hook s
 Jon ny
 top s
 chip munk
 so ot
 bat hed
 guard ing
ra ged
 T ippy
 manag er
ort unately
 Mic roscope
F riends
et ah
 B aa
Snow y
 mast erpiece
 er asers
 Tom orrow
 tip s
 f et
 fin ishes
 comm on
 dig s
 me mb
 nibb led
 trot ted
 memb ers
 kind er
Pe ople
 che etah
 chew s
 bl ond
 particular ly
 be ast
ir cle
 rip s
L izzy
 argum ent
 fa ith
 Help ing
at ive
 earn ed
 Jo ke
 obser ving
Ann e
 forgiven ess
 C ici
 che aper
 J umpy
 fis hes
 mis chie
 inst antly
 cur l
 experien ced
 c ages
 Tw ist
 gener osity
Ros ie
 mischie vous
 fo am
 meow ing
B aa
G r
 store s
m ered
 grand d
C indy
 A g
 matter ed
etch up
 te les
 l imp
 p asses
 sleep s
S que
 breath s
io let
 r in
ord inary
 gasp s
end ing
 Fred die
et tle
 tr ans
 hat ch
 Mom ma
G ot
 r umbling
 Ho pper
 accompl ished
 grass ho
o ver
ab ra
 t in
 th ump
 str um
 mat s
 smart est
ac ing
 teles cope
 wh ined
 mo at
 I ce
 farm ers
G ina
 scram bled
 dri p
 M ore
 garden s
Rob bie
 sy rup
 collap sed
 ang rily
 forest s
ide y
 ve gg
 discover ies
 sty les
 experience s
ou raged
 med als
 to r
ho le
 mean ing
 con qu
 Do es
 otter s
 P ig
 ty pes
 f aint
 f if
ac ock
 hard est
 sn apping
p it
ad abra
 express ion
 move ments
er ing
 ch illy
 bubb ly
 sur v
 aff ect
P inky
 vest s
 cour t
 unf air
When ever
 score s
 tooth brush
 extra ordinary
N ever
 att itude
 hor ri
 vi br
 Mon key
 blue bird
 spear s
m el
ll s
 k etchup
M o
 B erry
M other
 soon er
 behavi our
 grassho pper
 ha bit
 pat ches
K aren
 mom ma
y d
 af ar
 poke s
er ts
 Ash ley
l o
 sc ri
ie ves
 thick er
 F riend
J acob
 T erry
 shr unk
  icky
 squee zes
 F le
J on
 slither ed
 class mates
 glitter ing
 prick ly
 exp ert
 to pp
 kneel ing
 ann ounced
 R iri
 S uper
 mark ing
ell ing
 pe acock
 C ally
 cost s
ct ric
 A choo
 zigzag s
 water mel
 th ieves
 h ood
 jump er
 A pp
 Z og
 act s
 sk irts
 wo lves
 Cl oud
 Sw im
 sque aky
 thumb s
 con cer
P apa
 co coon
 bo ards
 wood cut
 Be cky
 Eliz a
 ser vant
aff le
 che ating
 J ason
id ence
 r aking
b u
 tr ading
 explain ing
J essie
 E ric
c at
 tid ied
ri ck
 b iscuit
 lunch time
 luck ily
 A c
 P uffy
Fr og
 spill ing
 D ay
F ire
 U se
 An imal
 Mad dy
 Dan iel
 trans form
 dess erts
 M ine
� �
an ced
r or
 G ill
 St ill
am ma
r ough
 mess ages
 m irac
 C aptain
 G illy
id y
 L ung
 be ating
 windows ill
 T ammy
 ch ill
 see king
o ot
 a ctor
 L ina
 Rain bow
 Will iam
se ss
 M ath
it s
A ny
 fore shadow
pr il
w ar
 St ep
 lean s
 H i
Blue y
 P inch
ac les
 cloth s
 T iger
 de v
F reeze
 his sing
 Frank ie
 Mon ster
B ounce
 fl ashing
rac adabra
 watermel on
 wind ing
 fun n
 W il
p op
 posit ive
 disc ouraged
 dri pped
 for ts
 compet e
 woodcut ter
 tea pot
 press ing
 disagree ing
 gl immering
ick ing
 tidy ing
 trust s
 kangaroo s
 vegg ies
 Pe ep
 land ing
 temp ted
 Fl ora
 do ck
 for med
 sh allow
 over w
 r ack
 f ade
 To oth
el ing
 wor st
 cop s
f lowers
 ele ctric
 apolog y
Not hing
 L ife
cream s
a i
 sled s
i ving
 Sil ver
up id
 as s
 comet s
 sa v
 J elly
Ow l
 M ag
 Sh ark
  4
B ug
 p apa
 situ ations
 convers ation
 offic ers
R ain
 R oger
 Ch arlotte
st orm
 sun s
 d ing
ay e
” ,
 pizz as
 zip s
 mill er
 structure s
 But ter
 scurry ing
 overw hel
 f oggy
 Am ber
 H urry
 Ol ivia
 grandd aughter
 Jane y
Z oe
 web s
 deser ved
R abbit
 Y ummy
 cub s
 Mix ie
 S asha
 opport unity
 B uster
 Sp idey
 Go ld
 rhin o
 difference s
 sn orted
 quack ing
 T ell
if ully
 Bird s
end ed
F ifi
 he aven
 unl o
 le vers
 inch worm
 in ter
 appro ach
 T yler
 B oom
 po s
 seagull s
 cooper ate
 Ru fus
 Fel ix
 pos sess
s ers
?” .
rag on
wel come
o f
and ra
 Sm oke
 disappoint ment
 po se
oc ular
 speak s
 sneak s
 art work
sn ap
 bin ocular
 sc owl
 answer ing
 surf ed
 Sn ake
 Gra nd
 short cut
 s ipped
 rob in
 d ep
Cl imb
 In ky
 ar rest
 re un
 am used
ss y
 Am anda
 unwra pped
 ribb it
ug ar
 repe ats
 appl ause
 pepper oni
 C ars
 check out
 M ae
 key hole
L ia
 visit or
 stri king
 padd ling
 puppet s
D eal
 un z
E at
 cro aked
 att acked
 C ircle
ors ie
 G us
 Ot to
 sp ooky
E ach
 B rian
 groan ed
 beaut ifully
g ar
cident s
 check ing
il i
 swimsuit s
 cons ider
u ses
 Y ellow
 water s
 g room
j est
 Sque ak
 Sl inky
 in vent
y le
Jen n
 net s
 exam s
L uke
 dry ing
ot ion
et s
 R ebecca
 l ump
ag ine
art in
 Aunt ie
 shrug s
u dy
 shy ly
 cheer fully
 shoot s
 S ince
 heel s
 so bbing
le st
 honk s
s ie
 sh h
h ny
es ses
 ch in
an ish
 hang s
 health ier
 whimp ered
ic ious
 M us
M ilo
 caterpill ars
 f ries
izz es
 magnif ying
Slow ly
 squ inted
 R atty
 bl amed
 F ind
 fascin ating
l ers
 frustr ation
 T ip
 sc ulp
ch ing
 sculp ture
ou ched
 sh immering
 Pen elope
 Pe ace
 po ss
e at
 s uck
 number ed
 ple as
ed ic
Sh aring
 nibb le
 W affle
 flow ing
am il
i bbles
 ba a
oth y
ell ie
 ra ked
 gr umbled
 O ff
hing s
Pe pper
th at
 build er
Bu bbles
 gu ards
 pet ting
 fa cing
 sway ing
 Woo lly
rac ted
 myster ies
 H ar
 sprink le
 det ails
 sn ort
 fl ock
 en emy
 Bo at
se y
 good ies
 table t
 B arry
 texture s
 C urious
 po pping
Y esterday
 count ries
 mar ve
 fan s
 stack s
 cr ops
 Gra cie
 wild flowers
 knob s
h ow
 See ing
 Tess a
 bush y
 loc al
 bow ing
 hunt ing
 ste w
 ang rier
 drown ed
 Bub u
 peep ed
 binocular s
 map s
 M atch
 moon light
 G low
 n iece
 L i
 qu izzes
I m
 D eal
 John son
 outfit s
O O
 weak er
 mind ful
 crow ded
 wh oosh
 w rench
S qu
 end ings
cy cles
 Bee f
 hesit ation
 fl ashes
 proper ty
o ll
 fo nd
 And rew
 un less
 car ts
 bo il
 imagination s
 O xy
 ab ility
amil iar
get ic
 gl ared
 R ight
 Ac cidents
 ha ven
st and
 fold s
 mic row
 space s
 kn it
 unf amiliar
T una
 dirt ier
s aw
th s
 responsib ility
 P et
b ank
 desk s
 p ouch
 microw ave
B less
 crack er
ib ly
 d ate
 sw apped
rn ie
 mem ber
 O xygen
 ast on
 R avi
 R ing
W ant
C ra
 wh ine
 soft ened
 B un
l t
 disappear ing
 Hel en
f ree
 Pe ggy
 door step
 re bu
 Ch ip
 quack s
 n atur
 T oo
 listen er
 F ix
sc ar
 writ er
 pri v
 Sp icy
 bl ushed
ven ir
 palm s
 not icing
 P ast
u pt
re pe
po ison
 sou venir
 R es
 law s
 dis aster
ent r
 G abby
 Je an
 T ra
repe at
end ant
 ph ones
Rob by
st r
re g
 B ert
 Co al
A va
 C ut
al a
 conf idence
 stir s
 tim id
 overwhel med
Be ing
 may or
 fl ick
ing ly
gu ess
 tug ging
 Mo le
 P retty
C he
as mine
 owl s
 mail ing
 satis fa
 unt angle
 inj ured
l or
 Wh ite
Wh ose
 Im mediately
 B ooks
 conc entr
 satisfa ction
F ly
 Animal s
 Mar ch
 l im
 E at
M ittens
m ers
S c
 pr ank
th is
 N ora
M abel
 Wo nder
 B onnie
 R un
W iggly
 K n
 hoo ves
 Tri angle
 Mel issa
 P ot
 fix er
 Cl ose
w ell
 St artled
 Cle an
 S ir
Je ff
 sn ar
 cl ut
ic ate
 sk ies
 Tr ucky
b ling
l ish
 instrum ent
Ex cited
 cap t
 Mat ilda
 F aye
 H orsie
ad ually
 disag re
 pe cks
 cre ak
ik y
 stain s
 Sleep y
 wrig gled
 rin se
S usan
 sh ave
 I cy
 bump ing
 Hel i
 Cra bby
ul f
 r uff
 bend ing
 swir l
 S ing
el s
cess ary
 explor ation
Cl ose
 Sc issors
 chat ted
Play ing
 sand pit
 rod s
M ake
 le ver
 fact s
S m
 C andy
 attach ing
 fool ed
 bur ger
 B ro
 glow s
 clear ly
 concer ned
 sal on
 comp an
 la va
 rever sing
May a
 certain ly
 sm elt
W ally
 cir c
 fet ched
 motor cycles
 somet ime
 old est
 firef lies
 pro d
 t unes
 tr oll
 kiss ing
 challen ges
R ing
 blond e
 warm ed
 Bob bie
K ayla
 b ound
 different ly
 unlock ing
 L ots
 natur al
T ara
 j ig
D ino
urp le
 cut ter
 det ect
 cup cake
 ru bb
er g
 conqu ered
Ab racadabra
s a
 river bank
 hat es
 all ey
 Fl ap
 real ise
s orry
 send s
 O pen
 swir ls
 Flop sy
 ban ging
Is n
 C ammy
Jul ia
 wig gling
 m unched
 sens ation
an i
 f ist
 hipp os
 cl ips
 Rel iable
 topp ings
 st ings
 ro be
Do ctor
 ha lves
 br akes
 Green y
 sway ed
 mirac le
F ish
H ope
 P ink
 ostri ches
 Cl imb
 surv ive
 bubb ling
ber t
 emb ra
 cr ushed
keep ers
M ichael
ul a
 other wise
 tor to
 D i
 tent s
 Look ing
 O f
 repair ing
ch ange
 liz ards
 stretch y
 Flick er
 W orking
 vine gar
 rubb ish
 E d
 passen ger
 Wh ich
ast e
M any
 p ounced
 vibr ant
 torto ise
 Gr ump
 R h
Su zie
 scen e
 gl ided
 moo ed
 desper ately
 b as
g r
 p oop
 calm er
 cop ied
 Sunday s
 sn ip
 int ently
 Light ning
 ma jest
 tw el
 wo ken
 joy fully
 rag s
 P er
 jud ges
 coo lest
ra p
 j ing
 gl ob
 Jo dy
 lecture s
sm elling
is ible
 h ips
 cous ins
ly n
 aston ished
 cap es
 Out side
un o
 arri ves
 success fully
 speak er
Ew w
 goo ey
 reun ited
 gu esses
 inv isible
 bat s
wh y
 twel ve
 good ness
 comput ers
 Carl a
ur ity
Mike y
 chat ting
 stack ing
 snowfl ake
m ie
nd ed
 park s
ist ory
 rac er
 pound s
 desper ate
 comm un
 reapp eared
 compan ion
 d ou
 le vel
O l
Z igzag
 luck iest
 an k
b ed
 t ale
 d umb
 sell s
 cricket s
 g all
 stomach s
 S ugar
 wind s
 g ates
 s us
N ick
 Ste ven
 disobey ed
 disagre ement
M ore
 ho ses
 cr isp
 aw h
 pearl s
 W hee
 awh ile
L ou
 loyal ty
 Or ange
 pops ic
it es
 so da
 Ros a
 tong ues
L inda
 C D
us ion
 rid er
re nt
 Bl ack
O oh
 sure ly
 ab o
 L aw
p an
 Ann abelle
 bu nd
col ored
 occas ion
! ’
d og
 chick s
izz a
 guit ars
 st un
r um
ch ief
 intellig ence
 alligator s
 separ ating
 I ron
 seas he
 R aven
 A pril
 rebu ild
 abo ard
F ound
 cre ep
 W inky
 cro ak
 V iolet
 c uc
 learn er
 C are
 O ld
C atch
aid s
 caut ion
Somet hing
 r ins
 wh ines
 Un i
 reveal ing
sol ut
 sp iky
 tick ling
 esc ap
 explo d
 S ettle
w orking
 C oby
 Ro ar
 under water
 B a
 cr ouched
 glob e
 pr og
ever se
 bloom s
 ' '
 appear ance
ann e
!' .
u dge
st op
if er
 le aking
 hat ched
se ph
 guard ian
ur ricane
f ived
 So cky
 stroke s
 t ant
 do ves
 persist ence
eal ing
arn ing
 rout ine
 zoo keepers
 bl ame
 pain ful
S leep
 light ing
 qu ilt
 tap s
Ch icky
 L u
Sn ap
 squ ashes
 adm it
 mo ld
 P uff
 deep ly
 ri pp
T oys
Ah h
 sh attered
 tempt ing
n et
Th ree
 thr one
gg les
 peek s
 bur gers
 cent re
R alph
 Sp in
J an
Mat t
 squir ted
 electric ity
 sec urity
 cook s
em on
 allow ing
 real izing
 L iam
c on
ort h
 cho pping
 l ar
d est
ck er
us hes
Jess ica
o ss
 ex change
 A lf
 R ace
 sweet ly
Sh are
 Quick ly
S ophia
 sweet er
ver ing
 glitt ered
 rins ed
is app
 build ers
S w
 melt s
Z ero
 mel ody
 fu rious
 defe ated
 In ch
 ener getic
 go ggles
 C omet
 wa ded
 Cat s
 sniff led
as y
 choo ses
 Other wise
 tant rum
 G iant
 compet ing
 contain er
 M ila
b ang
ere my
 Sh arp
 h udd
 l ull
 R ara
 protect ion
 serious ly
 D uke
 P ark
 und one
 attempt s
ar ted
 lar ger
 C her
 cl uck
 Wh ale
 buck les
 helicopter s
 coo ed
Sh oo
 toss ing
L izzie
 Pinch y
 O ver
S weet
 Sm o
 T ears
St ill
 hum med
 courage ous
 D in
 H or
Sque aky
 M a
 d edic
solut ely
 go d
 al oud
 mu ster
 patient s
Every thing
 rac ers
 deser ves
C urious
Mad dy
 T hings
U se
 Sque e
 D ragon
ap s
 mar vel
 meet s
 tour s
 Liz a
 R usty
 J et
 R eddy
 wra pper
